/model.0/conv/Conv_param_0 14.538639 11.938909 28.546122 15.435079 16.047541 34.273659 16.144840 69.700638 17.869045 26.515753 13.511615 7.259480 8.937624 14.475281 51.132469 28.805687 
/model.1/conv/Conv_param_0 104.260269 146.158844 43.102203 134.214508 110.697456 126.054405 213.740036 111.189674 90.817238 45.394917 43.283012 198.257263 207.525223 85.958000 165.112122 236.011093 194.558807 79.010643 268.155518 86.262115 195.547302 145.519409 89.927315 102.760834 100.564034 317.690582 159.631943 145.900177 125.297539 207.684494 294.067444 48.510403 
/model.2/cv1/conv/Conv_param_0 361.270264 233.485977 454.819000 595.896118 363.167786 695.254150 250.678482 894.373108 237.177673 536.601746 488.113159 293.554565 257.024750 377.571716 348.686554 103.381836 1704.945557 141.921509 408.594604 354.401550 718.341431 644.442017 315.054504 531.287170 355.267609 750.958984 380.766846 503.360809 313.654175 1034.472412 359.649597 507.202057 
/model.2/m.0/cv1/conv/Conv_param_0 14.126267 23.196548 10.377152 24.877129 19.204811 20.569910 24.226353 22.283541 13.996617 30.632242 11.774521 21.143600 16.430958 23.763521 14.429288 23.210939 
/model.2/m.0/cv2/conv/Conv_param_0 43.347485 38.511955 125.128090 75.940880 60.457851 98.558922 35.444473 51.874496 52.976116 73.390388 51.655533 34.112068 58.324280 72.016281 59.992584 132.807037 
/model.2/cv2/conv/Conv_param_0 700.862366 298.893799 661.826355 528.880981 651.636047 312.973969 291.074860 266.779327 570.872375 355.114685 591.261963 204.447296 671.220093 522.293884 206.228119 154.286667 539.833252 316.461151 399.420837 305.827240 248.249619 450.616241 144.173950 162.153671 136.334473 385.687347 623.540833 294.477112 125.197952 297.082153 116.824951 158.688644 
/model.3/conv/Conv_param_0 968.580383 321.906464 924.376038 446.436005 614.019653 664.499451 303.694763 333.818146 827.127747 2079.278564 330.109467 442.671478 379.700348 280.979523 472.646057 373.820374 599.282410 689.803528 382.458588 423.506134 499.357483 400.784821 572.575195 469.047089 997.515991 904.584106 1107.083008 598.191345 430.387634 348.310730 677.129883 765.373108 740.903198 480.150391 397.428864 660.048096 456.639801 341.268127 293.681458 1024.500488 405.019318 548.833801 859.734924 543.244080 295.435303 979.374512 660.690796 439.556427 1030.437378 470.336548 413.989868 426.703217 396.865814 691.742310 434.463348 320.339294 255.194397 1127.343750 416.167145 541.848572 284.125610 338.948120 432.482391 406.684326 
/model.4/cv1/conv/Conv_param_0 82.941597 110.404503 119.678566 66.794472 103.077515 105.696648 171.272629 92.732071 92.179558 91.550407 212.402618 104.663292 112.291260 109.346344 167.964478 166.656326 226.397079 109.098640 71.737823 119.399094 121.730904 180.407089 135.969955 182.165848 141.675476 181.420242 184.831421 79.179497 110.158775 253.628296 248.509628 126.176498 322.748016 360.446960 309.468414 475.664215 539.723877 204.925140 223.950897 322.888794 522.520813 686.822632 523.920105 264.698334 308.368408 315.348236 315.432312 432.143768 525.906982 397.733643 293.263672 340.018341 405.008942 333.531128 111.200562 234.515961 389.229736 180.864822 435.168427 524.197327 525.485901 613.971191 356.738586 226.136017 
/model.4/m.0/cv1/conv/Conv_param_0 109.557426 58.900356 67.348312 89.110527 31.383598 67.169060 79.322609 75.760887 69.420044 52.463058 49.318638 58.705376 82.727341 76.523071 51.216663 63.782757 44.433304 70.234444 56.986572 54.107964 46.616306 32.368534 65.509117 85.399307 87.159813 34.701256 66.600197 47.561134 40.524700 124.126221 69.014183 75.997688 
/model.4/m.0/cv2/conv/Conv_param_0 48.527664 22.247995 87.109627 93.886772 77.476860 55.391781 68.964294 77.837494 31.960361 62.001026 46.913910 89.947769 84.590424 81.840416 130.554718 43.973713 56.341324 51.929073 44.354839 22.469793 29.123960 75.788559 38.648033 71.385002 82.608284 43.519024 67.818192 55.024872 66.083595 48.392704 46.364719 69.842087 
/model.4/m.1/cv1/conv/Conv_param_0 197.095673 104.592941 113.960709 55.058563 97.891273 148.014297 58.401875 221.527481 88.860214 72.424187 74.123070 182.232224 97.976944 105.339355 79.908813 81.802376 77.622742 87.707603 103.821518 113.473610 106.578140 91.353989 66.665848 55.071976 68.097672 95.345848 79.675812 148.921661 162.669128 74.898735 118.552834 150.246521 
/model.4/m.1/cv2/conv/Conv_param_0 20.044195 36.406422 15.578536 34.891716 28.413946 24.186562 30.773224 26.891970 44.425243 21.709208 24.674177 24.623892 25.897892 41.006886 19.896231 17.107037 44.424057 34.433872 35.030190 41.396317 34.831390 34.427753 23.948360 33.207901 21.698210 16.713644 23.103081 36.685833 26.127012 38.933231 47.402744 50.138729 
/model.4/cv2/conv/Conv_param_0 460.713654 574.071594 481.019440 192.688614 318.992371 402.877228 304.133667 401.816406 459.054291 332.029480 280.729431 316.768860 375.404266 439.052246 412.020172 308.966644 289.144714 691.234436 314.879211 351.469757 398.444672 557.765198 307.944519 242.823547 366.192078 209.624939 272.128540 433.996887 460.506897 656.753235 485.540283 548.856934 421.142578 378.669434 370.257843 294.905884 646.885498 308.491638 542.918762 331.795105 462.917603 326.811829 548.000977 198.875397 532.190857 523.647522 176.699936 519.497803 236.286575 205.008041 433.628632 284.326202 340.291107 410.200836 415.411133 209.324387 230.894241 507.805450 323.067810 794.392761 250.450775 433.951019 181.303452 386.501862 
/model.5/conv/Conv_param_0 480.690460 554.069641 453.542328 206.145920 923.943848 621.876709 281.935333 492.313019 383.794891 371.276001 368.388519 642.161133 358.496216 412.916351 377.581787 384.902649 751.546570 582.953125 525.884888 782.427429 276.233978 565.273254 347.491333 384.837341 497.291412 404.033630 720.659912 410.619781 572.217529 442.908203 709.242981 504.276154 668.675171 382.020111 1184.819580 427.282074 570.352539 650.325378 565.414429 203.964447 381.236389 659.937439 642.414185 1018.267151 685.328857 788.567566 296.183441 426.203766 406.657867 339.367676 641.983337 309.370148 407.438629 491.224213 247.399902 464.150574 409.526550 575.706360 345.751068 523.330933 327.064850 441.390533 319.201172 491.949524 467.493256 564.409424 765.706055 361.048187 393.094330 260.817963 376.224854 373.389679 467.216949 434.327698 511.097198 504.042053 190.257339 303.659302 540.394043 623.014099 680.501831 433.657349 509.254333 607.711060 603.900024 191.930771 403.808319 746.329468 396.045135 999.950195 357.982056 321.400482 407.855133 742.267151 317.896881 786.540649 512.103210 521.882874 399.453857 643.883179 486.699951 311.038696 387.349396 336.815002 574.908630 382.437439 492.063354 1066.764526 630.605957 230.180389 932.524231 316.274872 564.396790 610.456604 664.064209 440.905182 488.293365 305.813782 460.209351 655.211609 554.045288 273.289886 508.454681 428.572937 566.768616 451.520538 800.694824 488.183228 
/model.6/cv1/conv/Conv_param_0 263.290192 188.938766 202.817612 184.404587 155.906174 127.725410 184.090576 140.174576 116.462021 160.274551 135.769180 107.140129 199.271820 141.835266 256.296661 168.021515 122.640495 109.589676 148.682938 84.503395 184.588104 201.859924 231.037109 145.080917 224.091278 126.329124 102.641579 125.495155 99.322639 176.299515 65.991165 236.217606 264.949493 158.779419 113.063545 163.279160 227.823318 107.185921 86.361649 203.389542 182.797607 122.466248 180.465637 73.786484 117.570892 206.120926 140.316650 218.032944 152.016571 234.987717 238.618500 195.602737 151.370117 280.387054 147.219513 83.006248 247.195862 60.227318 211.887680 131.246552 122.946976 174.331192 176.361511 94.680290 408.611633 423.863403 331.303131 243.065063 512.157227 317.004791 267.622650 480.443085 264.587982 496.974762 356.221954 448.313568 324.879120 474.348846 371.674713 440.772797 571.087646 612.227905 581.442383 219.676559 293.348083 376.075439 240.776962 571.993225 370.251953 323.849426 256.578766 90.789284 502.973877 296.019806 423.497253 436.137238 497.402100 390.089478 164.000046 363.200012 506.218109 251.777390 270.184509 252.449982 232.879929 229.387924 396.490723 342.616547 444.722321 473.963806 429.281036 405.758301 192.395706 656.012512 262.541901 365.745667 284.198639 325.562805 480.143616 260.737000 165.985306 188.944626 252.922028 258.037750 312.693848 259.499756 452.927368 519.896423 
/model.6/m.0/cv1/conv/Conv_param_0 57.680782 62.465714 102.969742 23.208260 47.643921 81.062218 51.292313 47.226784 47.880535 77.320976 64.759026 24.759211 60.038643 21.911489 98.457130 66.888435 52.285244 55.020016 82.315102 59.884010 40.611191 99.806267 73.108826 147.024811 48.731941 72.036423 28.740873 31.850388 61.600193 58.082935 35.923775 58.767544 61.403278 88.427849 29.234425 39.792500 27.918589 44.842991 131.563431 33.516647 66.485970 51.397873 78.114403 54.619633 58.992241 48.762859 64.558151 86.572014 69.026794 89.284317 34.172253 44.922394 133.470108 46.634705 40.277225 52.364895 61.978115 90.372658 43.369152 59.828892 25.769188 60.324715 53.246315 111.417732 
/model.6/m.0/cv2/conv/Conv_param_0 89.516167 87.893753 89.684410 82.917000 107.284859 155.160843 128.939194 134.008957 139.534302 65.795998 182.514557 67.950844 88.588196 115.185791 88.500648 183.604141 161.151413 115.164444 77.567863 70.200691 41.441845 161.218201 163.393204 38.853867 87.956680 116.667847 59.841160 95.410522 75.574295 105.341484 123.669960 150.497208 69.128563 149.924881 125.124588 95.267426 90.787460 105.806984 143.755539 107.829163 124.857216 147.113998 147.158859 118.384117 98.213997 90.850639 122.130653 49.536995 44.804367 138.921890 158.441544 46.430218 123.645477 118.776482 118.205299 113.714020 123.682091 38.136734 90.328644 117.016106 75.846252 92.185951 85.548981 172.404663 
/model.6/m.1/cv1/conv/Conv_param_0 77.409065 202.044296 147.119141 327.210968 117.499702 108.587074 73.831146 120.694160 340.408203 132.065033 113.675262 85.157112 101.062378 95.456703 86.944328 131.122070 80.836700 158.982971 96.972923 125.523857 157.764862 172.264206 84.846092 100.267029 78.830025 90.795929 146.196640 75.392471 102.848000 92.915039 136.017899 95.727623 91.467865 104.236023 86.063301 95.665466 108.822502 92.186203 73.600662 89.396629 64.235672 96.966484 112.206688 90.329338 158.024689 107.084595 194.114899 128.744476 122.218178 133.190308 209.618332 149.153259 93.576813 109.279449 89.662025 140.068466 120.129013 53.453320 41.173145 117.931892 88.175186 74.867966 161.144913 106.393639 
/model.6/m.1/cv2/conv/Conv_param_0 56.923645 45.616520 41.324852 52.543144 63.897018 79.553871 71.684822 58.901920 42.235718 58.047287 76.019249 12.739428 50.498482 42.707108 63.545158 63.478775 55.052765 41.626514 29.468380 44.885750 47.109737 33.754868 65.605316 68.464493 52.796696 53.528713 54.438030 47.560768 46.737156 59.119957 62.933205 50.370079 60.682770 68.389580 49.605904 60.398834 42.166920 40.437275 72.385689 88.073494 43.252598 32.973476 67.661774 64.311340 44.050533 68.763832 94.528564 48.994884 70.452538 52.250790 31.884216 63.633007 70.333443 31.440889 59.709599 38.070042 46.847450 46.108593 54.669529 75.041924 61.658184 34.845581 50.274975 57.737438 
/model.6/cv2/conv/Conv_param_0 1468.715332 925.155518 1048.614624 492.701874 362.532837 1109.108521 361.053284 617.139954 535.049072 647.603210 703.679382 439.686127 568.470520 614.745667 369.144806 320.597351 367.249664 332.904388 493.899902 798.767395 509.858734 778.984497 808.965332 594.320312 1239.625000 759.601746 497.046692 761.603088 527.667236 559.561646 418.700684 568.920166 298.753113 381.240021 377.158875 567.045654 645.298462 541.121948 759.357910 791.866760 310.136993 411.760345 772.479309 521.040649 681.288574 505.770569 426.578705 358.628540 251.091492 804.604126 399.170105 319.196167 559.993835 490.356171 396.102936 489.464020 444.440887 702.420044 461.225525 544.879150 378.265717 729.853882 452.000061 375.545624 394.880859 494.895721 610.317749 620.771790 446.228577 427.930664 693.321777 333.145020 299.600128 757.079224 532.244873 276.332855 586.555786 266.058289 380.422455 666.570801 826.706116 366.031921 501.448639 547.227783 915.461609 524.891541 417.854675 551.522644 263.496002 680.007202 733.336060 482.782928 593.401733 728.279724 592.070068 578.616333 550.778442 330.598450 783.401550 1011.185425 796.330200 418.271332 446.027832 470.341125 823.774536 967.245605 695.375854 515.715515 290.683746 284.766083 788.823853 615.899414 514.304138 428.120361 501.078430 460.963196 553.393494 593.792175 616.740417 576.408203 257.921783 552.335754 499.592651 687.577332 361.239594 309.912140 767.124756 441.491699 
/model.7/conv/Conv_param_0 516.572876 645.614380 841.833313 643.207275 713.779114 410.739746 398.298553 393.792358 472.616302 414.693054 485.306000 641.739807 439.242615 553.367981 563.454529 383.301422 443.804016 666.663574 752.174805 465.374237 1014.156433 675.849304 666.080994 686.514343 414.375580 624.515015 433.819000 714.101135 328.585022 726.919373 423.543060 676.930359 431.864960 748.075745 548.218445 413.144531 507.191864 441.618378 467.981232 573.918091 628.939697 600.948730 897.358582 451.572296 471.875031 617.263245 653.342285 468.745056 727.563416 596.238647 637.137939 683.626465 703.589172 681.221741 738.751343 706.040771 445.688202 494.524139 702.652283 540.619202 714.174866 429.156677 603.482361 627.547668 477.435303 868.130493 806.882996 384.623718 451.553772 506.009766 649.131714 219.338074 411.245911 606.996704 349.019501 601.953247 576.802490 617.091553 671.634277 795.866394 706.987061 651.986755 751.958740 826.194092 331.381958 420.935577 682.886780 382.969666 711.801453 420.384338 618.476074 316.975983 493.314026 493.561554 596.691345 712.741089 439.395782 752.690735 318.041412 551.558044 419.895416 388.658997 680.221069 548.651062 435.711334 718.188782 709.698792 442.275818 628.848511 417.978210 446.290771 382.018890 610.090820 328.009827 751.449646 924.218262 736.448242 495.495148 704.895630 588.004822 643.674744 964.782288 405.847168 752.284424 513.267273 575.842407 389.592926 693.834778 605.740784 686.750916 680.746826 345.826874 502.211395 476.931915 485.978607 488.891083 455.716461 714.080994 650.994995 287.820709 554.134583 580.207153 686.116455 266.989532 518.907654 500.677612 673.848328 546.864258 302.378021 525.189880 693.153076 649.214844 411.270691 265.563873 544.815491 707.719299 458.676147 656.455200 508.718842 390.015503 546.940430 652.991089 365.461945 375.392212 687.234619 365.608124 862.010254 389.094910 723.187683 592.947632 403.090210 743.572021 815.359558 679.670227 759.951477 295.670715 646.730652 282.619904 472.082672 873.405151 574.819641 595.213013 548.837830 486.510651 555.093933 635.528625 596.185669 583.625305 738.118835 660.759399 451.377625 679.329285 563.098999 460.734467 591.259399 408.376099 371.385376 344.480438 589.984680 579.057495 425.174957 487.115601 726.757324 637.088501 413.087524 778.096191 784.652649 542.664124 609.036255 482.981049 734.542786 865.900879 442.656250 474.688751 569.313904 830.624756 752.702820 644.640747 582.700989 673.735535 409.505371 577.184753 456.081879 280.633636 539.311890 734.320984 447.133484 728.177002 665.740234 767.208618 779.239746 452.220520 849.323364 807.790894 1036.933472 959.443481 299.698547 694.842285 297.947540 711.793213 402.461548 650.732178 714.526917 1013.407593 734.877563 853.348755 800.619934 492.233307 602.012451 527.988098 712.709106 650.795959 563.268738 511.496613 562.106750 634.116028 
/model.8/cv1/conv/Conv_param_0 140.515213 190.171860 172.435089 168.760284 162.501984 192.411880 177.951355 150.438309 156.516785 173.519119 195.779633 193.296310 220.541687 214.592743 201.261490 166.788910 167.669617 216.439941 203.701340 192.627930 178.480484 203.840332 164.585709 165.250137 158.335236 196.365417 211.748215 213.852234 175.261093 130.145691 152.724503 206.669403 155.958847 237.763977 140.619308 171.240463 149.316757 181.253342 184.209473 208.782501 161.781509 217.704742 102.184052 197.481659 202.990128 135.050537 216.992462 223.824707 214.507568 186.948792 201.894394 196.384949 201.669189 217.619751 186.467972 84.869377 156.136780 132.471252 189.706436 223.443680 187.026276 172.051498 172.987534 88.189842 91.507362 188.514389 243.101257 209.951111 200.843781 173.622650 221.985748 124.595573 234.860397 169.002411 221.345352 123.774918 176.074188 185.547379 228.261459 273.338623 173.213409 246.067398 199.999481 179.057693 205.974152 212.450775 187.756882 218.307617 164.606415 161.541763 235.897888 140.733566 267.726196 209.009888 202.856308 228.837753 194.836304 187.267395 129.697830 194.105743 217.636658 157.650360 166.247910 120.123161 230.606110 191.611465 151.815948 164.162399 208.210388 87.510117 205.649551 211.225372 177.411987 187.385666 201.037674 178.453415 175.871750 163.940201 155.213409 191.993347 177.960052 198.756683 129.104431 207.061432 100.633369 227.779144 252.793076 132.551163 365.150757 262.629303 222.674316 405.581085 281.240173 274.245850 686.909912 330.612488 377.733887 261.176544 364.106445 277.958893 191.961563 262.447388 463.158539 387.000793 315.972382 226.018112 380.334320 268.291168 233.653885 254.553604 432.746033 254.401886 273.090912 347.054840 255.143555 529.383179 488.916901 431.469666 314.005737 183.505722 510.845856 312.286438 328.392792 472.871857 215.435242 255.200119 266.833893 261.075867 289.911285 688.209106 365.039673 464.180267 383.952850 222.058395 389.901062 316.007202 314.091675 342.317627 438.069244 564.132446 185.099838 379.357697 405.397491 411.385468 323.035828 244.440918 219.950516 271.810608 270.204498 339.000702 401.316376 280.376556 295.476929 243.259933 184.735443 469.314087 205.052856 294.575317 361.134369 411.339417 224.007660 243.669098 451.708374 328.756622 222.490540 309.538849 503.644592 193.353241 487.836212 308.177490 357.158966 307.801697 211.626144 605.517822 384.361084 307.422729 447.559998 437.423004 255.362991 272.899292 404.690460 309.996429 238.140503 337.975830 374.709808 345.143494 288.477539 275.316345 463.079224 494.915070 283.495026 260.896332 255.235077 220.973846 393.966003 257.435455 405.965363 222.995544 206.397842 376.264496 252.048126 444.627289 332.872040 288.605621 325.521210 1814.830444 211.718567 387.812744 355.785919 544.326965 271.862610 488.056702 375.161224 476.870636 373.124542 212.062119 
/model.8/m.0/cv1/conv/Conv_param_0 68.540726 117.136292 88.130905 127.993744 105.986298 85.277405 136.060287 106.522659 50.028481 67.959274 65.148819 53.932003 103.869179 62.906624 83.264969 89.946068 69.836311 78.209091 78.610771 89.528313 75.637032 88.858490 176.667053 60.028969 71.724121 103.492767 90.001045 73.625366 68.206573 90.033226 64.909729 98.642021 72.954926 133.559143 96.489838 58.901253 123.980965 79.239616 83.482735 88.322891 80.230782 57.761417 100.205826 85.645447 150.044449 98.505783 126.429131 58.791817 85.051567 65.184303 111.512451 91.248100 88.464859 88.682663 65.169449 66.889038 53.139648 100.585320 347.563477 128.800903 65.441864 101.612297 92.853569 88.106148 61.414280 109.592400 46.382782 57.489449 75.389008 167.128174 86.721970 87.198082 53.145535 75.452950 51.383396 112.227982 90.594971 67.146561 93.502754 133.455902 112.552284 58.926292 67.657928 117.358398 103.924904 133.928696 68.607452 69.506523 64.496941 139.207169 139.344650 72.238182 58.828327 46.992702 58.897938 49.594929 72.728493 89.492828 42.868149 69.315834 65.008606 65.123360 62.311840 73.403557 71.866608 64.059616 89.134750 86.420219 71.326309 76.616699 77.420677 65.885727 119.738113 82.556229 36.550861 82.185059 105.693634 78.749733 87.362373 75.134697 109.722267 48.212723 55.416138 50.684933 101.092621 103.554626 59.618324 75.281189 
/model.8/m.0/cv2/conv/Conv_param_0 155.437592 54.118752 97.497993 75.509827 136.040680 159.882294 78.459503 55.027695 92.854958 71.124535 114.440765 130.831116 122.636894 138.175812 18.740124 56.884293 96.164558 72.796906 119.568726 105.633263 114.907776 103.809441 157.552231 95.121040 142.358276 156.645432 152.374191 166.619339 93.757050 127.445541 126.532059 58.757755 145.907074 156.859741 99.547401 38.694931 102.949875 149.507446 93.339867 106.415070 80.121841 163.957352 75.273216 156.376694 92.360146 129.330856 76.440163 94.057182 153.223328 71.377769 107.922935 55.268402 140.505875 116.081734 112.765488 139.747055 35.527821 59.642235 120.415306 127.967934 35.719898 110.206642 97.135529 96.657913 115.785988 128.483398 113.365410 141.175430 132.196625 128.142807 115.954285 162.141907 122.118896 63.563488 132.136200 117.560417 115.700264 110.734818 88.794693 109.325363 73.640190 171.349319 107.040314 100.683319 92.009308 158.910049 76.227997 142.510452 110.260216 159.124878 109.778671 127.917656 112.555328 154.121628 143.012039 158.367752 110.490883 119.434303 118.087692 147.437408 92.266563 180.190063 135.511169 115.662186 87.236244 84.928215 122.314461 118.894432 40.084206 134.747040 67.944923 140.500748 106.292191 110.033478 136.718369 146.460373 151.488525 84.609955 124.651947 155.224716 117.613907 84.112282 89.863976 64.926178 99.742981 105.195198 73.461914 54.369717 
/model.8/cv2/conv/Conv_param_0 573.779419 504.349091 678.366943 434.128784 366.368988 659.213074 595.232971 814.657471 499.620300 596.016113 362.347839 522.259094 308.203827 588.120300 565.469177 533.647766 547.293640 742.555481 576.046631 531.855896 618.613770 567.503662 426.166077 394.033081 496.264893 605.456604 513.757690 602.985840 558.769836 509.642242 658.295654 335.840149 724.304016 631.326721 353.397095 650.200684 560.662170 607.543152 261.247009 539.183594 645.457703 400.019684 653.440308 596.199402 562.609314 591.704163 540.676453 586.653442 352.920776 455.118561 595.244751 488.281342 767.947998 673.124146 201.381012 652.730042 495.326630 447.088501 413.668945 684.582214 767.203552 436.395142 675.877502 586.691284 481.638733 662.741394 537.980286 403.805359 502.274841 879.946533 618.390625 401.441864 485.477692 716.255127 747.494263 499.202820 826.544861 782.740662 469.328827 519.999878 685.057800 383.141235 806.742126 601.130859 617.634155 613.318420 511.038666 544.997009 283.863708 363.552826 547.301086 469.528595 490.753998 514.715881 529.446472 721.711304 489.575317 410.349945 435.398956 441.434204 647.741760 692.669006 585.944153 372.206177 627.994568 636.745911 740.533081 460.454956 618.078552 628.854919 456.449585 525.784119 474.416687 582.860535 734.272400 587.674316 570.020508 530.063538 402.399689 592.515137 706.945923 627.395691 730.046936 446.842316 494.706970 494.149170 551.005310 629.760742 502.009003 561.325378 460.336823 566.025085 390.403412 570.895752 394.069916 495.758881 593.234436 521.771729 659.528687 595.968323 718.339783 461.185669 497.311310 721.191711 571.280884 483.349152 452.769653 751.982544 691.065552 399.798584 652.696594 394.006897 528.659485 642.604492 584.048889 496.375214 490.125122 376.633820 795.390686 516.245178 652.662659 357.937286 729.575989 523.569397 548.641235 483.532257 544.676453 384.712585 451.115784 546.928101 755.853699 474.924438 613.922363 649.639954 361.274292 448.410431 869.120728 411.418854 718.354492 467.002167 458.145386 402.597443 536.970337 357.402740 441.907898 373.161530 460.815094 390.523071 616.234497 767.569397 435.228119 455.044769 458.947113 553.229126 623.808777 655.769409 576.892395 467.088562 564.339905 608.968384 460.821869 648.143372 575.425598 506.031464 513.552063 396.701416 746.663696 681.077087 420.518829 419.213989 597.913086 470.748169 666.319458 362.415100 566.698730 330.620331 217.828537 654.303589 754.377563 486.263428 559.437744 278.934540 356.658936 445.959442 621.969971 585.761780 566.841858 412.842163 582.391296 724.884583 601.120728 373.355133 600.226257 578.590027 507.640045 586.055176 352.635406 439.208862 631.335632 568.736694 823.246521 551.371521 608.619263 469.523163 592.917847 577.210388 786.522766 767.802429 605.397034 734.100891 492.938599 395.739166 552.170044 587.306580 409.639832 502.718658 
/model.9/cv1/conv/Conv_param_0 401.412201 425.510925 482.337341 449.725433 359.667236 470.858002 397.506683 136.815948 261.055481 235.321747 263.950195 422.168549 449.668243 228.110764 452.657928 300.296295 248.444717 404.581696 324.530304 433.670105 349.025879 416.883636 432.975006 531.737427 438.890991 442.885132 265.982147 360.727203 412.962738 422.736176 369.991638 406.181244 221.672974 312.445953 474.431335 357.695770 466.116302 455.321716 370.676483 456.629730 365.035248 502.750153 400.603882 491.924805 257.120117 286.543640 155.898483 265.083984 431.885193 497.520203 384.614746 313.555847 314.809814 383.044250 441.671143 120.220123 439.261902 440.033722 425.024628 468.022522 375.389923 441.838470 212.026520 465.162628 393.237274 300.634857 328.787415 427.855072 383.933746 387.798828 476.938690 294.213379 237.514832 457.149506 290.115387 415.170410 325.394135 468.523712 361.205200 320.394928 151.342346 346.906647 404.961182 434.736328 302.430054 487.367004 596.399231 412.757294 198.499771 389.574707 207.016632 496.132843 190.616409 381.019348 285.445862 392.967163 395.704376 475.886627 436.254974 372.564392 388.741150 539.062012 305.539551 282.007050 438.860657 204.221634 397.609222 523.585388 575.743652 412.120483 399.372498 337.863586 347.827026 482.157043 386.924255 236.301361 370.472046 397.049347 415.437134 276.017578 404.960480 384.036652 382.808990 427.320618 213.241730 451.348846 403.136536 380.177094 
/model.9/cv2/conv/Conv_param_0 1484.365967 577.263123 811.335205 655.849731 222.792160 371.593292 304.549225 310.802307 706.660034 506.578339 949.065552 589.608887 682.368286 848.518188 762.791687 1190.985229 722.249023 1340.774048 927.483093 799.154602 1228.003540 505.249329 608.091003 565.710938 818.892639 445.239990 694.387085 465.317444 580.765991 591.040833 1262.061768 812.629944 798.692810 794.522522 311.330933 503.517059 430.301666 461.187134 474.964600 814.531250 1003.495728 793.537598 433.365051 1141.332031 868.854919 333.906403 371.083252 762.252075 1329.020020 676.907410 782.393311 654.078857 464.074799 1012.295898 1213.578247 735.119080 898.053223 478.613129 1119.859009 748.293762 487.691010 693.533325 530.386353 400.034790 939.075989 1217.804321 519.129089 361.643433 546.770630 498.879639 1841.986694 1505.740967 986.905579 369.078461 398.500244 614.673645 484.705200 853.262634 159.685760 1157.995972 1002.901978 580.078064 863.293945 642.792297 898.093323 636.704468 292.079071 527.685730 1110.707520 456.419556 225.466568 836.050964 356.707886 1554.074707 506.253418 993.562256 509.248962 371.270874 511.219269 454.539886 1196.526489 961.552429 556.813782 642.820312 344.486053 621.815308 790.722961 1130.627686 1236.694092 468.457947 341.027344 998.926392 778.506470 973.445374 341.360962 515.685425 765.876282 318.423981 821.874512 855.841431 805.840820 313.447662 475.740295 617.187622 1362.071411 729.275330 568.708008 1097.862671 472.870392 1216.683716 1008.086121 795.860352 428.039886 1022.517456 502.201813 787.210327 1069.776367 141.671631 939.493591 1532.927490 657.901306 402.017731 709.508301 679.952759 1825.037720 836.607483 1018.437012 592.197266 507.115631 443.752441 924.486267 527.798706 511.174561 404.089630 751.591248 401.296021 464.637817 294.097107 806.271118 463.551880 696.447876 865.437683 622.043518 486.854095 189.424301 737.410706 801.222717 662.646912 653.583191 800.002869 487.001190 790.783630 648.104065 742.394043 857.367004 851.662415 560.946716 883.602966 613.099670 523.029297 724.143738 539.158691 853.670227 305.766785 464.172180 831.412292 972.541321 809.811462 360.636932 722.556580 567.488953 635.989502 673.972778 554.289307 1101.645386 1007.214417 684.185547 424.215179 1132.852051 497.457092 542.851562 877.938477 497.886292 658.436829 348.330780 737.981201 1020.987549 1024.160522 858.497986 957.491211 612.174805 538.395569 529.443237 625.272339 873.054199 1017.643250 506.408081 312.826111 418.458679 709.350769 428.872559 729.861877 1262.907227 590.552673 723.456787 668.880615 1072.183838 1338.449341 815.307068 521.764160 628.239563 698.991882 566.324158 1052.533325 745.666870 453.780457 643.625488 582.329346 364.724701 953.769226 480.276581 611.181152 390.462097 584.373108 815.473938 697.242493 995.586243 628.040039 614.470032 1024.142456 816.777832 477.513702 392.108826 350.629578 1023.880859 440.735229 
/model.12/cv1/conv/Conv_param_0 232.662628 303.006866 235.219574 200.368195 182.343048 214.872955 303.870392 331.843170 219.241791 384.846893 206.834961 266.622040 88.648605 210.554871 238.753799 357.829498 352.211304 204.730362 148.462296 222.899948 288.612823 340.516846 459.423187 140.411713 227.128204 269.628143 140.032776 176.783676 225.787247 202.084900 146.933105 222.306854 164.442123 217.959808 167.791473 220.098724 266.975006 367.366180 181.419937 300.110291 284.019531 201.445694 183.802597 227.961792 318.968872 271.516846 393.424835 314.301178 226.751007 151.822067 259.691040 284.193878 404.728546 306.216003 241.427353 223.974854 210.117249 269.416138 200.581131 161.487518 169.403442 456.234650 256.673828 200.351471 307.907104 193.758698 275.500549 192.781128 193.256897 241.196548 621.630310 104.175713 280.829895 278.296722 214.972260 115.299675 320.149628 189.659668 246.636093 249.139511 274.567688 286.800262 231.601288 319.725586 232.422714 216.194656 109.952698 307.651764 328.203918 289.486572 299.268066 364.095154 310.764313 109.848495 287.195435 252.088348 260.379272 231.189651 193.421967 368.981873 221.023834 459.770355 307.016602 250.049896 263.719696 211.887436 321.545654 395.571960 375.358002 252.413239 337.115479 291.743866 187.208832 210.330765 75.982124 544.946899 249.807709 223.755981 312.625824 404.326904 342.343109 328.382172 359.953125 285.352264 258.021637 319.848145 175.710114 380.288544 
/model.12/m.0/cv1/conv/Conv_param_0 150.221954 79.165245 96.699188 123.522423 136.971893 98.470818 86.315201 88.114716 105.104065 101.234161 75.640785 106.106987 98.671570 67.703201 117.973839 110.884827 52.761051 86.687721 61.788193 57.421921 66.031334 71.287682 86.575478 65.467155 79.960175 109.898720 119.752480 118.533958 103.776138 204.313202 71.424446 94.156265 83.465050 54.228165 90.228058 123.167946 65.509666 72.989677 54.792614 74.881767 137.511688 78.872238 59.584175 107.205307 95.588799 97.847191 141.647430 65.636055 145.078110 103.144844 125.961388 106.959915 64.383194 64.322029 97.247940 224.062683 86.369659 79.161110 193.950180 112.612335 81.582642 116.574829 139.712250 81.045517 
/model.12/m.0/cv2/conv/Conv_param_0 80.843147 71.578461 79.102379 63.046410 78.911606 82.198494 120.353516 40.868481 61.168472 71.307007 69.374840 57.467312 63.369537 53.691242 77.332603 31.874895 113.247040 129.937897 73.227455 70.629280 68.165703 46.972092 44.962757 63.490997 59.407558 52.885654 84.176750 68.186043 75.424957 71.179947 52.865837 57.697384 65.662529 106.558617 71.511040 57.197384 75.951813 105.319763 118.828026 47.218311 23.899071 69.168228 48.755089 50.970333 76.203499 73.806396 52.455456 75.414261 39.729183 29.649626 72.140823 46.622654 91.560448 62.529148 96.904877 44.233055 74.526016 61.535278 71.397896 56.892204 40.577164 44.731171 60.010830 104.439056 
/model.12/cv2/conv/Conv_param_0 194.294495 299.335022 307.767822 243.858429 281.582550 231.017944 201.103622 474.934021 317.508972 392.182556 286.150360 381.322174 314.562988 435.685669 373.767273 379.402252 368.179810 448.157318 253.564209 668.106018 171.680237 286.675140 279.263977 221.714615 216.253235 217.165009 236.915237 292.659546 221.937790 285.241058 365.389801 373.776459 450.461273 331.069336 308.554779 315.992950 280.775818 278.343689 267.528595 321.574310 369.788788 308.201202 222.168793 573.919861 439.757782 231.908569 204.095016 532.875244 191.797379 134.936050 194.327499 245.747269 183.981415 247.210938 298.822540 578.582703 200.662155 272.110474 272.623718 700.310425 404.637360 153.326767 416.046082 242.263596 256.369324 310.668701 417.777588 455.270020 450.534332 415.689362 411.933685 385.791290 410.628632 367.098175 124.439049 317.399872 525.501404 536.677124 558.700867 247.626495 238.179428 291.863647 403.561920 344.805176 318.647827 251.320129 262.198486 216.040787 238.908096 232.790634 289.236267 371.274506 281.189697 336.807190 301.609833 269.904877 243.734802 203.871750 267.940918 440.980682 357.722046 282.106812 337.471375 251.128036 287.501953 386.047150 624.174194 137.869476 254.259872 227.733887 190.624268 318.227692 224.986069 307.132263 359.074280 288.590698 447.784027 387.354797 289.602386 300.626007 462.452240 327.334717 190.838974 236.422501 314.902130 112.587677 276.463531 306.125458 
/model.15/cv1/conv/Conv_param_0 492.762421 524.290100 315.996887 387.030151 112.102547 509.574646 647.453369 395.902496 389.326111 262.269104 451.422058 369.622437 290.655121 401.900635 381.901794 457.204102 355.171783 187.610764 453.756439 641.004700 406.575531 561.301819 641.782593 377.480804 178.651932 448.751831 563.095093 247.944016 430.918701 294.969727 571.589661 400.772003 199.820557 620.183899 282.994659 201.503616 189.444046 365.025055 352.133575 294.692108 466.335083 162.554642 627.989563 281.980225 270.385925 422.544891 550.485474 309.108856 290.305481 404.395111 150.632416 195.931580 329.773193 681.309326 250.479324 466.601044 347.310333 209.200165 579.769104 178.610062 184.030945 558.589661 735.871521 205.350250 
/model.15/m.0/cv1/conv/Conv_param_0 102.897697 135.578812 54.465221 60.039051 55.865875 74.483452 67.909576 54.342663 57.852650 68.979958 66.789627 56.070663 45.163055 98.888588 201.292847 63.451660 68.356735 105.656898 57.087296 62.613628 56.479378 68.063210 96.194427 52.896034 78.466156 56.076691 50.014278 68.532707 62.174431 44.311810 69.444000 50.098946 
/model.15/m.0/cv2/conv/Conv_param_0 30.849123 63.422691 37.712368 36.978443 33.142200 33.096699 25.449842 60.497368 32.845913 25.628204 55.275082 24.898687 37.841656 29.213219 27.370569 32.917233 41.105186 36.750713 27.336227 27.797777 64.255280 37.131264 26.216774 38.908562 35.793949 40.782810 44.097633 51.916840 33.667862 32.634193 36.250927 57.660542 
/model.15/cv2/conv/Conv_param_0 248.377975 144.341553 280.356232 149.441879 299.625549 130.863190 307.678894 121.282578 254.716934 190.802673 369.993988 183.197418 171.963943 192.047699 219.510834 214.879822 300.288208 177.158356 430.800385 259.698608 179.976303 324.211548 124.394951 169.791183 477.654846 162.962555 372.033417 205.224060 268.641754 355.732666 117.315865 292.515808 111.698471 279.449432 151.215790 200.031479 175.983246 151.946106 305.794281 162.932556 128.314011 418.523773 244.878357 181.756454 420.315460 157.644592 300.673157 204.394882 226.067108 315.979584 385.954956 246.264343 171.105194 186.388062 412.846527 462.194275 159.799789 421.093872 347.519867 252.686386 209.770676 130.561203 248.302795 129.765945 
/model.16/conv/Conv_param_0 409.305542 385.669800 368.790039 399.902008 222.826950 889.311829 304.468262 393.047577 374.663300 360.893066 238.958572 425.753906 366.033417 565.720459 242.751526 296.078217 243.692642 683.942810 410.139832 406.477264 284.699646 748.024475 380.744843 579.534729 277.059265 442.877167 420.921661 361.763794 370.674347 612.670715 275.365967 631.937805 487.907318 361.448883 368.767151 312.267975 468.411011 374.479340 396.143188 308.580231 532.935547 328.375000 167.540085 307.157135 280.110840 330.692871 280.268890 344.969666 510.238678 460.380981 318.046204 226.228073 304.448944 452.502747 659.053772 291.001648 846.991821 241.105438 268.600433 541.886353 434.856506 347.609863 362.284393 349.545685 
/model.18/cv1/conv/Conv_param_0 167.036057 130.597504 205.902908 234.911362 238.561935 170.862900 225.478043 163.500427 207.105179 265.371246 178.152969 276.425415 198.188919 170.501663 206.346100 124.375595 145.507599 222.453766 198.457687 230.937286 209.028198 215.171341 200.022415 137.584549 179.220734 287.588531 134.857086 174.141510 152.867966 181.495682 172.160904 156.563766 138.937256 116.351540 226.123962 177.271362 161.420670 159.287338 199.861725 231.663788 158.274689 235.940308 194.712738 175.912994 163.508209 178.766006 151.141388 181.974197 220.728394 176.355011 214.426743 142.494446 169.269867 193.069931 149.890366 172.913315 178.542343 277.691772 143.705643 216.749771 169.604279 217.432220 266.908264 194.148804 332.270813 207.694595 178.220596 161.901627 436.301117 315.219940 134.602448 183.779343 201.974182 163.872604 221.553741 207.747787 253.368591 185.826614 238.217102 266.011047 253.396759 231.542221 139.892273 167.395645 253.665970 216.917099 191.412262 135.514465 168.407394 202.298264 147.893341 211.057571 312.316071 189.114853 251.552673 333.899048 281.245758 230.002426 171.541641 342.228149 260.741669 222.353439 198.085022 336.356537 202.517822 225.812637 278.027008 756.729919 244.580795 220.526627 314.003723 147.903732 193.367935 225.235977 221.638229 349.684174 183.936447 208.285187 227.931427 228.508072 146.348358 196.942017 139.556747 113.147179 239.209305 182.054230 153.900421 235.384094 
/model.18/m.0/cv1/conv/Conv_param_0 140.085159 120.582016 66.797859 74.523338 56.874374 58.469292 47.565388 74.798828 103.498703 62.113949 80.715179 116.499908 70.202324 78.266792 102.642090 112.444595 98.629120 61.515423 135.057404 90.941956 866.006897 149.962540 98.196739 73.607613 96.678543 69.872749 126.760422 82.759949 93.605385 48.229767 83.985153 159.737320 63.906013 115.775681 88.320442 199.273254 64.324600 78.998055 100.484810 140.812607 52.580467 86.114113 60.055553 104.847122 115.184723 104.783745 94.694328 99.063774 102.041550 45.641979 42.490250 120.500046 109.470421 169.693100 93.871185 76.403893 82.801399 102.132675 82.312279 68.172310 63.201057 87.325249 76.772514 98.407120 
/model.18/m.0/cv2/conv/Conv_param_0 22.180439 28.844725 22.012035 24.089903 80.797829 33.995075 35.703285 23.096827 36.327885 79.259216 16.364857 44.298676 35.622330 45.425247 16.578182 27.034954 27.637033 39.318230 29.992395 40.064362 33.739742 20.726770 36.030819 29.381763 29.840574 13.956491 57.574421 20.232845 52.265507 27.084585 24.618126 31.605581 30.375980 18.696638 26.633366 35.427326 40.481575 25.419241 19.191935 46.179276 41.826916 32.604801 22.130083 33.233429 30.602892 26.307812 32.267811 27.124071 22.252773 63.804897 32.367966 15.431027 26.890940 21.951246 23.496870 39.966042 30.316380 29.234343 61.244984 26.507250 32.314030 18.492481 32.239487 38.496708 
/model.18/cv2/conv/Conv_param_0 75.974174 199.364090 209.043015 502.403839 427.445923 317.348389 258.161926 354.905396 352.484650 205.282791 223.573669 384.327393 404.620544 339.228729 395.500549 287.982117 238.975845 308.858246 277.840851 469.113190 383.274414 299.761139 622.866272 332.452393 366.933838 293.753357 378.047882 294.012756 316.576324 391.328857 175.165253 139.268188 226.297867 296.800079 397.876495 254.415741 528.970093 199.614716 216.854691 261.564484 156.774643 226.032761 208.101913 432.863953 520.139404 403.558350 218.135132 818.953430 177.616211 270.552856 436.796051 394.403656 472.023468 342.608490 216.844559 213.074371 123.528366 274.411774 126.900970 673.626343 293.083221 340.946899 252.102341 193.061615 276.805054 366.356110 260.398834 292.383423 392.865479 361.607605 286.322876 368.416046 248.428452 186.092194 189.223434 637.853149 540.913513 652.772583 161.611313 429.871460 134.759888 215.749649 326.228333 371.170013 213.240433 344.217163 233.819794 116.238098 89.454079 233.106857 290.400085 270.233490 236.147491 225.027008 666.258057 465.686096 269.347534 333.710663 130.698792 256.656921 84.140823 467.595490 528.336243 303.338654 208.161209 162.624649 229.435898 341.937042 304.736389 200.083450 284.047729 577.597473 223.326050 538.172852 260.630707 538.501770 458.385193 314.452454 479.847382 203.737503 402.948120 400.254028 392.107941 639.263672 290.848724 283.941681 489.956177 287.004913 
/model.19/conv/Conv_param_0 569.449951 386.916748 700.180420 739.944885 286.559662 405.268860 350.480957 535.518250 606.752869 370.782959 551.935303 660.583374 491.031616 391.616852 603.959167 635.149109 461.464905 280.416321 582.078308 360.147003 406.272308 696.944092 363.748016 552.976379 428.468719 440.142578 528.049194 451.208496 809.407593 742.767212 1342.441284 417.465607 746.876953 513.378296 540.273315 541.777100 663.484619 360.275360 835.981079 710.614258 591.647705 610.421692 609.995972 463.994965 270.203522 299.044678 341.763458 371.418213 713.502075 702.397827 863.821594 743.896851 574.305115 586.185791 499.436676 363.238281 416.920380 280.229218 844.547302 675.252747 449.290863 468.011627 274.294220 461.377960 294.754608 290.221436 638.728027 401.543945 466.430634 573.023560 320.584473 521.176453 498.444550 600.152710 383.311523 743.626404 616.867249 385.465027 529.987671 739.142883 275.208649 400.984253 349.988220 288.010498 498.682007 342.864227 379.352631 603.062256 595.976807 364.593658 497.079285 668.186523 872.552429 662.948181 538.641479 409.232941 646.508484 371.256317 564.488403 647.042419 643.667175 274.353180 592.417358 493.716736 441.166718 445.617310 291.099152 393.045166 701.710815 634.405579 569.154541 440.824677 563.731689 584.117920 320.842896 398.551025 478.775238 369.870209 494.936798 508.544617 383.147034 503.440613 430.846008 604.408936 485.983704 552.842773 797.397888 403.857605 
/model.21/cv1/conv/Conv_param_0 177.769257 219.442673 235.676682 171.909485 194.630524 142.578354 157.446655 212.880569 216.033081 183.064819 228.401382 248.995804 212.691666 176.322968 171.358566 123.476219 200.593872 259.719360 185.201324 220.098862 196.171967 122.753258 204.955750 195.177811 228.845245 197.770203 164.210480 151.916061 141.619247 193.617310 155.600708 153.969147 160.537842 168.117386 141.801575 139.829422 180.203766 160.265930 187.124176 176.396774 186.072983 192.992691 183.630249 184.446518 301.659088 207.526779 184.925766 162.887802 207.271011 234.828278 157.818130 210.253189 190.287872 217.461868 157.655304 257.318451 213.234329 218.599014 171.402740 199.032166 159.299744 180.141083 284.676331 227.088379 201.099518 181.928680 198.398972 157.715027 235.858780 148.824097 267.671844 165.324722 192.835327 220.022980 202.954407 149.966858 165.416672 196.855591 232.499741 234.366394 202.625900 198.571030 161.938217 195.427582 166.392532 130.763458 195.983170 196.949875 181.814926 265.763336 281.553833 162.903259 164.919296 172.740402 163.574768 216.831238 159.739426 108.089088 185.928894 137.593948 94.825172 122.699371 184.290146 231.407898 185.583710 171.120514 183.057404 189.172791 266.574768 225.743759 195.934647 195.171524 244.897018 198.445023 187.335785 189.964417 150.225952 168.320114 190.829407 143.970810 168.243057 182.745880 185.271179 103.475235 177.365646 253.538452 192.795654 163.441772 147.818588 154.091095 157.657974 172.333908 455.511047 282.370117 230.253815 166.677689 148.667480 91.536316 254.700241 149.088699 155.006897 235.554276 125.221825 189.582092 152.392105 294.135223 113.238808 302.317993 140.770996 219.564438 251.002396 175.407822 160.408478 193.706482 256.772644 149.102493 244.847595 265.037323 380.310822 186.645828 194.179703 288.992432 83.213631 149.187378 125.933907 183.971024 258.362671 277.344696 183.075699 142.011597 236.987183 206.275421 161.253250 365.781738 198.954727 231.053696 170.662567 253.535278 331.247711 244.579163 154.394302 205.065674 158.826187 223.482864 216.241150 158.441208 144.659485 157.480606 148.724228 171.718994 134.769562 129.731750 239.380096 262.533875 133.367096 189.262131 154.041718 267.003754 187.622025 159.975754 215.086395 165.947632 221.039215 301.330780 190.846130 226.604843 232.969803 229.183670 314.516724 193.521088 271.544037 221.851730 329.439117 311.868103 221.920654 387.892853 226.751587 249.564896 172.638657 187.800339 274.935516 144.514648 388.402039 241.484619 185.958069 148.906128 186.023697 314.066559 298.688751 203.920364 207.068375 289.732758 198.198486 128.588425 237.564194 266.378082 220.412842 211.170044 289.658386 228.829956 175.241531 378.986969 243.443207 172.471039 133.630020 201.225983 272.390717 174.949265 215.378906 272.818848 165.311066 111.275558 165.062225 213.978149 176.174561 205.588165 
/model.21/m.0/cv1/conv/Conv_param_0 71.496735 49.164867 118.826263 96.560890 77.282059 70.242683 80.653481 71.976936 173.773209 84.879402 80.582962 38.837719 104.523430 61.278259 81.064491 50.735210 77.248268 130.474838 155.785812 80.566765 129.938995 91.295380 102.384399 136.350204 51.012505 72.104622 87.375237 100.704094 97.802185 76.520973 36.887238 68.900085 134.130005 128.204514 53.081192 66.766075 85.316101 89.481323 46.932590 68.035118 49.316635 73.581612 62.129566 53.527264 123.217491 87.318321 147.323761 89.668472 49.738876 169.715103 157.085266 114.706367 75.040817 75.668327 121.077606 60.648338 268.984650 89.206291 68.536194 111.621933 41.991219 86.726593 134.590240 79.562126 104.565712 46.741070 110.215416 110.807610 87.027191 129.748703 90.500107 123.501976 70.678391 75.237137 52.108902 72.942200 98.026512 67.926277 86.461380 62.081116 117.981720 105.865280 74.459206 71.542488 249.248749 53.003460 51.542717 68.633438 110.552162 57.300434 89.818405 102.029922 88.280693 74.686081 116.996071 99.558746 87.745201 76.722748 118.477821 82.923744 170.404465 108.645210 124.154602 50.366760 82.292572 60.668579 68.590622 89.278419 94.328377 86.351883 75.099831 46.705914 152.809387 59.890884 77.340912 49.143894 110.925613 53.401917 80.106262 51.342316 63.605297 138.751465 106.670502 290.484283 48.372677 69.571007 105.916054 73.805656 
/model.21/m.0/cv2/conv/Conv_param_0 26.617615 84.242851 73.909348 35.794632 40.435898 46.766586 57.751633 78.978088 62.308220 29.014265 17.694071 62.773140 55.987976 42.593742 70.050835 58.128292 33.520325 56.566559 52.328552 31.697386 57.388409 63.827988 100.638397 66.812187 53.686520 61.758820 55.164333 67.377327 63.427948 54.202312 37.457489 40.281948 94.453140 106.553352 67.670540 44.915146 60.600460 38.265610 27.499950 63.947929 141.397919 70.834892 28.795383 42.979721 70.063332 43.691490 33.378067 51.643581 53.480236 74.205368 66.224312 71.124397 31.074957 34.869770 43.712219 73.903694 73.287148 43.865166 70.489830 36.361794 51.038200 65.820007 57.009377 64.042686 33.969460 41.774006 34.044868 83.023216 77.368134 89.146706 62.457191 43.987221 52.859192 76.131111 53.176105 91.371742 62.513775 42.270332 34.217113 48.866932 45.308823 85.759506 65.787689 49.295547 35.114552 41.877171 36.191948 60.575504 55.200611 77.855171 94.789078 27.004774 34.225319 46.336220 42.405041 68.128227 66.500931 41.862221 87.817368 62.204174 34.639587 60.307873 42.848553 89.679626 65.013779 34.189945 68.404015 44.717339 53.145893 52.953217 28.840836 81.005829 46.605640 91.644585 69.846512 47.984688 76.057930 35.129589 37.036900 33.390488 53.695343 37.328175 28.984400 63.272274 56.623394 27.508110 60.285908 37.872852 
/model.21/cv2/conv/Conv_param_0 68.408714 188.054535 448.851410 372.680420 386.065826 204.699341 179.076950 342.591797 369.561340 400.227295 291.982239 332.172577 316.836639 256.190674 254.753693 319.051575 157.013550 300.169495 66.695465 324.913300 386.368988 337.296204 567.882385 422.798218 399.214539 171.146347 410.472351 286.234314 266.521301 175.812347 223.944824 401.127106 257.659393 235.661743 242.719376 365.658051 225.439209 314.237030 461.682220 153.801926 320.145508 59.105656 344.595520 169.917877 253.231750 167.679138 54.820744 430.163452 312.238800 170.623672 172.926971 319.081177 203.167465 666.913391 304.880188 390.032928 222.565048 143.645615 230.647629 190.252640 236.119293 391.530579 89.322441 89.330399 346.698608 280.237610 301.060272 347.894531 266.780121 160.099777 254.746582 320.908081 250.813339 194.992752 210.505051 334.501587 376.436401 151.209106 357.887634 136.708359 389.082581 186.619141 182.165100 322.421509 305.772400 248.766006 459.323761 340.056915 289.689117 178.420853 347.068451 131.308304 314.519501 346.894409 222.328323 272.475983 279.165344 250.178223 377.466248 245.390060 284.354553 531.784790 349.148254 206.090042 327.545197 234.787399 180.630783 411.029907 381.735840 423.573914 347.375275 229.433823 266.079102 361.529480 196.767838 300.363892 193.002594 327.902557 181.641495 329.197174 213.907318 190.349442 76.029068 310.517303 278.169220 207.525848 220.200928 134.324020 216.526581 296.701935 381.378326 388.154358 302.560181 173.682602 222.664124 58.832367 277.777313 200.807739 244.733032 290.432068 120.726982 355.893005 529.742798 256.979218 195.259811 452.226868 360.317291 205.839706 286.752228 345.666595 317.147491 339.341278 243.222687 240.997757 218.944412 324.632629 335.112213 120.960655 261.990112 416.607239 391.097687 257.451141 197.802979 320.909088 210.807251 200.587204 351.309967 203.073517 166.449692 342.934906 89.589722 274.774536 256.859497 165.921036 289.195221 289.872101 324.446411 246.146362 457.183746 237.886993 324.742859 285.120575 195.310547 265.790710 286.566650 190.301422 273.120789 132.531113 222.044250 362.539917 318.455139 452.433380 85.738914 177.026276 219.157013 402.681824 236.975662 233.372070 206.990784 229.120880 161.557770 187.722397 326.007660 335.195526 140.151718 217.250504 395.084747 571.514587 284.951965 176.587585 91.826523 402.992371 296.596954 227.748749 195.448242 320.610291 296.165161 155.921356 282.215515 276.902710 214.068695 323.190033 352.870972 303.422668 217.661987 304.559509 703.723816 314.907013 130.279495 155.279648 244.655380 356.279144 282.081757 129.450912 193.261581 290.371490 327.341187 354.151184 239.672440 246.190933 309.245483 271.889099 401.182709 454.108032 188.020676 234.771103 77.694633 227.431030 186.053528 203.007172 137.071960 364.914734 253.128601 314.484070 64.594818 319.606415 
/model.22/cv2.0/cv2.0.0/conv/Conv_param_0 44.900215 32.522202 47.352325 26.062807 58.958870 91.251465 27.932577 47.209946 44.442039 49.829189 74.460106 35.637489 54.771618 50.503590 144.232193 77.137405 127.013336 56.995026 92.898476 28.520357 37.647629 55.083206 55.091934 92.753471 91.365669 52.536671 64.466682 239.420166 81.795723 330.226807 137.528015 74.578796 105.765549 66.539139 152.148056 110.609070 70.222992 55.144993 84.933678 65.063988 51.099716 51.124779 54.467316 64.440308 37.018368 46.765686 57.232246 56.802502 219.003876 52.757919 54.629063 41.641430 65.403389 140.569122 89.364662 30.260012 54.539135 106.556511 66.662071 57.695995 65.040001 27.908667 55.571373 26.681673 
/model.22/cv2.0/cv2.0.1/conv/Conv_param_0 38.108089 11.703852 50.328678 15.332932 29.035845 13.749269 27.555136 35.635277 14.824596 16.901119 38.360615 21.316896 21.563293 25.372372 21.382517 21.019260 45.502369 8.740997 8.284945 9.283322 20.718357 6.486837 12.032378 19.853159 29.706060 14.400674 29.662622 46.661186 33.372486 5.547165 30.711884 7.919390 7.131432 8.900420 16.357714 16.241814 10.020733 10.807845 36.622517 19.873749 15.176469 28.009226 35.474083 54.494675 14.337380 7.065392 27.962637 48.849739 25.239830 47.056385 11.876626 19.914930 40.344135 29.019869 57.292942 7.938839 31.779898 19.404440 13.312418 21.265827 16.422390 9.365524 53.742306 31.848938 
/model.22/cv2.0/cv2.0.2/Conv_param_0 414.495605 411.218964 435.671692 469.064026 556.355103 671.215454 687.629883 851.378052 667.340576 617.438599 921.509277 1037.789551 1081.480225 1344.165405 1630.695923 1593.237427 436.769104 427.437958 471.188416 527.578064 591.463318 454.713287 674.697815 830.977661 714.549438 745.260742 1112.710205 1085.429321 1116.291870 1259.544800 1409.734375 1081.480225 420.527069 413.178711 467.378265 542.997925 540.178589 735.773682 654.741333 991.786438 635.155090 715.532349 1072.560791 1096.295044 1174.911377 1461.213501 1682.108276 1262.601929 444.988892 483.899536 494.009491 585.801819 616.341248 438.240936 564.199585 761.070984 847.218262 845.153503 1479.920288 1206.242310 1240.768066 1507.802856 1755.922363 1474.676147 
/model.22/cv3.0/cv3.0.0/conv/Conv_param_0 54.094303 73.739243 102.472565 52.131340 58.019524 265.030731 98.175720 224.847046 159.000931 84.471596 100.874207 167.908554 116.363876 103.193565 247.902359 113.669609 109.253342 65.175674 120.837944 86.257111 128.541718 115.069443 185.965942 54.396317 82.757782 54.128284 55.525291 82.573708 130.578445 103.962921 113.877815 38.203213 75.410683 47.643620 54.518623 67.043861 131.530136 98.244896 176.893738 72.851326 217.208160 206.809998 66.875015 101.694778 70.864670 31.446272 106.688087 172.701294 129.843460 77.086555 55.407791 116.871971 54.776066 173.833939 38.001080 60.143089 82.293282 89.675217 100.833122 41.610756 43.151524 60.316074 82.070534 157.218750 110.625397 175.445908 72.518845 74.567482 123.870438 209.261871 94.040344 108.709343 181.855652 54.851070 103.132103 37.262775 134.821884 51.108627 129.063492 219.712372 
/model.22/cv3.0/cv3.0.1/conv/Conv_param_0 12.659279 25.524548 26.760054 29.464584 30.027405 27.605951 46.079708 37.095314 35.379120 24.140484 18.992544 40.969616 37.214661 28.807840 23.973183 57.417717 35.269665 9.331258 17.756674 41.256374 22.093889 36.267200 17.359697 29.186167 31.368774 44.572193 35.239491 20.953951 37.841984 39.182770 26.500793 6.317590 33.381714 37.161251 31.161793 46.031773 10.645315 33.968391 24.990465 26.099510 32.697487 30.194870 29.266577 27.401535 23.838932 25.627689 38.918190 36.561512 23.963917 37.210705 36.026474 15.525325 14.648965 30.587133 29.591688 21.130157 28.496391 43.756348 21.828327 30.803501 23.452394 30.348797 21.713354 27.060524 31.112972 26.479912 30.844944 22.270086 9.275959 24.473763 41.624825 45.576893 33.930042 42.891258 34.967766 2.764004 32.449223 26.518505 33.224762 20.530022 
/model.22/cv3.0/cv3.0.2/Conv_param_0 577.991089 897.656616 679.101807 1133.933472 886.942871 1007.148132 950.990845 976.886414 574.163330 716.024780 714.059021 1029.573486 688.540039 890.739746 625.230774 919.879761 779.313843 1005.201904 861.958557 687.175720 808.379150 856.283142 1091.121094 1018.486511 815.347961 889.217102 854.875916 691.285034 1097.451416 928.085632 885.433167 1069.803589 834.979126 902.327820 1011.063171 1011.063171 747.402283 1107.380493 814.709473 726.525146 938.128052 940.672668 939.822937 884.680298 870.614197 772.371216 762.744873 886.187378 831.641907 692.665771 828.331238 696.841248 750.637817 899.986145 531.079102 689.452637 563.893738 1016.496338 828.331238 1205.543457 714.059021 993.680969 1016.496338 856.988464 605.578552 761.628113 899.986145 1148.960815 1013.032104 944.944580 1124.739502 858.402649 1165.043701 712.591797 874.272278 944.087097 738.384644 905.469116 1157.268066 633.607788 
/model.22/cv2.1/cv2.1.0/conv/Conv_param_0 83.102585 77.659042 15.550107 19.700731 30.596569 24.782402 40.916321 28.597126 78.481194 73.725899 31.358988 41.445663 75.651978 73.535759 25.266880 62.945976 89.626816 54.815468 34.899902 90.033043 19.958313 25.957560 75.271667 58.159973 64.588379 21.968054 97.736801 68.382217 46.304222 23.309877 50.609211 47.135021 254.432388 70.592285 47.290859 70.339844 80.139130 45.555882 85.902740 34.831402 27.176310 32.006626 54.430801 23.290306 50.986336 64.411369 97.973816 106.034348 29.791651 20.239452 38.549053 109.565979 17.665445 68.255142 22.736427 40.361012 57.752239 15.788537 39.998348 50.810898 58.015526 49.778683 63.044537 72.558586 
/model.22/cv2.1/cv2.1.1/conv/Conv_param_0 38.677734 20.910213 37.571781 49.602261 12.592690 40.045681 12.215163 14.213754 12.652387 18.787546 18.180098 45.318062 19.881851 34.622803 20.924946 32.969135 70.649162 77.597900 81.570251 33.888832 10.826033 24.408144 38.197575 16.620628 52.807304 17.028912 82.605507 74.403099 39.841782 27.881763 49.506870 12.486488 39.588268 90.066307 15.720460 36.757278 18.295378 40.653385 45.381172 21.151575 12.362514 82.528419 13.185159 32.224770 21.236467 27.566376 17.940100 31.136181 19.606487 22.528337 20.557062 29.569000 9.984547 8.336503 54.966652 27.863127 20.266670 44.711967 14.006834 26.286989 46.514397 58.591286 23.010342 90.630882 
/model.22/cv2.1/cv2.1.2/Conv_param_0 386.185608 405.133942 502.600952 511.748169 569.137878 624.480164 596.208618 621.495789 708.226013 848.600342 968.700195 1049.832520 970.507446 981.494324 1032.126953 915.025513 388.783264 401.073242 440.467407 524.916260 541.584595 639.449280 570.073425 608.411682 833.641052 717.506226 990.841919 1232.682495 1107.380493 1123.524780 1205.543457 982.421143 382.775574 380.535492 394.383636 512.757019 642.609009 605.226318 573.530334 748.477722 694.052063 835.649780 1117.490845 1096.295044 923.964478 841.734619 822.437927 730.094055 405.449738 423.954346 419.171631 509.992157 545.846802 598.609924 622.984436 750.637817 877.220886 572.268433 870.614197 1221.825073 1008.124023 912.617554 886.942871 774.095215 
/model.22/cv3.1/cv3.1.0/conv/Conv_param_0 135.866867 59.075127 450.616089 177.663284 86.724365 121.750923 101.069305 62.058708 106.735741 16.319538 96.398849 180.540955 120.405701 88.792816 115.402939 95.307213 150.024811 29.837513 140.568741 130.098434 143.463226 87.015839 50.616821 49.796825 156.248611 165.205627 158.601501 111.305382 101.251183 42.841450 81.319557 44.029057 70.659683 195.166870 99.377724 79.746521 58.416885 111.309540 112.461311 90.621323 94.587273 215.219833 79.116920 102.239731 130.389236 145.043442 52.453568 75.424026 59.733036 146.909546 157.124237 145.195557 142.737411 90.182030 183.647278 127.267326 52.081501 159.441742 90.268890 36.622749 55.786339 79.201958 117.485489 81.189018 120.706062 46.072826 58.262550 41.200443 86.582413 126.221992 134.779083 56.945545 47.939903 71.505043 47.276966 129.475815 154.418671 92.630554 74.510208 74.708160 
/model.22/cv3.1/cv3.1.1/conv/Conv_param_0 45.389408 45.970528 48.067974 46.492779 31.568302 46.944305 52.096088 58.970802 37.465530 54.022240 51.916485 57.076744 57.363445 45.338005 65.601372 58.446430 63.596172 44.286972 47.558643 34.841816 35.977127 45.393715 56.785965 35.917652 75.712288 61.934776 51.471226 55.084583 49.183224 27.218302 37.152527 40.279305 59.468437 51.330269 51.823303 34.991177 33.820278 33.019051 35.242584 49.152790 60.495567 36.472317 35.864334 35.634277 40.609837 31.333359 6.686993 49.174572 38.713150 31.563498 25.841148 37.656158 47.351772 57.851131 57.079178 41.848591 34.137016 33.069569 32.180397 21.146212 37.594002 31.314291 37.622448 40.884628 59.207813 32.270069 13.755203 49.820415 55.743977 33.427753 43.357937 34.974941 37.342285 51.774593 2.320143 38.869389 55.823566 7.502707 47.569965 38.523495 
/model.22/cv3.1/cv3.1.2/Conv_param_0 439.722748 1121.103394 667.340576 911.817688 990.841919 809.637329 955.357239 954.480713 1025.514038 1017.490479 941.523987 1003.263245 1130.852173 763.864929 858.402649 860.532654 892.267578 871.343384 789.965088 807.124878 864.824585 887.699646 825.046814 836.994385 1009.101868 821.788330 791.166565 969.602966 911.817688 864.824585 933.917419 1155.340332 748.477722 830.977661 938.128052 714.059021 988.018982 1002.296753 1033.665161 856.283142 1035.723267 615.611816 819.845520 1107.380493 718.001404 764.426147 819.845520 846.528870 746.329956 877.961182 776.405945 637.099792 806.499207 815.987427 789.965088 643.802002 620.754150 879.445496 729.070801 761.070984 541.866638 839.696533 687.629883 937.282898 774.671631 881.681335 1024.000000 1053.020264 780.483093 774.671631 1233.413208 825.701599 950.122375 702.013489 823.740295 875.007568 688.996033 934.756531 1272.640991 726.525146 
/model.22/cv2.2/cv2.2.0/conv/Conv_param_0 49.275593 71.409317 30.568138 51.854221 47.101460 52.164444 57.605587 67.399200 56.326923 35.087952 77.661995 76.457726 47.659679 48.728016 81.819283 61.722569 53.557365 56.038280 77.051254 33.653782 43.026169 28.531488 59.371250 41.593796 46.433090 32.214245 34.018429 30.754215 54.913708 44.891201 32.664509 67.480385 61.479870 45.931782 79.236794 76.445366 81.308395 97.690712 70.773819 56.662495 45.946537 55.561127 84.987862 79.832115 59.592934 63.779964 80.771835 37.058067 89.994675 94.613007 52.484081 75.633034 48.014538 70.172256 56.609589 45.367767 32.796417 56.962978 45.552341 54.793701 72.642357 51.979259 51.827389 51.530273 
/model.22/cv2.2/cv2.2.1/conv/Conv_param_0 23.685469 56.334167 40.045898 18.526157 54.402866 41.542736 20.640390 78.575447 36.040905 19.661303 27.703482 20.745192 58.945583 66.332970 105.097626 20.974377 44.074379 52.727058 38.552486 44.915058 20.039309 74.156891 28.714384 35.400074 20.992861 80.836632 36.908966 100.825874 64.718140 49.714317 27.758856 43.195339 88.169464 17.855335 22.241774 42.438068 44.190929 87.982643 23.288378 22.211876 94.519272 19.167397 109.545647 27.763506 28.659201 20.236155 36.202423 31.091150 72.587013 41.620003 36.459171 44.864269 49.141041 40.593494 14.535978 43.609550 25.830034 22.957535 21.637039 91.256325 20.267426 22.877079 27.304728 12.900236 
/model.22/cv2.2/cv2.2.2/Conv_param_0 422.576752 437.503784 466.539917 401.692657 489.822968 611.990601 606.637878 532.983582 502.115845 686.269104 522.543457 703.913391 707.263062 686.269104 742.071350 880.934814 445.369873 479.439636 428.847473 434.579773 508.000000 622.984436 496.840485 703.913391 575.752075 455.111115 702.013489 700.595276 870.614197 942.376831 1170.285767 1806.222168 444.988892 397.396484 441.214600 422.233765 461.163116 570.385986 440.094757 699.653015 614.520996 629.010864 497.315491 705.823608 894.569214 660.980957 597.578430 638.664185 407.673981 415.157227 436.769104 550.759155 540.459229 504.062012 491.210571 646.602844 541.866638 561.156433 647.810730 751.179810 808.379150 737.861023 779.313843 876.481873 
/model.22/cv3.2/cv3.2.0/conv/Conv_param_0 128.189713 70.246735 94.403290 230.650635 149.662018 155.207367 129.953033 161.984589 72.654121 163.022751 143.747208 41.281490 181.908249 162.792801 86.099625 181.433228 188.042816 141.885773 143.731140 119.622391 182.655945 143.188248 81.534409 152.881958 64.618858 156.613174 140.921982 101.319336 138.249237 139.076599 205.050949 158.514618 179.604355 159.251144 16.781422 161.420166 144.401321 182.723419 38.542873 112.394974 144.041534 20.254488 152.803711 63.585625 163.135574 145.912476 69.747131 58.801716 75.108513 152.951691 122.426971 54.194202 127.954422 15.055578 184.902039 71.662170 68.663605 157.018082 173.129440 16.110510 110.698143 155.714111 90.217247 82.782707 549.527771 76.729118 199.435928 150.162643 206.255493 108.039001 150.330032 168.504745 153.915085 121.386497 29.785704 139.118515 120.494370 72.362228 61.230724 157.654785 
/model.22/cv3.2/cv3.2.1/conv/Conv_param_0 57.605911 71.454941 53.869164 91.723595 54.556755 40.733078 104.187210 59.432175 78.525131 92.535637 73.905464 72.385086 73.639397 85.677094 39.392643 66.172050 49.972919 15.861881 60.934174 72.171501 78.515274 55.929188 60.409134 57.826836 7.151945 68.698616 86.195206 69.647202 44.201656 16.684700 49.100502 42.439400 71.489143 49.075081 53.437393 63.407558 66.068893 53.694534 60.582565 69.009407 86.963394 69.707985 88.262840 71.082588 74.138428 77.287544 41.422958 58.393581 76.833397 9.103368 58.882607 48.897923 85.286476 39.320271 92.673180 51.412842 66.162109 51.802570 68.346008 89.357674 3.034882 48.950920 50.975914 89.609024 62.012985 82.701012 69.122437 51.320271 56.278999 54.434280 43.571320 66.958801 58.206856 63.863102 77.204323 36.782402 67.630180 85.961258 37.747200 86.222015 
/model.22/cv3.2/cv3.2.2/Conv_param_0 342.231567 1027.032593 697.776001 748.477722 734.215942 651.869690 641.816162 722.990967 796.618713 1133.315918 965.105774 1122.312866 804.006165 810.267883 846.528870 670.782715 756.093018 742.071350 914.221436 835.649780 704.867188 966.001831 720.487549 685.816772 1126.566284 873.538208 996.536377 1118.091309 933.079834 712.591797 928.914307 1177.571045 1282.050537 868.434082 1182.254517 998.449158 1191.734253 1015.008789 1007.148132 968.700195 911.817688 1078.677002 1085.429321 856.283142 951.860962 726.525146 1014.019470 1184.273193 929.744385 1125.956665 1113.901489 838.343262 1193.100952 647.810730 1091.121094 920.693787 721.486816 727.541260 813.435486 612.711426 473.763214 794.792969 799.680237 893.800659 1139.522461 1139.522461 881.681335 905.469116 1135.170776 891.502991 1421.289673 959.763855 676.452515 946.664246 1001.332031 861.245056 1033.151978 882.429199 2207.711426 1041.425415 
/model.0/conv/Conv 127.404358 
/model.1/conv/Conv 10.199965 
/model.2/cv1/conv/Conv 3.358247 
/model.2/m.0/cv1/conv/Conv 17.729076 
/model.2/m.0/cv2/conv/Conv 10.590420 
/model.2/cv2/conv/Conv 10.474473 
/model.3/conv/Conv 24.719177 
/model.4/cv1/conv/Conv 28.324825 
/model.4/m.0/cv1/conv/Conv 42.697575 
/model.4/m.0/cv2/conv/Conv 56.788776 
/model.4/m.1/cv1/conv/Conv 23.142681 
/model.4/m.1/cv2/conv/Conv 113.569740 
/model.4/cv2/conv/Conv 21.330475 
/model.5/conv/Conv 53.158775 
/model.6/cv1/conv/Conv 56.866386 
/model.6/m.0/cv1/conv/Conv 60.226707 
/model.6/m.0/cv2/conv/Conv 56.913322 
/model.6/m.1/cv1/conv/Conv 26.703152 
/model.6/m.1/cv2/conv/Conv 77.593208 
/model.6/cv2/conv/Conv 28.305424 
/model.7/conv/Conv 56.452087 
/model.8/cv1/conv/Conv 56.334805 
/model.8/m.0/cv1/conv/Conv 63.509865 
/model.8/m.0/cv2/conv/Conv 42.355431 
/model.8/cv2/conv/Conv 28.474020 
/model.9/cv1/conv/Conv 46.064960 
/model.9/cv2/conv/Conv 17.175076 
/model.12/cv1/conv/Conv 66.877647 
/model.12/m.0/cv1/conv/Conv 42.036518 
/model.12/m.0/cv2/conv/Conv 66.947182 
/model.12/cv2/conv/Conv 42.017334 
/model.15/cv1/conv/Conv 53.158775 
/model.15/m.0/cv1/conv/Conv 53.035618 
/model.15/m.0/cv2/conv/Conv 74.590324 
/model.15/cv2/conv/Conv 35.323414 
/model.16/conv/Conv 49.360241 
/model.18/cv1/conv/Conv 56.817986 
/model.18/m.0/cv1/conv/Conv 42.523624 
/model.18/m.0/cv2/conv/Conv 67.314278 
/model.18/cv2/conv/Conv 38.499912 
/model.19/conv/Conv 56.371540 
/model.21/cv1/conv/Conv 49.282192 
/model.21/m.0/cv1/conv/Conv 49.686115 
/model.21/m.0/cv2/conv/Conv 60.043167 
/model.21/cv2/conv/Conv 34.953289 
/model.22/cv2.0/cv2.0.0/conv/Conv 49.360241 
/model.22/cv2.0/cv2.0.1/conv/Conv 49.407898 
/model.22/cv2.0/cv2.0.2/Conv 6.849773 
/model.22/cv3.0/cv3.0.0/conv/Conv 49.360241 
/model.22/cv3.0/cv3.0.1/conv/Conv 77.800316 
/model.22/cv3.0/cv3.0.2/Conv 9.308927 
/model.22/cv2.1/cv2.1.0/conv/Conv 56.371540 
/model.22/cv2.1/cv2.1.1/conv/Conv 24.455229 
/model.22/cv2.1/cv2.1.2/Conv 6.691236 
/model.22/cv3.1/cv3.1.0/conv/Conv 56.371540 
/model.22/cv3.1/cv3.1.1/conv/Conv 42.535240 
/model.22/cv3.1/cv3.1.2/Conv 6.246284 
/model.22/cv2.2/cv2.2.0/conv/Conv 56.529083 
/model.22/cv2.2/cv2.2.1/conv/Conv 21.068249 
/model.22/cv2.2/cv2.2.2/Conv 6.900065 
/model.22/cv3.2/cv3.2.0/conv/Conv 56.529083 
/model.22/cv3.2/cv3.2.1/conv/Conv 28.091999 
/model.22/cv3.2/cv3.2.2/Conv 6.409871 
