/model.0/conv/Conv_param_0 10.767832 12.126377 20.519136 13.157343 11.765173 24.850372 15.231228 205.587662 14.677894 18.148277 21.141848 14.656518 13.921546 6.991439 49.991398 25.531525 
/model.1/conv/Conv_param_0 180.823242 101.400383 156.565842 167.330612 205.458328 160.007523 110.691513 111.869637 184.298447 208.438416 614.950867 288.229980 188.594543 153.599594 129.971390 256.966949 96.914780 252.242935 267.863892 87.800896 148.339020 227.967743 257.178802 155.153534 120.343552 349.681793 344.088684 184.035019 301.460693 145.923996 177.147141 165.697678 
/model.2/cv1/conv/Conv_param_0 168.476974 96.415848 167.229401 239.557999 112.378021 293.307404 136.434082 89.759399 247.324173 267.198883 208.799072 125.148125 261.735321 141.423401 321.095276 151.279114 538.692810 363.561371 452.797516 217.713654 358.654510 997.747131 537.246216 249.452805 177.055618 178.875046 418.518433 331.193237 367.997467 332.902252 383.707275 618.393860 
/model.2/m.0/cv1/conv/Conv_param_0 42.677193 66.796478 37.799984 65.175972 32.524399 22.115055 35.004559 42.225872 40.315102 46.556641 14.651471 38.452274 74.837585 49.075912 66.467766 62.547493 
/model.2/m.0/cv2/conv/Conv_param_0 70.249680 50.148151 50.385036 36.969566 39.723709 36.953926 38.947090 49.341904 36.156239 64.105606 63.729691 45.962677 107.850670 35.337372 41.457619 60.887192 
/model.2/cv2/conv/Conv_param_0 464.169373 412.309723 255.274811 338.743042 515.314270 403.898102 408.185272 389.827484 656.921753 339.611450 269.182892 291.771271 790.443176 459.481598 443.835876 257.868439 301.671173 543.367065 369.438232 577.960083 333.428406 366.687775 467.169708 233.593521 301.723602 227.563034 308.849213 543.796509 308.331787 433.973480 426.475647 517.182861 
/model.3/conv/Conv_param_0 589.847229 313.537109 310.392548 1283.902100 364.333557 961.159241 358.868805 311.444183 541.844055 407.583313 395.602051 959.374573 313.074188 877.630005 483.913391 518.137146 533.021790 309.599884 188.124222 413.207031 766.719360 350.381317 869.893311 408.393158 258.394714 423.331879 1028.573975 414.660187 439.354980 614.967957 352.241974 1102.005981 571.706482 646.193054 820.283569 376.087433 687.473877 986.783325 361.239136 425.362274 392.009369 299.994995 419.477997 439.386597 491.972534 270.956635 393.987579 253.301804 534.633423 327.867004 468.485687 407.116608 295.627258 783.109680 639.740112 408.875854 485.343048 660.431580 504.464905 629.637756 843.435608 754.201477 474.777802 803.291687 
/model.4/cv1/conv/Conv_param_0 70.323441 105.062950 104.469795 138.532944 151.985611 140.172501 151.981537 79.456963 82.797913 77.809227 109.004326 145.506699 121.496445 196.199112 81.333305 148.685287 118.755524 126.142883 99.099861 58.503899 126.175842 80.399712 110.686569 143.064133 133.724228 76.039062 89.177444 76.853859 130.008301 47.001801 48.737442 104.318550 392.756317 193.510986 356.098480 206.085434 213.077286 293.106934 144.885864 390.386871 229.503281 249.590820 375.188293 330.454651 291.687836 319.927063 289.621246 221.674866 433.046265 354.678162 316.123688 261.224182 209.652039 286.674438 299.522217 266.910004 228.900726 297.710358 313.672180 275.415192 349.733582 212.417847 298.754425 204.201492 
/model.4/m.0/cv1/conv/Conv_param_0 32.203499 74.040543 54.342484 91.416222 66.417503 44.823856 84.170921 69.057655 44.169899 51.764771 92.387413 72.782616 54.414814 94.549950 143.962173 76.835579 74.211617 64.263100 138.353485 124.018051 37.440865 41.070084 72.663254 95.171906 57.856323 57.574780 43.843967 62.481644 73.841187 134.390396 98.426689 81.445511 
/model.4/m.0/cv2/conv/Conv_param_0 75.237534 68.854179 71.601257 47.296097 54.875050 50.230957 111.843811 71.599854 69.575638 81.030937 59.052723 87.928650 55.823372 111.938026 128.848709 59.960205 86.362442 91.312683 65.833771 86.106941 64.057289 50.784130 121.961983 44.155861 90.873619 69.563957 118.334816 61.589500 45.227669 71.369705 47.268879 81.256050 
/model.4/m.1/cv1/conv/Conv_param_0 531.328308 103.707886 192.516296 53.652416 113.388016 109.222435 175.207031 138.574615 137.434250 103.168373 67.039665 130.967392 96.139694 88.031639 106.961845 100.032982 127.012001 108.106194 150.473785 152.837692 109.596069 121.517303 126.865166 86.468361 131.244614 152.744476 152.224670 219.955688 188.042023 133.881927 120.425514 117.399033 
/model.4/m.1/cv2/conv/Conv_param_0 31.036436 27.379560 21.336098 28.264444 12.354558 15.710304 29.670715 33.433865 33.930851 41.954315 20.311390 27.992517 40.389099 36.246510 36.863293 32.547791 35.839352 22.773806 23.379786 38.966934 32.595287 15.146776 26.309692 29.255932 38.652634 22.434389 32.934139 24.528954 22.451200 35.713539 32.930679 23.146828 
/model.4/cv2/conv/Conv_param_0 569.830261 528.500854 693.712830 342.930908 608.851196 571.793640 350.983887 623.833801 313.853973 292.776581 719.180237 233.429214 396.571167 631.738281 671.771240 795.706787 472.578979 427.457977 511.002197 398.109924 796.683899 391.902954 468.927948 311.067261 576.885925 404.669830 618.549438 402.731750 568.752319 538.437195 479.549438 426.681000 668.952515 511.972565 649.715881 369.616760 378.757355 504.960815 565.387024 917.568176 433.167664 416.361908 329.860229 542.602112 828.283936 433.468079 660.483521 663.150696 396.569397 262.034027 623.125061 532.901489 829.989075 743.535645 606.706482 417.735870 668.247559 540.449829 318.628784 547.661499 342.943939 535.214294 406.234497 683.634460 
/model.5/conv/Conv_param_0 696.189758 479.505005 850.668579 595.141357 297.842987 540.795471 641.724609 371.807098 591.325928 572.352112 426.325531 284.156921 588.721069 323.488617 822.048523 542.635132 388.617493 360.844574 488.647522 484.381042 409.281219 529.219604 434.365845 332.896912 363.192871 405.429352 370.676880 558.934998 463.601501 312.914825 546.414917 480.011475 487.549072 315.071106 645.814941 397.865936 686.466919 471.801361 497.419403 367.717041 197.631454 708.896301 469.082916 517.582397 551.306091 421.775391 501.133514 313.900085 619.294617 651.819946 721.337097 373.917175 575.264038 438.504974 456.637268 531.559814 403.174408 456.715027 210.518967 446.870483 641.821167 448.662140 402.135956 435.054077 564.178894 350.707520 424.187958 355.978760 424.692505 324.641022 534.152222 413.981903 550.131653 333.797638 396.917450 625.744690 800.511108 357.288086 495.773468 619.805237 577.823608 402.255981 394.836273 634.142761 537.988708 687.904297 366.602325 433.034973 484.790405 416.639069 709.536438 365.912323 348.162567 470.159485 460.056549 781.809570 481.318329 461.912537 316.647949 459.473511 377.909271 355.175201 439.928345 313.778381 377.011658 434.220612 499.593872 309.199402 453.456116 510.968445 392.707520 541.911072 579.004456 604.489197 583.863342 660.840637 466.582672 346.635803 524.445496 356.354431 414.249237 417.815369 312.617218 280.192505 364.786652 307.313324 349.696442 526.067932 
/model.6/cv1/conv/Conv_param_0 106.966270 156.819504 99.398720 117.925797 188.198761 181.948822 110.510635 163.859818 142.735123 184.677536 210.876678 182.552979 147.479477 134.126343 187.428711 88.483948 127.477921 111.002197 53.796227 137.196472 129.441284 120.821747 154.485413 129.341919 124.225998 92.642883 111.966835 230.336502 171.380798 106.765862 169.316391 141.674118 100.138435 173.635361 124.380661 127.125870 145.985779 145.458557 113.089493 173.929504 221.308731 169.195221 119.778442 142.102982 147.421890 152.791733 132.387726 117.840935 212.497345 99.674500 122.945084 161.576370 149.672119 156.722458 93.742889 178.983795 130.396393 134.908646 139.835297 133.564621 162.947433 206.363266 151.756729 199.181549 398.640015 205.573792 423.964386 169.481522 376.378326 389.169189 490.264740 319.005188 362.791626 248.090500 305.886597 284.323517 410.434723 333.158691 416.485840 426.852417 231.836868 312.496582 377.981201 347.119598 431.351227 251.791229 307.728729 373.609406 322.957581 428.611115 297.049561 185.600891 298.619568 240.163162 442.841675 271.969025 243.664383 456.485291 388.773438 427.773499 441.147552 248.854126 347.446259 367.758881 373.010284 437.293121 513.182861 489.483307 340.383759 329.151031 282.373871 393.848236 334.627167 407.488770 408.776581 406.019073 279.705688 476.698486 324.365051 370.182556 316.962921 264.533508 383.306610 336.175171 350.395294 549.693359 521.842163 303.849335 
/model.6/m.0/cv1/conv/Conv_param_0 113.239845 132.557388 96.434662 81.100067 155.256470 93.422195 150.094116 81.772293 67.914078 91.736549 44.732452 113.838341 133.395218 139.518890 130.863342 90.323555 101.224426 150.501022 127.305634 79.274979 157.510223 99.709503 118.609146 69.904495 113.352798 65.097466 137.614471 102.252037 113.962753 73.204147 100.746758 105.191338 128.489395 108.170395 78.665886 107.728630 107.144806 99.042442 107.885048 128.667755 117.847946 154.982681 89.943634 84.447838 111.786385 98.625275 61.667522 108.510498 69.127541 103.885544 123.305862 102.843925 94.910645 105.833015 87.852913 94.561218 82.507271 105.759872 89.466599 117.711929 95.487251 125.584549 105.457657 96.799377 
/model.6/m.0/cv2/conv/Conv_param_0 111.407173 99.804848 100.562805 126.453018 113.418144 96.355453 127.105743 135.092514 112.363319 59.988270 95.447472 87.661629 105.527626 90.356651 123.755196 124.463158 86.634987 82.138565 105.464020 154.992325 124.189598 104.125648 114.665535 134.233673 144.269958 87.861549 91.328842 88.233643 98.560989 172.833069 106.798622 132.250946 84.602028 86.093025 85.289665 114.686020 120.543816 65.800987 138.396210 69.707626 110.266121 51.845177 124.434166 114.961105 133.204910 125.807076 131.696930 101.220886 101.111008 117.244270 85.447777 90.146606 58.896797 116.294571 120.698456 106.484558 139.979935 120.666084 115.181213 110.125824 109.088585 121.733253 139.044159 136.422836 
/model.6/m.1/cv1/conv/Conv_param_0 70.757515 202.752991 137.983917 81.120926 147.381485 200.753677 135.172546 206.609756 167.915619 75.214722 167.476593 234.433228 146.439972 530.153442 75.200745 77.752045 102.604057 145.927704 133.080429 249.192856 217.833054 77.469711 145.298645 104.894051 149.655045 145.248199 103.717934 117.312050 216.585968 133.323578 236.450241 97.955788 223.618332 208.387115 110.634163 99.272209 119.174232 109.175446 92.446579 191.881088 142.735916 67.197884 77.692055 116.501907 130.692368 190.501038 140.325256 129.242203 222.545944 139.968903 201.502777 107.830719 118.070099 294.704407 168.946426 194.649536 149.960953 124.053856 153.088470 131.511703 108.291306 132.951859 108.903358 131.010010 
/model.6/m.1/cv2/conv/Conv_param_0 44.305283 56.700714 48.472794 29.541643 37.197834 34.036285 51.078129 30.297857 58.655991 53.513885 63.198769 55.918728 58.972420 39.566814 39.343342 48.459064 39.054207 46.635998 42.950291 61.553448 52.278690 21.630451 52.516861 49.122185 44.258656 66.778694 40.424057 55.598515 37.390621 54.937275 64.356461 63.171696 59.106743 34.781700 50.398067 32.567459 49.732723 35.231853 37.688099 42.132858 47.772213 62.055145 62.057396 32.446232 44.421501 45.535992 49.291462 55.522945 58.567871 46.047718 49.743080 48.444103 59.834232 56.800728 23.056942 50.843266 60.937157 23.262327 67.267166 54.608814 41.090134 51.730186 49.750355 35.777634 
/model.6/cv2/conv/Conv_param_0 680.632263 833.823853 927.947388 599.285828 865.088562 813.999512 498.102844 734.401489 780.062866 752.264099 663.285645 984.076965 952.516663 476.370178 765.678528 505.967224 1109.946899 914.686096 1163.267456 1363.971558 942.220947 669.803589 407.110291 773.703064 1011.062927 787.799316 477.607941 615.072205 900.747559 431.431854 862.690918 559.001526 717.756104 789.355347 646.726624 644.444153 856.239502 660.720459 842.071472 750.348267 549.901611 1851.740601 931.230835 495.780609 997.991516 961.977844 690.311462 637.763245 673.454956 772.925537 640.633850 660.347656 626.030212 407.693909 623.099915 770.306458 567.655396 1318.503052 512.260071 740.743591 741.062256 499.697144 675.750488 643.526184 807.862793 622.353516 779.450012 784.263916 980.155518 937.127441 563.859314 694.947937 853.741089 804.501892 826.962524 620.165955 501.319702 643.824951 648.126587 1054.801147 366.105743 666.934082 480.369965 355.739136 804.313049 704.809265 1036.070923 526.067322 325.525513 904.370056 966.657043 651.624695 1069.290527 669.846863 579.471191 630.090698 566.036255 765.775330 518.859985 464.666870 901.332764 841.341492 424.368744 777.901794 872.984436 529.542603 358.473206 883.565002 551.606506 769.349426 590.678528 806.690002 635.837830 802.986633 697.891113 521.443359 636.221802 672.008423 773.599976 681.964294 790.762634 950.325256 951.319397 453.482483 495.026215 801.934387 595.545410 467.244202 
/model.7/conv/Conv_param_0 711.861633 882.889893 646.476379 480.667328 628.471558 470.796997 530.065918 671.038940 641.958618 733.854675 747.005188 561.305237 478.810974 613.492859 767.881897 453.016968 647.631531 733.999878 575.150940 693.463318 759.028687 487.114258 614.311218 512.716858 557.248962 584.393494 690.508484 534.867554 668.928711 723.149231 516.190002 635.922791 704.887695 630.151123 616.870911 530.962708 549.673462 673.822327 543.685791 472.823334 637.344604 765.345093 645.709595 546.979248 641.981934 433.382111 445.441650 611.260986 711.999512 781.433411 575.247375 562.819885 547.942017 467.193909 373.361237 605.268616 594.094360 512.623718 359.887207 405.939026 611.403809 783.047119 775.220276 499.569153 333.882629 692.195007 627.336487 376.829620 932.409668 494.383392 532.569397 575.173462 720.662598 443.352173 621.558655 610.423584 456.203857 637.899353 502.167542 472.949463 897.531433 431.014984 764.021362 546.432129 275.350891 390.541687 723.699219 452.399353 576.023010 437.191620 635.258911 551.726868 648.388367 611.965454 359.557953 562.170532 797.979797 820.776794 459.130402 511.129639 591.913330 487.306030 575.638550 630.950928 642.835815 547.883301 536.220520 572.868164 590.640686 527.962219 573.923340 505.957031 657.744995 555.300659 634.979553 724.496704 631.350830 609.215454 462.679596 456.193481 390.352997 792.728882 423.896912 551.696960 585.901245 461.952576 470.042877 587.563293 609.772095 704.768921 694.578064 434.512665 1055.955322 374.305756 622.752930 437.489197 630.999634 634.091614 695.808167 618.254578 712.072205 798.417969 445.955780 211.242325 772.788574 247.435333 608.560791 523.717102 483.956085 442.739655 509.157532 387.930206 256.810638 552.960388 663.103149 477.694977 496.364746 678.867615 436.626343 579.218018 503.393341 665.401733 389.468445 469.412933 664.699585 568.993347 620.853821 631.245178 735.835999 614.977661 413.938873 758.327454 472.286407 641.063171 561.175537 414.406586 606.293762 609.375305 534.315063 552.796021 592.873352 432.338959 592.753662 546.087585 723.882507 786.723938 606.607239 680.272400 428.778717 818.096130 436.262146 779.303040 573.545349 848.906555 561.311279 685.613586 556.132874 611.239319 891.124390 846.788513 653.033508 365.858551 613.828613 724.780579 806.499390 424.768768 815.012451 580.215698 763.144775 332.551514 824.543579 550.658752 488.553070 662.702759 656.519958 830.958374 591.672729 757.274780 747.878845 593.715027 724.591248 562.127502 669.398682 428.727814 729.686707 844.416931 637.511292 493.103516 565.663940 675.886108 820.548218 668.648376 663.320374 685.364197 499.100861 718.996399 621.067505 742.898865 474.014038 703.792542 759.755127 571.449341 912.946411 745.320312 659.110535 403.644775 443.926910 582.617676 940.633789 387.973572 554.619263 767.445557 658.834900 635.034790 695.865845 587.222656 
/model.8/cv1/conv/Conv_param_0 302.375092 276.828705 390.701935 179.034363 318.668121 288.272675 434.857208 384.816528 393.075104 247.532425 325.577911 276.321747 256.531677 375.312866 350.728516 222.907532 277.221100 199.851288 278.844971 255.879745 230.084915 373.568542 266.760742 359.424286 180.257919 175.380997 281.010162 346.013306 299.601990 231.793655 290.917419 362.838440 329.466522 167.912247 258.366089 161.587189 273.444122 241.569214 310.516357 227.390320 290.552277 196.488617 228.044571 203.376282 334.042969 349.859283 266.732727 315.241852 233.848190 364.389374 295.572296 262.331268 239.166000 233.684113 290.197815 263.340790 309.607788 360.800293 304.797028 229.280975 282.553345 292.049194 298.367157 312.981567 280.320404 185.140945 373.608154 336.606049 346.213654 324.695587 314.531677 346.253998 168.436356 260.798126 280.127716 474.413910 329.428711 375.261688 318.325378 258.448853 322.448303 461.629669 163.990250 357.128448 337.338989 200.298126 229.659531 301.292389 262.447174 349.423218 250.994888 439.760956 190.627106 272.006897 297.823730 286.547699 304.070038 388.524048 242.775009 349.914734 378.109436 382.450500 327.166595 251.286819 311.862762 270.257294 205.385880 256.476959 213.550049 278.806702 347.558777 210.039581 283.415100 273.925354 297.422119 422.938843 332.354706 217.518219 326.043854 294.319672 359.342651 547.484497 313.939423 347.466034 195.116776 289.320129 384.521301 369.081635 281.853119 409.103424 346.628662 373.126129 418.631958 506.359711 538.351013 322.381470 405.803406 524.333862 839.524841 314.114136 300.372925 401.139771 388.867859 690.215149 600.852417 338.959686 294.583832 328.741150 349.039551 367.052551 385.451569 325.910187 482.837189 337.931915 343.269043 520.139893 516.093933 291.779114 404.522919 386.744934 621.283325 433.410004 344.929565 345.253845 306.382263 427.226410 214.570450 400.426483 488.774506 372.874908 588.103516 651.652161 486.367493 306.933472 336.503998 253.751801 348.534210 280.042694 300.056427 338.820953 320.055725 612.545654 447.629364 330.304840 456.967743 520.804993 423.478027 391.352692 360.422760 351.934784 667.528931 366.644928 500.504791 381.761658 381.164154 269.187683 375.374390 806.264099 428.441711 358.407623 392.991302 326.412659 298.521484 475.981934 532.595215 475.328308 324.401276 336.045654 287.612366 293.903076 425.950195 267.828339 392.997864 506.553864 418.576141 413.175385 350.370758 371.176300 376.884155 339.252686 460.965027 348.889526 318.270020 524.856323 531.835449 248.178055 268.106903 438.108246 346.328705 269.801056 281.035767 467.543884 373.106873 337.596466 240.436005 304.614532 465.665833 504.000610 288.906281 344.524200 300.399750 546.336304 313.140594 2145.798584 251.437103 364.480682 339.098999 372.296661 484.692688 419.761169 541.285706 412.435608 414.876556 649.522034 345.971710 401.053436 
/model.8/m.0/cv1/conv/Conv_param_0 92.166275 115.582787 81.567062 72.724503 65.417694 77.954239 93.698021 68.367950 83.822357 83.238876 105.497070 144.659103 78.173233 97.153008 57.082176 89.130692 98.800568 71.375565 107.975388 99.909012 89.791763 99.806541 115.619514 145.975739 40.081253 103.773277 109.084862 76.356941 156.403854 86.969711 85.238579 150.382996 101.955177 106.795998 95.893768 42.585670 85.127975 110.236488 129.814651 71.029778 81.238304 56.879574 54.768913 78.031418 47.235809 110.545967 115.251099 73.421677 86.728302 86.151321 102.220749 82.610794 77.166031 96.415520 58.059139 94.096214 108.189102 92.150101 96.551926 86.222778 102.999069 129.530289 83.991241 65.981087 82.939575 104.345612 83.658531 88.999252 128.316391 146.570175 107.497917 85.595139 86.049995 109.475746 56.930244 123.326225 82.933853 88.159851 95.753799 90.279327 78.937386 72.939972 131.851196 68.904419 45.863350 78.444000 107.326347 77.742905 112.222229 37.956886 75.864937 96.976921 104.759079 106.312775 78.507423 74.996910 118.140808 108.688202 147.173706 204.962433 103.592476 100.704903 87.922653 89.013092 84.712578 83.509315 99.458252 65.548630 54.018166 37.590530 82.763260 151.610565 83.814064 83.056602 60.681213 132.166443 76.418274 93.744247 76.885201 113.331543 65.767120 114.651459 97.624657 81.550911 51.538601 59.157879 84.013779 60.518337 
/model.8/m.0/cv2/conv/Conv_param_0 57.810966 91.457825 112.190987 71.650955 92.415634 112.136131 76.154427 121.158318 103.711372 54.599636 96.047554 56.183987 103.897446 102.278915 99.381142 111.300781 76.130707 85.951729 74.952072 85.150551 88.842194 88.331322 57.318199 64.333595 52.941883 119.488068 98.606842 84.549492 79.521072 101.275589 98.040817 84.439163 25.870939 114.060265 55.580128 114.919701 131.773560 98.465492 100.163628 112.188011 77.516655 94.178368 65.650078 105.265823 73.251862 104.216301 107.846764 77.220360 91.813354 49.846016 82.779633 104.047112 47.470783 93.302483 86.120872 105.303581 82.806496 83.254265 84.946678 89.235558 71.831268 122.662163 90.249985 67.570831 98.836525 104.269875 144.370239 126.591690 38.002090 132.378036 37.676220 111.725380 40.285709 136.964523 87.333633 91.146812 103.286850 111.625610 54.427399 26.128429 76.639740 89.281563 133.598145 83.906532 95.879379 156.200531 75.530426 82.790977 84.561539 113.748329 100.505974 77.286743 43.750374 75.687195 108.870552 74.847031 116.785126 42.155804 56.253494 91.798347 102.919952 72.515923 47.070915 109.755760 108.021484 99.145653 85.872849 105.011520 76.373924 41.615936 84.718910 141.577530 104.865700 44.204712 52.051567 92.519928 38.374332 90.192780 88.239388 86.720871 101.444580 82.225777 78.692329 88.345581 98.010399 82.010513 119.550583 159.866348 
/model.8/cv2/conv/Conv_param_0 501.276642 574.497070 555.032837 435.416718 396.866669 630.630310 640.954895 697.386536 464.974152 607.513489 630.126465 329.375610 592.331726 585.377991 521.814636 299.500885 462.223877 487.996613 580.157349 631.292908 480.514038 606.989563 624.060364 461.309448 588.900635 528.149292 670.802002 550.000854 652.166382 616.344727 538.667725 507.818817 443.600800 283.806854 754.868469 537.443054 555.864014 596.417969 678.398315 648.895447 599.119873 647.304321 654.242676 475.264587 632.933228 603.218140 341.219330 511.030518 539.130493 588.215942 699.841797 667.762512 490.715363 624.248474 587.321655 616.570068 503.349274 680.901001 551.812683 471.319427 594.562134 656.679016 579.023438 687.119629 620.891418 668.856689 567.102844 609.023621 575.860779 516.121094 417.116486 599.577820 662.297791 441.757446 656.614990 670.769653 600.694336 551.391418 496.346191 477.825134 557.880493 505.503937 418.881805 714.306152 655.266846 480.875000 548.024353 636.970215 611.996826 475.856812 738.466553 535.012146 606.291992 471.221008 443.595612 665.145935 529.764465 589.641785 515.901306 619.920227 571.024231 492.069946 585.845337 412.030334 601.513123 787.034119 353.189667 654.121216 578.629272 601.456482 673.653015 772.405518 433.578857 494.595825 653.839783 415.891876 524.590942 739.261475 638.724548 589.696899 539.939514 691.894836 466.620331 673.903137 469.489319 563.033447 516.371033 584.980896 584.204346 397.331451 502.042175 506.100800 685.731506 508.810089 554.542786 278.530914 466.667084 388.929443 646.078247 763.891174 423.574677 387.939758 502.735382 707.083313 637.321777 608.471130 675.753845 447.997223 481.752319 627.903259 676.375366 569.402588 450.917633 624.328979 587.938110 609.331848 672.097107 788.166809 580.198242 571.745728 657.218994 556.117859 589.292480 713.754211 493.900208 584.981750 632.265991 571.313538 556.922241 729.106689 799.146362 433.803040 442.788544 434.135620 450.346039 510.798645 532.302673 570.570190 575.140564 686.089478 705.817871 810.739563 374.134369 591.317688 430.450104 546.793640 642.618713 630.455383 653.457947 706.957458 621.980713 715.242737 833.738892 695.513916 440.813538 643.171143 574.628357 579.094299 661.684509 231.541168 778.516663 475.463959 524.984375 540.289856 456.170837 670.200867 580.544312 616.746277 515.960693 657.806641 680.105835 487.159637 631.776733 606.027039 638.048462 589.391052 495.414276 577.720337 351.860382 646.764954 504.033997 738.999451 465.411591 610.291260 721.477295 607.063416 700.862244 640.883240 591.473328 769.519775 510.999908 745.463989 657.814636 578.758850 627.180359 303.199707 456.335114 602.300659 640.997803 368.603943 806.285950 685.966187 544.415161 676.600525 716.057190 451.130829 724.201599 496.920166 381.752502 590.056274 595.612793 586.660217 577.418945 476.834198 481.348480 658.139282 
/model.9/cv1/conv/Conv_param_0 545.803345 753.694824 448.085571 563.608521 533.917297 432.586182 666.300171 642.058472 433.437592 506.854828 523.800903 305.706573 529.461548 586.257629 598.078369 522.937927 612.306702 639.152100 582.348938 649.038086 515.967773 605.139282 327.587616 548.961243 715.024902 403.164551 707.472656 811.773071 635.144409 602.461487 499.913818 642.644836 474.160980 515.526062 440.077454 722.118164 370.919403 691.899658 569.126831 790.627991 559.580566 609.815552 401.202118 489.825104 230.550247 774.986694 219.611649 712.348816 443.600800 785.100098 298.096191 653.583313 664.958679 602.892334 475.644775 506.041199 680.967957 554.259094 822.986572 402.979431 492.455078 416.071167 537.052429 409.900696 507.169708 296.819550 404.932861 564.527344 740.432678 487.045502 406.727234 773.332825 442.048157 478.773651 402.011505 646.868164 477.031921 324.056671 592.208008 650.158875 830.125671 789.888916 439.523193 285.107452 574.186462 448.910706 484.150574 750.135315 618.932373 582.822021 512.985291 576.795044 448.760559 655.637817 539.485596 553.279724 392.048187 604.565308 517.572510 456.939453 601.849060 601.306091 812.317505 659.703979 583.973511 554.907959 672.399414 670.452881 557.690186 487.738953 487.734497 495.386810 145.926056 421.589050 487.037994 590.776794 608.040955 644.021362 236.295013 517.214844 661.268433 416.467255 361.905060 430.999420 755.114624 470.944977 331.331238 534.819336 
/model.9/cv2/conv/Conv_param_0 1669.517090 1638.253418 1283.017822 820.978516 1552.608398 1041.146729 1280.313843 658.045105 1253.663452 911.791260 664.545044 1147.287720 1040.014771 600.922485 735.546753 1058.131348 1046.254028 408.390564 858.447937 897.567810 1692.782837 1157.606689 807.549622 824.585388 764.516235 834.942627 781.626526 1202.420410 690.602478 670.947693 1337.747070 1041.253052 924.939941 1719.288086 380.614410 1096.287842 1061.028564 781.970520 338.542572 1200.209961 670.772034 930.543396 1134.634277 1250.946289 856.173035 1505.200684 873.265991 696.667419 1351.015991 954.086914 1342.703979 938.875977 911.702515 687.969604 1180.006592 667.760925 904.690491 1066.465820 872.474792 1233.576172 913.512207 281.014130 769.837585 569.769592 701.900574 965.449585 560.833374 1139.360352 1201.903442 1230.007446 1067.716675 1133.577026 503.241974 849.490112 689.893311 867.785767 755.522949 782.124023 571.810547 285.842102 746.997192 849.136108 469.573608 861.868530 587.335388 520.247620 1059.604614 732.007019 1502.659668 1434.643555 966.147156 1396.139526 953.888062 353.791138 886.269226 998.245911 1586.270508 964.674377 934.665405 1039.011230 1577.740112 2042.505005 702.740967 1115.525757 503.543518 552.060181 950.841980 879.049011 976.947510 1825.577148 1445.763062 1258.439087 1132.341431 1359.366333 753.331177 822.914795 774.616272 1181.190552 883.273193 1199.402222 979.267639 811.631226 1259.019531 1222.951172 645.894958 1000.237488 1152.893066 882.602051 702.243591 883.761292 1800.416382 985.257996 1092.608032 2325.088135 1225.555664 611.337402 1290.512207 1075.697632 519.583496 398.214752 1133.248901 883.745667 1197.856079 377.981171 618.108337 971.560791 1447.338257 1543.146851 1041.234619 1212.369995 1270.994385 955.909119 1763.103027 1258.675415 698.158630 265.227783 1269.480713 591.249512 1105.185059 1091.779785 986.618591 331.144928 1760.839478 1284.319702 864.361572 1122.589355 1139.415161 726.614380 838.327576 712.052307 1005.879211 672.761353 455.460999 897.104309 888.114075 553.452820 1604.354858 724.065491 1451.619995 1333.480103 614.575378 1209.238281 1154.817993 773.213623 617.830505 662.701904 731.630005 739.424744 1104.238403 471.741211 483.827789 740.460571 1326.200195 944.621704 854.028564 480.743683 1101.508423 852.221924 1011.984802 434.900269 1738.881470 1510.165161 973.417664 1058.367432 1090.637329 829.087463 1003.858459 1265.683594 1131.608276 713.455200 870.257629 1446.406738 1178.223999 1287.113647 1125.583130 694.266235 809.196594 1199.544434 959.363037 977.494873 2048.574219 917.115662 570.729980 864.698975 876.813721 827.430786 1454.830444 1250.458374 993.907532 620.768921 644.088257 1001.934631 1308.108032 793.065308 1640.833008 1369.298828 872.941589 956.275208 1026.442017 693.967590 940.963074 1111.064087 1353.664673 1068.161499 903.765503 1114.425659 460.379425 756.772705 1982.643311 1038.651489 805.158752 1214.580566 297.135986 654.775818 539.371460 649.685303 
/model.12/cv1/conv/Conv_param_0 282.828186 150.532349 181.532608 223.125854 219.886368 124.883224 242.105820 164.538879 182.005173 358.852051 335.216003 307.550415 209.849289 241.183029 209.904678 102.508224 248.076263 231.331711 183.261002 288.188568 178.105469 324.193848 200.595963 234.119843 125.638771 227.248596 335.764862 165.647018 197.529480 252.901733 282.594604 324.564697 269.664032 210.643906 193.673538 159.616409 271.700012 224.669098 176.750458 186.081833 125.813599 266.973724 201.899063 194.332809 128.924332 331.522888 224.487701 325.719086 254.293945 203.695831 267.093567 197.736176 279.483856 223.005402 440.195770 228.150253 320.069855 247.604889 212.047409 288.687622 117.683723 264.663177 274.079498 253.686295 236.665924 299.240021 303.956787 156.260864 266.723419 338.477692 389.631317 217.558945 289.663696 174.713058 188.272980 233.425919 238.800278 182.777023 363.126038 155.197937 319.528748 388.501251 167.909103 250.155991 218.759796 463.708649 298.542419 214.921631 449.987701 257.441620 218.684052 173.536560 162.439957 424.538452 402.110809 210.026367 205.253952 227.200592 347.693024 348.903046 344.040497 224.326096 266.248871 357.428925 377.476837 323.302704 271.549194 231.309067 391.675201 247.163773 328.819031 282.411163 188.884933 246.617355 236.939713 653.226379 107.463081 209.496033 181.444031 301.894196 378.660522 378.682343 247.754639 119.686714 291.010040 238.251648 482.469055 91.611153 
/model.12/m.0/cv1/conv/Conv_param_0 150.861725 89.840012 95.229797 112.595642 166.284531 59.374611 134.700821 47.439690 77.759407 148.766937 85.663513 82.727669 103.102211 78.810616 82.779823 95.302567 86.429825 80.194473 159.052887 177.183044 152.840744 75.685783 86.595169 93.943977 209.385040 298.700439 71.052528 167.706009 137.690430 139.499908 64.195229 193.372238 92.762901 123.837082 113.286034 134.569321 60.095314 79.137962 59.807625 96.151421 101.106232 76.298775 73.500755 105.812302 106.367790 127.304474 75.073715 93.244942 55.083332 117.922401 87.340820 66.036797 107.747414 96.110451 84.474396 88.014679 111.188675 105.895828 56.703415 140.303391 104.250366 172.871994 87.081367 136.323349 
/model.12/m.0/cv2/conv/Conv_param_0 92.549438 47.231640 79.397690 51.089394 76.225098 19.469078 68.699081 68.159241 77.931183 51.964855 46.692139 67.780289 98.611786 55.043167 55.623871 69.234612 55.374996 71.219589 68.308273 62.978031 114.188683 58.767475 35.649982 88.744781 20.102810 95.361877 56.947754 78.278831 64.157417 83.758080 20.108963 82.293724 75.154060 85.462128 78.333557 86.476929 57.319435 55.474796 34.783325 35.985882 53.261200 63.646683 86.638519 52.850018 54.722591 71.932671 65.653229 81.272522 73.146172 104.316696 60.861084 82.003143 81.288368 52.785221 70.247147 98.451645 62.912548 77.435310 66.483856 90.834930 56.381348 69.283936 60.168026 37.973827 
/model.12/cv2/conv/Conv_param_0 342.620972 491.123169 472.939606 305.663971 333.596741 296.046600 374.304169 286.702972 315.114960 315.647797 273.306732 437.944092 375.375153 327.758057 401.049042 528.340942 278.031372 619.479919 303.494476 269.165222 306.160492 317.616486 378.535950 479.814697 450.826996 180.096573 269.774872 250.439499 358.065063 261.947113 221.516739 253.270340 345.565033 352.379974 323.676971 396.325836 333.376892 300.789124 369.350647 376.056915 498.544800 607.917908 329.230194 380.667023 358.441437 186.172943 377.068878 305.928802 565.675232 425.500488 251.802917 520.807800 362.944672 334.430847 183.468719 537.408508 360.060211 324.092682 307.338318 800.180969 366.194794 380.877625 512.332397 462.951324 379.205841 464.332947 340.478973 571.101135 294.864136 285.746063 757.738586 275.448608 350.372803 397.126251 385.758026 382.610474 313.064423 316.483337 330.472137 240.209412 294.979858 460.098175 395.634613 390.763824 335.276520 308.477692 272.502594 383.471100 375.215515 312.196411 489.715912 259.252380 284.510925 375.146545 348.925415 192.194611 517.679626 199.380264 431.077820 568.032654 322.837708 454.056732 381.909821 348.055328 427.181122 286.985596 381.187897 367.408051 361.685150 279.499237 223.170563 330.299530 490.074493 363.339783 297.368927 213.691376 255.007126 259.779236 288.809753 296.558350 767.949829 650.398499 195.952438 387.056854 562.707764 488.369965 243.376572 332.177185 
/model.15/cv1/conv/Conv_param_0 238.763794 220.327271 196.060959 258.968079 216.165314 210.318481 177.464081 211.307068 205.587585 163.645508 328.937164 210.836807 234.482407 343.208893 303.917755 466.868774 267.702026 285.508270 418.893341 408.628540 156.649338 185.811096 205.590652 262.742126 320.555511 163.805115 212.680542 351.739471 318.104950 373.212708 490.829590 199.059769 502.374634 495.730957 524.899902 288.633789 199.225327 269.692841 355.032623 335.904419 374.517426 256.644592 377.536072 402.778107 650.811768 180.858566 476.125092 241.350616 269.943237 344.267365 279.078705 288.539825 224.214081 261.326263 624.789429 312.323517 434.478577 239.089996 270.399384 247.052231 134.896896 168.605499 240.313034 255.293686 
/model.15/m.0/cv1/conv/Conv_param_0 68.038589 189.362625 139.515656 70.580963 49.945194 45.082809 79.833130 54.122704 62.321678 99.618126 55.696476 107.122482 60.829090 80.663780 73.822525 56.941200 50.850487 107.215210 36.556767 90.933060 47.944885 55.442390 88.751991 50.955761 50.940342 43.052200 46.346416 57.475254 54.938789 52.164558 62.199150 54.767109 
/model.15/m.0/cv2/conv/Conv_param_0 62.590065 71.213051 29.831793 49.367264 33.091106 44.833454 42.106693 22.097914 39.686054 31.365253 41.995152 29.491259 31.056471 29.219488 23.658237 31.612154 27.060942 27.001179 34.858242 81.102882 34.081573 38.209530 72.464973 35.185013 32.235981 32.967285 33.839550 38.759964 73.533203 36.735508 44.215881 39.324993 
/model.15/cv2/conv/Conv_param_0 258.499298 172.697311 130.589508 347.819946 179.052032 101.685173 152.937866 232.369690 185.963638 245.913895 227.847031 136.343552 223.681320 99.615250 210.463593 137.807526 166.279587 183.589966 207.676682 121.277939 279.403961 158.875504 136.127335 305.720673 250.392960 151.924545 96.922569 234.835632 180.882980 160.944763 183.829636 250.861267 175.600449 489.087311 126.397697 236.894775 252.559036 183.006119 119.190292 138.361313 339.020233 170.277191 214.007843 143.235107 387.149597 193.540482 277.687469 363.115814 142.195892 145.407715 211.689270 213.013916 196.883713 388.825928 219.172653 190.070068 227.232483 119.276840 353.556274 355.991821 330.270691 144.309830 217.017715 244.639236 
/model.16/conv/Conv_param_0 729.378479 363.436676 370.795776 383.939392 420.070343 354.273285 226.800369 410.297882 498.266449 616.760742 656.469360 407.230438 355.614166 388.507416 262.079498 364.549103 490.829346 536.134705 416.132385 595.444519 842.695068 517.328003 277.234741 310.471283 394.055511 473.964294 457.796631 295.472107 517.310852 321.049805 376.731781 494.637085 422.280975 525.276672 731.239563 459.170135 477.336487 403.176239 329.883148 355.394684 602.175049 404.889648 328.539215 475.247253 261.029205 527.604126 259.313477 309.548096 462.514740 341.227417 416.301544 422.936981 499.303833 406.686737 527.829651 433.981232 251.144745 527.106873 316.304688 541.220825 573.171631 568.118347 422.224274 1069.912354 
/model.18/cv1/conv/Conv_param_0 108.579262 246.967010 238.922699 237.099991 128.149048 156.984085 143.743881 316.897858 284.451141 372.536621 339.503540 154.806046 96.371117 235.124466 176.877243 246.412247 283.489685 250.912125 219.970032 227.327469 211.125061 296.480133 230.153442 291.395538 162.287338 188.519318 138.745850 175.113312 123.264854 181.991013 209.228394 165.148163 296.689667 192.500809 182.625885 165.766098 212.484985 121.688705 172.413727 348.378815 207.079941 200.825806 176.901718 166.399582 216.319458 125.796234 327.501068 176.619049 236.705948 192.239716 452.157623 111.923248 199.351776 326.211853 186.256378 162.110962 280.411041 198.718597 195.068024 124.004822 277.796448 192.739670 132.274887 253.720169 169.722855 244.286835 446.366241 346.307983 285.896515 345.788452 360.529694 374.246307 200.806793 315.027649 404.705841 286.585083 225.472748 285.611694 263.300079 271.622467 198.883530 321.611450 263.278503 259.100159 310.959320 364.151764 240.811554 271.229919 183.742188 267.574005 283.288788 276.433685 395.080505 269.249451 228.119598 519.111023 362.917480 439.496613 376.805878 244.495865 208.592941 268.224152 207.282593 400.475677 252.121964 282.950470 349.916016 288.200226 415.105865 259.997253 244.478470 215.046143 265.741974 182.473465 180.617599 271.817230 192.214813 113.062874 212.579865 314.304199 145.091171 205.415314 231.166290 711.291321 283.528656 208.183334 268.467926 168.787949 
/model.18/m.0/cv1/conv/Conv_param_0 54.386089 74.932556 60.594402 79.654305 54.394829 72.249657 59.830807 87.614769 93.209167 82.949257 77.979050 32.101437 64.204613 69.864418 35.766415 103.371788 77.685806 220.290665 72.171326 101.861496 204.901276 80.756935 66.902695 78.223373 60.911423 81.258827 100.529800 32.154648 43.250023 220.774307 95.166298 89.139633 33.825260 80.021095 90.349777 73.738281 46.187984 92.521004 70.304321 97.161377 55.315117 127.529335 59.097374 85.856041 80.714684 62.998566 109.760567 132.142487 59.468880 94.995346 65.387962 87.815681 75.069366 117.925652 71.207527 85.227753 106.488846 96.739090 45.766071 141.027451 39.377132 54.543720 102.458878 74.533424 
/model.18/m.0/cv2/conv/Conv_param_0 104.999657 88.383110 28.974461 29.772430 47.243065 49.925350 34.937794 37.043419 48.473839 34.871445 64.556160 79.221107 52.035995 29.368826 56.896172 29.264290 41.190090 54.582493 127.309196 56.163929 64.873886 60.365311 57.687473 51.113811 48.191612 35.904747 45.191303 71.640877 72.084633 55.818783 60.885345 54.437408 53.686741 110.399933 54.727249 34.116413 84.975555 84.531731 41.725117 48.073048 62.675194 49.285984 58.242775 49.806694 63.576431 74.001884 143.914185 66.894646 128.023666 32.968533 52.901161 36.240437 76.312607 54.777985 42.523335 85.662247 54.173466 146.410950 52.749218 74.865410 64.350319 93.785835 63.088341 46.255440 
/model.18/cv2/conv/Conv_param_0 188.384979 339.152893 205.732849 233.559402 187.231018 260.646088 172.507385 185.414627 364.509552 227.354462 241.198547 374.401855 367.539764 190.306793 342.814117 104.813805 216.939056 139.278748 282.592102 459.225189 188.213013 192.185471 303.471252 340.466644 189.221298 184.615067 254.719864 225.270889 475.942810 319.957733 245.176163 215.147476 189.916153 184.749756 202.175537 345.635712 281.602020 351.621094 155.711014 207.870773 184.587631 157.870224 201.634277 232.223465 200.525360 227.818665 230.396713 139.235565 201.785263 342.168304 369.630890 347.452423 258.349609 126.824852 206.090363 208.116241 117.558556 382.034485 192.098343 195.684448 479.929108 156.916443 157.340317 248.479584 300.195038 262.874939 163.839020 326.047028 191.780060 380.423584 143.963852 158.991058 230.783432 250.926788 173.066223 245.248489 120.127457 218.647552 180.314651 223.926575 298.782837 229.521011 212.331024 252.517838 235.589096 593.488342 253.610062 487.893646 214.907898 312.814911 239.787231 483.285400 296.384064 216.294250 241.378937 208.401138 160.817154 151.067993 143.242294 201.948700 253.918030 283.115479 289.505951 211.276291 345.875458 183.600220 90.984840 250.719193 167.692444 193.599960 100.481316 171.727310 252.415649 180.893082 148.896851 116.043396 223.633057 277.797272 126.836128 226.195038 357.538696 238.832642 272.675140 206.296249 247.247314 196.568207 189.796799 358.767242 
/model.19/conv/Conv_param_0 448.164398 696.480164 516.894653 832.075317 974.465088 631.800903 596.724060 692.779724 498.996124 466.063354 963.570618 685.410400 895.153076 592.635681 791.988403 682.387329 786.634827 672.755981 348.984253 462.791412 613.200684 929.957886 747.587585 539.118591 310.387360 691.867859 489.664185 615.399841 753.325684 635.490967 432.871033 596.817871 426.422668 703.836365 328.539276 1019.266541 417.559937 617.424255 598.823608 434.703430 1107.830322 487.371307 1125.536621 457.736298 676.392700 865.299072 445.398529 1018.646606 580.045898 566.635071 480.831268 1246.479858 433.249390 593.297485 774.827393 568.601685 661.419189 655.563049 485.655182 599.490967 982.011841 673.990662 790.141235 339.465454 413.761505 473.176331 530.908081 534.123596 484.114044 332.124268 411.590546 599.414795 439.631317 508.696808 806.722290 700.501831 547.499695 547.118469 617.008789 338.617004 615.235779 815.153381 378.434814 618.547791 576.515869 532.365112 792.129517 638.848572 662.917419 730.753174 350.200684 348.908539 470.468719 480.348907 738.154602 523.076660 465.003296 392.601410 1154.256714 1017.824402 883.133179 582.223755 683.560242 628.438293 472.758850 476.346802 394.113312 888.549316 677.163086 787.476135 339.282288 392.331177 638.690613 719.949646 573.468628 767.525085 436.376038 705.501770 387.537537 559.717957 459.380951 637.097351 415.213654 725.820190 671.654602 617.470764 439.524811 581.801025 
/model.21/cv1/conv/Conv_param_0 392.221710 310.365112 313.559753 326.945587 201.240875 295.811249 221.650513 162.153091 317.114288 260.225494 343.969940 366.607239 272.897308 208.094131 366.656860 96.120659 322.831116 269.685211 159.561035 357.367188 261.847382 247.126816 93.419006 228.806610 199.947189 257.663116 275.110016 235.907028 315.411774 278.020782 216.295654 116.696991 272.140930 211.725784 383.285095 247.198273 281.729309 324.147705 254.691162 211.302383 142.990982 357.408112 150.965210 237.192642 282.465820 262.267426 233.020279 232.582443 284.372559 343.716339 83.477707 345.448181 226.734619 273.362152 260.578186 163.805420 376.232208 375.268250 198.281998 204.631226 218.825531 200.913696 413.293854 342.067078 243.076660 238.437881 332.487427 291.309418 310.621521 306.778564 457.252075 262.535706 162.186874 257.061798 371.009033 250.224564 324.902893 207.945084 394.278687 177.237762 100.100136 593.420288 380.972992 214.087585 264.571930 190.657272 324.565735 203.477112 227.908875 338.458344 250.134705 420.106445 414.530609 97.803429 242.521484 166.944244 265.703064 312.064148 291.252808 328.194611 586.209900 198.242844 185.959641 264.974701 331.238739 171.177521 280.677765 274.452972 127.397552 113.150414 382.524780 271.514130 221.771210 152.047760 270.211182 282.066071 442.535309 395.578827 350.462250 357.659027 325.670197 253.804733 541.321960 286.376434 360.109009 303.520386 265.868683 334.182770 260.595367 191.027054 318.473022 315.154266 244.739853 401.420074 238.523773 279.833466 203.890625 346.460419 226.320053 153.647125 268.424103 164.742599 189.371429 299.349182 181.764664 203.863770 294.663483 275.185455 123.364098 391.672668 242.927094 226.014496 373.996521 302.375183 310.146118 298.584656 243.528793 269.419067 263.011566 275.231659 250.799896 152.876648 273.214142 212.590790 261.923462 349.821899 213.060928 255.123093 226.820938 363.970398 241.754837 200.841171 161.891998 166.058365 312.638550 289.905548 294.487671 332.072876 270.665405 248.705490 185.849457 165.616852 299.163300 396.923828 206.581039 297.808258 306.710266 335.417297 258.973755 243.926819 315.066071 324.834808 316.261658 191.890244 441.249542 417.859070 288.910217 221.812103 229.502441 203.842377 221.726654 323.490936 294.537048 549.418762 228.995865 247.375229 287.796783 251.301071 284.467041 312.472412 484.944550 230.652481 334.645447 178.964157 164.183502 416.769745 299.351807 292.614380 319.769958 165.789017 201.605484 369.578003 211.534119 247.236618 369.670685 238.826553 343.230225 326.667023 244.347351 352.165070 195.141861 291.539978 392.674072 293.927490 201.251297 260.221771 428.179382 198.549652 208.328705 237.557983 151.848007 257.806152 233.468460 486.409729 324.966156 418.608276 174.132156 158.491425 505.600983 214.451538 416.124268 435.634766 136.138412 123.317215 278.264648 252.350479 
/model.21/m.0/cv1/conv/Conv_param_0 89.894547 77.731949 137.716690 118.778351 52.477486 76.080734 62.628208 129.005295 84.547394 71.923218 137.230774 111.094788 85.367126 74.474831 210.707901 45.763283 97.355392 103.210999 83.106552 111.504181 114.955399 89.418243 42.429615 57.518211 115.354431 92.590919 68.956787 92.692833 76.603073 68.903152 66.033936 68.193611 95.713005 81.431099 65.053551 71.473175 103.922546 68.364853 44.243637 132.216599 82.499474 93.795914 102.009949 81.093758 54.568798 71.458252 148.336624 59.350899 62.216633 86.154686 68.737511 84.384140 135.672974 46.381790 160.531067 53.787472 159.239105 81.167847 87.476463 154.602661 119.253204 87.974380 54.934761 118.325111 105.448486 59.492481 81.150070 49.179874 99.915688 126.290306 97.485397 47.669811 58.134991 75.668518 40.238625 71.344681 151.876526 67.567734 66.138390 201.321121 87.844269 98.893044 88.938728 98.250000 85.141396 72.317017 86.726196 104.771797 65.221436 112.782455 56.748047 54.308449 66.309868 56.165855 87.365410 103.798943 110.612328 90.225655 153.289871 81.891876 55.121513 130.406937 95.890846 63.242496 72.877548 57.584118 113.854095 63.776447 137.614014 65.618912 89.553711 138.823853 99.892052 72.658073 79.039604 61.711876 97.743416 66.223450 80.030197 70.930244 123.822594 108.611176 82.616837 136.723679 57.044476 136.977859 195.841248 115.732925 
/model.21/m.0/cv2/conv/Conv_param_0 65.610519 68.599350 94.433708 71.093750 51.560104 71.143150 46.379837 57.876057 35.013443 79.347404 33.669853 57.948410 57.214321 45.782860 33.084503 54.136642 71.957542 39.068604 96.947388 60.007484 100.875870 46.161339 62.828098 87.717506 91.711433 45.456219 70.927116 49.338661 79.980820 69.284668 29.645077 33.384296 69.591484 47.918388 104.273376 66.109970 101.741623 79.830849 49.494415 78.571243 97.621422 126.121010 28.123747 62.359192 29.866444 70.288414 54.399426 82.100983 43.680054 70.343323 52.383228 56.204769 55.565964 41.723862 41.737938 49.212173 39.306068 47.156090 63.792294 41.972263 88.731346 87.448334 54.474590 61.327110 47.378342 88.653877 43.875378 119.162849 69.861259 55.328793 66.711899 84.670746 85.220093 57.707890 53.603275 67.835480 51.031593 48.523293 82.973076 41.468719 83.871712 49.281136 33.865311 199.293961 60.539188 52.903652 46.203735 73.097198 46.883564 48.031971 52.541096 66.882294 86.312889 49.825741 80.542259 79.637787 59.275455 54.934853 59.112545 55.907547 100.790031 121.939278 59.461712 97.764938 45.788620 55.303967 53.876720 70.966461 61.664810 71.588158 52.562756 47.757732 66.317619 45.819229 125.269539 52.342468 69.347649 87.797462 36.845562 73.917992 85.948761 50.500751 76.482025 62.325733 70.301598 67.092667 81.530212 60.427837 
/model.21/cv2/conv/Conv_param_0 464.992218 166.432541 233.595825 316.799225 308.649353 637.445251 188.524109 338.501678 501.475006 147.072174 252.369675 341.274231 117.169472 160.140778 497.150238 262.523682 372.281128 287.797943 475.954437 184.002609 316.149078 354.420288 142.919556 425.785065 242.337143 212.286514 266.611176 206.312042 422.474243 455.280518 212.410233 229.000839 253.986649 426.018860 222.418198 348.565247 136.866028 238.866379 276.496063 189.840820 258.088654 193.832184 258.519684 172.420837 49.459877 209.051239 504.287506 228.647064 180.331909 162.214951 251.085693 295.393188 336.442413 343.721497 188.732834 343.410980 444.081085 454.231354 298.378052 237.404541 510.309692 176.903000 177.558701 248.730957 186.447327 365.846680 202.939514 285.207916 189.256912 202.074982 340.176636 295.673737 241.414307 313.686371 256.330261 74.690994 218.086258 174.340164 378.147217 265.436096 122.449356 231.003662 215.215393 368.075775 157.676102 146.343933 201.105865 264.474091 427.223389 221.718445 281.337891 249.335342 153.257980 308.318573 387.247192 440.747986 363.937653 145.543304 247.066162 355.305389 360.526245 124.052460 412.447662 264.273621 157.718857 406.401001 272.441101 171.421738 131.600159 294.309753 416.485413 189.354568 322.546936 386.495148 283.484344 290.892548 164.064590 478.917145 450.613892 593.612915 182.633621 155.603470 265.950867 169.080719 299.478638 249.624451 116.088440 426.001129 409.220673 320.863129 178.587982 254.311966 163.217392 709.702148 569.425232 216.822586 194.637146 328.681183 285.964020 163.006775 179.114944 403.937805 150.054657 449.488068 198.086060 429.842560 377.719635 340.780243 207.314209 178.697845 175.456284 111.848091 238.856033 179.615158 438.098969 176.135986 143.398773 258.622528 339.648804 484.873047 381.591614 313.801270 164.428497 424.882660 395.124786 437.364502 119.526848 120.167145 367.352051 431.507385 392.945160 273.641937 235.740036 224.732727 195.944412 326.161011 150.666000 428.151581 700.040161 426.102844 185.442642 198.944824 179.206924 297.062225 174.112000 326.757965 221.419556 311.458466 722.769592 190.839798 113.530785 274.595703 166.411789 315.894867 132.412979 290.379272 266.810913 178.880646 116.851471 267.805450 519.332886 327.626190 319.100220 393.037781 579.595276 284.233643 284.612183 217.627884 441.535095 317.363403 374.483948 276.552216 142.185928 164.743149 207.162689 274.195923 288.845398 140.577866 199.131454 576.689514 340.965332 201.640778 468.072540 241.494751 399.912781 349.109650 206.785324 164.815292 248.281479 256.720215 287.391327 120.885246 247.932846 142.343857 184.194107 422.861450 149.154755 154.507355 169.281357 276.239441 421.761658 114.747673 160.549484 147.308029 248.494308 211.681015 397.109894 93.467400 291.931763 174.912674 353.861572 331.894592 233.145798 386.888123 389.705688 244.167084 
/model.22/cv2.0/cv2.0.0/conv/Conv_param_0 98.271835 74.625198 113.221336 90.159866 46.071873 113.771172 49.702770 78.465492 126.323219 69.391296 123.451866 85.302216 88.425659 57.080650 79.768585 84.058052 60.177002 173.922653 92.475494 36.488106 76.352943 77.655602 56.704967 82.643906 51.573112 97.654739 40.483795 89.296730 101.687515 87.099251 53.459045 55.521660 90.733322 83.437698 165.888428 62.628891 84.654938 63.441792 57.319202 56.326401 86.439255 61.347797 76.432716 97.494102 72.298363 63.497810 36.081539 106.735596 100.504143 63.954872 86.192261 40.435043 81.648720 74.815887 38.162220 51.450813 94.877274 95.384743 66.766190 107.169701 35.079796 48.297249 103.332245 123.757225 
/model.22/cv2.0/cv2.0.1/conv/Conv_param_0 9.757015 35.572517 34.358955 27.216246 33.018963 24.422924 20.648823 24.857744 20.616175 23.447342 37.157215 19.629467 20.898855 39.190002 21.206842 29.809416 13.676334 34.021603 28.230680 14.934702 29.457865 18.359621 22.897085 26.346130 15.388234 11.002881 24.647894 18.368170 35.715260 9.739659 19.448805 13.757056 23.429928 21.480780 39.404308 21.877884 25.002579 20.726734 20.706505 16.011774 14.858907 32.190159 19.089733 36.862896 26.329952 7.485099 26.703709 30.529606 30.827412 23.094528 25.015278 19.203695 23.420948 22.522572 30.384001 19.144356 41.257702 28.220404 32.254833 18.131765 23.392673 20.137850 25.074278 20.464251 
/model.22/cv2.0/cv2.0.2/Conv_param_0 777.566528 881.681335 898.431763 979.645935 947.526428 1277.328369 1463.268677 1705.547485 1506.711060 1606.770630 1806.222168 2098.606201 2187.979004 2280.293701 2503.932617 1793.765503 880.934814 933.917419 930.576050 883.178284 915.830994 870.614197 950.990845 982.421143 984.280029 912.617554 1264.904541 1054.621338 1115.095337 1215.401855 1180.912598 807.751526 621.495789 844.467529 776.985840 899.986145 956.235291 1371.633545 1432.049561 1573.954590 1896.780273 1830.051025 1748.544556 1764.858398 1900.244751 2140.707764 2376.662598 1687.565308 738.384644 834.309570 945.803650 821.788330 843.782654 764.988220 1016.496338 1381.652100 1025.008911 1723.917114 1468.431885 1795.313232 1449.002808 1254.230225 1162.440186 960.650024 
/model.22/cv3.0/cv3.0.0/conv/Conv_param_0 115.847115 166.646103 165.629852 92.493225 108.517303 94.730240 62.310406 111.333420 112.514351 76.837563 75.946304 92.798828 89.367813 106.816391 103.852516 99.343040 102.714508 78.046089 88.973854 92.872421 42.367317 105.381256 104.904099 97.971451 115.888054 95.271507 178.960236 170.221588 54.883167 107.448250 93.661079 67.310883 63.016720 141.417648 67.281013 89.085320 91.868172 239.070587 92.242996 96.706726 80.926788 69.613930 80.524971 57.441509 129.045914 79.896019 71.950050 103.591568 77.315674 143.507599 56.631336 60.109497 108.008217 89.232559 42.916286 153.379700 81.732254 302.604919 105.813896 141.414612 92.057701 80.409485 117.404869 79.550941 
/model.22/cv3.0/cv3.0.1/conv/Conv_param_0 17.889009 88.864479 91.245560 29.965967 44.569679 60.112068 76.057381 87.856377 54.512867 68.318497 115.428963 51.746063 72.361488 74.502586 49.919140 63.305004 51.838844 39.638214 91.963394 31.660484 41.051083 75.932663 107.994110 68.437233 66.619003 67.609695 10.413318 71.650421 27.591637 85.966682 58.316002 44.490833 91.237518 34.887566 66.294762 48.071861 27.728443 53.464024 158.079300 28.248680 77.023987 65.052261 90.145676 102.991127 55.750519 58.389641 76.107803 58.003780 78.268112 55.981873 59.771679 57.073864 83.486473 117.216797 55.706673 97.404869 54.583565 99.947372 84.743507 132.395004 93.282646 74.734848 68.835121 282.047241 
/model.22/cv3.0/cv3.0.2/Conv_param_0 385.613037 
/model.22/cv4.0/cv4.0.0/conv/Conv_param_0 152.537964 46.115852 66.179581 28.395098 50.657375 64.566437 96.150887 109.815536 59.521889 93.605476 81.814598 131.683914 94.216507 50.327763 137.876831 78.235748 47.798374 95.203827 31.118044 47.175777 52.333672 57.486221 58.456181 114.164902 77.323181 62.036949 43.534451 102.965263 74.228104 49.020061 22.888216 55.812870 73.087860 18.216072 29.009222 52.584343 25.877909 101.256569 149.252945 79.432274 125.890732 68.325172 116.077972 56.938339 74.675179 40.207767 48.246067 105.911095 73.915390 91.569740 65.521027 
/model.22/cv4.0/cv4.0.1/conv/Conv_param_0 160.336090 69.976677 98.169777 47.375786 44.684761 69.889008 163.146591 96.201988 56.930099 183.468246 154.058594 131.548508 185.891296 75.227448 114.347557 89.179253 70.171021 158.873138 222.223022 109.553513 24.578667 113.747620 95.030769 193.716797 210.893967 75.585594 154.463455 129.787750 74.112648 129.111816 282.121368 202.216019 65.223526 275.235107 121.043159 319.420013 115.509392 117.175972 170.901764 128.052597 124.131264 43.890907 86.777718 62.316734 78.479576 80.328384 338.259247 179.726044 363.331238 200.896896 145.625702 
/model.22/cv4.0/cv4.0.2/Conv_param_0 909.426575 640.236328 396.790222 966.899658 626.737366 406.717743 1006.174072 632.068054 408.955963 1291.600220 686.269104 485.706818 1389.030762 704.389954 486.160736 845.840637 774.671631 573.846680 841.054138 792.975586 571.953796 684.913757 655.153625 637.490173 710.159729 663.933655 643.006165 520.452209 573.214355 745.260742 535.452393 583.174866 709.191528 1097.451416 537.666138 503.087036 1016.496338 542.714661 498.268188 884.680298 564.199585 475.061188 988.958191 565.733521 469.064026 753.355530 365.303375 384.757385 776.405945 363.770630 384.473022 
/model.22/cv2.1/cv2.1.0/conv/Conv_param_0 102.023293 152.611053 67.966957 119.465782 114.793869 71.911545 63.364582 71.435356 48.556347 135.182083 93.885750 55.966377 54.134209 91.740341 62.895000 119.600700 60.278744 96.881546 90.606850 74.298790 41.949589 45.699558 158.178772 33.143841 48.315205 67.612793 92.328362 73.066429 59.799946 62.330639 87.201378 41.175507 71.831360 240.577316 48.020668 75.553459 40.534153 105.121758 48.822247 96.706146 55.721012 91.180496 65.699783 80.123314 48.096828 65.798676 66.911179 84.061195 72.601685 29.452517 47.643707 87.654396 112.714943 301.287598 34.969872 71.698158 102.442299 66.940681 108.670578 45.473190 141.768906 65.710220 85.085342 142.086853 
/model.22/cv2.1/cv2.1.1/conv/Conv_param_0 29.195595 22.113285 28.926395 22.522924 45.684231 21.533579 26.409227 11.815054 30.075876 19.609388 35.368912 18.154713 7.033741 12.215005 36.396328 21.334806 23.567560 23.001337 28.552883 25.125166 16.959993 34.465927 15.553464 20.484335 21.722189 41.346416 36.803848 29.093729 17.228382 29.909155 13.158789 29.343914 27.882238 38.093952 24.302858 27.023754 22.057562 42.687374 26.505375 52.450855 19.406193 15.366943 36.515152 29.473692 13.079759 24.878725 21.314285 20.453041 36.772915 15.077571 30.672007 19.078947 13.260651 10.499218 30.267492 33.557068 25.466715 27.433802 27.052380 12.309021 36.008503 36.714264 24.769575 45.640499 
/model.22/cv2.1/cv2.1.2/Conv_param_0 492.606049 541.866638 672.517151 613.433960 907.839417 788.169678 1255.744141 1078.118164 1148.326660 1390.887695 1750.015137 1698.586182 1841.387573 2234.981689 2889.955566 1883.047974 669.057251 728.560242 762.744873 812.165466 781.069092 687.175720 615.611816 663.510193 738.384644 723.493713 848.600342 1051.423950 886.187378 1008.124023 1033.665161 656.808105 559.948303 604.171875 671.648804 670.350525 700.595276 862.673279 1012.046692 1438.982056 1378.905273 1375.259766 1484.142700 1770.866333 2193.745850 2887.949951 4044.252686 2686.595215 610.554016 667.768921 746.329956 772.945007 712.104065 727.541260 651.461487 751.179810 766.679443 867.709778 835.649780 779.313843 1056.227417 1034.178955 859.821472 771.798218 
/model.22/cv3.1/cv3.1.0/conv/Conv_param_0 199.972137 88.999130 198.864212 423.858734 112.829590 161.097733 148.211807 175.475357 247.503403 144.226242 221.408569 57.248199 108.546257 108.721870 191.921036 113.703438 107.709984 123.066711 124.899300 64.827309 48.148991 128.518341 84.432518 127.272278 224.580887 198.237259 69.969246 172.884232 64.224152 144.834000 151.673050 364.092896 169.227722 246.207870 138.613129 149.367294 68.940147 121.812759 96.301346 163.102844 196.110931 103.318550 143.117920 122.686974 155.447037 150.140503 120.965767 124.776306 88.587570 140.620499 212.783005 107.316216 67.309364 113.198433 118.485374 90.580048 193.823380 125.014809 126.626266 161.087051 217.761536 98.591148 232.311081 47.787121 
/model.22/cv3.1/cv3.1.1/conv/Conv_param_0 19.481543 28.345345 58.158100 58.382877 199.180786 51.640358 26.780439 56.826180 31.288111 44.114922 44.441635 249.145447 61.406384 39.361355 5.588461 47.583187 27.747141 15.648191 35.695232 56.242714 52.977184 75.667343 61.040550 71.996483 50.458904 65.277290 37.480782 98.237213 53.480808 96.891838 27.876455 38.881573 52.187214 35.495029 25.795376 74.528236 23.397383 36.456158 30.921305 46.817677 54.786095 88.723877 24.784128 46.132816 58.098110 344.839539 96.742867 109.873848 67.701851 57.471382 38.511482 115.244919 30.436520 19.712057 5.873013 61.745911 75.426498 123.826820 78.686539 174.508514 24.941355 31.841825 14.793309 43.932137 
/model.22/cv3.1/cv3.1.2/Conv_param_0 268.833069 
/model.22/cv4.1/cv4.1.0/conv/Conv_param_0 72.252197 135.709213 202.224258 51.256100 76.972809 255.788879 73.503868 133.862488 106.578987 218.626480 144.821152 187.827774 100.692642 90.962540 67.753624 95.901672 148.664581 306.837891 22.006065 121.036819 120.099869 107.499977 106.432861 122.585678 68.613312 76.285568 268.608063 78.415558 48.060844 230.201508 71.911491 212.272247 106.475967 293.850891 94.949646 47.335289 120.985916 77.096138 67.296432 121.528580 123.064362 112.825897 31.269554 165.036728 221.263809 343.596893 99.743851 88.364830 243.156464 84.059708 197.200089 
/model.22/cv4.1/cv4.1.1/conv/Conv_param_0 240.846558 129.667816 72.567986 91.823082 43.149250 55.714279 108.702469 134.278503 77.063835 111.874306 212.219742 68.396461 290.608429 44.447735 124.075630 99.877037 116.176819 203.876007 91.493042 175.111359 146.059814 80.629723 192.179291 311.788879 115.293610 93.457619 83.303940 82.798866 215.702652 246.702576 120.248260 123.921188 173.837311 237.079849 130.244736 68.658875 101.634804 41.888954 120.379349 279.036102 74.392242 103.043976 185.226517 113.090378 67.108330 125.598274 218.214523 285.065369 97.629173 65.307770 62.506599 
/model.22/cv4.1/cv4.1.2/Conv_param_0 576.390015 293.727844 218.384552 595.867126 291.750977 225.973938 567.895203 291.260925 220.233704 684.913757 334.959442 264.325195 630.535767 334.528625 306.355713 687.629883 545.274658 398.004578 698.713257 529.188171 389.656921 551.927856 509.492645 539.618286 462.392883 523.331970 386.185608 371.831299 294.559448 543.565308 431.694611 292.078613 395.282684 582.521851 521.757263 374.238861 524.651550 521.495728 359.994476 614.884155 429.201324 339.108215 573.530334 423.264435 333.242798 384.189056 267.176178 204.477982 363.262573 265.268738 203.677368 
/model.22/cv2.2/cv2.2.0/conv/Conv_param_0 93.912842 118.118896 98.275528 56.910622 87.916733 129.739746 56.472530 173.984283 105.273239 137.490723 79.839188 95.328751 103.924995 259.512360 187.329514 75.644241 85.877480 146.938385 40.940590 163.375519 120.837463 164.998489 136.029175 105.407387 54.920013 74.184593 89.788437 176.532944 143.370743 101.391197 113.976952 47.553921 75.617973 171.220947 113.144463 59.953342 48.986050 141.990601 156.889420 141.633881 189.928207 91.064339 164.673737 78.240593 129.502060 126.492546 166.903519 58.197544 127.706902 39.921158 84.263626 122.071777 83.388626 118.562637 106.093483 110.492943 100.518700 115.241051 161.279984 75.730217 130.369080 148.177704 75.652267 78.550087 
/model.22/cv2.2/cv2.2.1/conv/Conv_param_0 31.174660 24.187580 42.663929 23.223047 32.383739 26.407963 42.442825 46.840481 33.290154 30.653536 33.458958 33.470901 48.354706 39.726177 50.870045 41.179607 39.839603 25.196487 36.088230 25.213190 30.670477 28.264023 38.345612 29.091080 33.400414 50.543751 28.052198 45.587181 40.687023 40.675915 43.894779 29.476099 27.192225 41.203163 31.987072 15.249714 36.794029 30.049025 23.818491 38.790314 27.829031 38.301014 28.494200 17.316679 66.121094 21.620352 37.042297 34.150063 39.392002 22.590965 26.525892 26.857840 57.534912 38.791466 26.284403 30.615294 31.453222 28.876200 33.781677 32.572361 23.265364 23.717361 38.821930 36.840538 
/model.22/cv2.2/cv2.2.2/Conv_param_0 485.706818 508.994141 566.349487 632.452271 687.629883 559.045654 807.124878 709.191528 655.153625 872.073792 856.988464 749.556213 1380.735229 2208.883301 5443.474121 6772.230957 582.848206 580.895569 634.380493 609.124146 661.401123 754.995667 712.104065 818.555481 805.250793 826.357422 874.272278 875.744080 909.426575 987.081604 984.280029 1245.223267 449.993073 519.412903 562.065918 614.520996 711.616943 834.309570 571.012085 851.378052 856.988464 1247.462891 999.408264 863.389221 1337.254517 2531.347900 6941.678223 6548.443848 550.467712 531.079102 614.158203 603.471008 703.913391 724.501404 503.574066 823.088623 635.155090 691.285034 745.260742 702.487488 1135.790405 2469.754395 6994.178223 7411.461914 
/model.22/cv3.2/cv3.2.0/conv/Conv_param_0 280.235321 49.109859 50.915989 54.906113 382.654816 345.556488 183.574585 126.885551 99.772713 250.796326 31.520397 266.208405 178.457108 192.574234 122.136879 121.423454 479.159668 212.798111 187.441269 91.820328 316.110809 159.070007 152.637100 244.199326 68.454956 130.332703 153.288040 169.519638 53.676685 196.216583 173.410385 54.017586 400.145874 39.662682 113.628120 245.929108 153.554016 290.902954 258.684296 97.144615 43.661205 304.936066 164.928558 212.584747 442.273895 176.333832 195.907639 68.315445 170.209442 128.543457 168.760956 129.059875 59.733971 55.604542 516.516907 182.365417 73.201279 531.853577 220.703247 186.576706 80.904160 134.886658 414.107544 207.792435 
/model.22/cv3.2/cv3.2.1/conv/Conv_param_0 195.080109 184.513504 39.050869 301.479523 18.368717 140.624451 26.028419 27.750051 35.813557 181.453415 41.337219 25.398407 72.865852 19.862528 26.744656 349.406982 50.426506 52.183884 40.566414 103.664619 58.946587 59.199654 37.876377 97.600548 64.014374 77.158615 25.714117 32.089252 56.176800 56.577972 57.968967 30.997036 80.474617 69.973808 28.613016 57.189987 11.584497 35.663837 291.467499 163.896347 54.792934 65.500412 88.031563 30.563007 32.413300 6.109828 115.843521 50.963890 116.403114 51.295181 64.162743 33.159641 64.314926 42.349274 72.197342 231.401566 45.571316 66.750412 345.124054 6.820914 39.791374 84.032707 20.679644 52.047916 
/model.22/cv3.2/cv3.2.2/Conv_param_0 206.098251 
/model.22/cv4.2/cv4.2.0/conv/Conv_param_0 262.879791 556.084595 288.030823 273.742767 156.112137 252.270157 438.269867 309.306244 423.243042 178.521454 200.614059 110.494850 375.887299 110.370544 189.690826 553.484680 114.986626 204.974930 134.462067 184.328888 348.311768 172.433426 88.161926 691.555420 446.267548 359.210052 406.045776 371.906342 85.771606 224.088486 58.460693 131.294266 680.206116 107.996826 353.420837 277.401459 316.236206 216.492615 266.318634 103.195770 99.356003 319.824677 289.981476 349.432068 413.822632 161.664810 162.062164 276.881165 453.465393 323.245361 266.010254 
/model.22/cv4.2/cv4.2.1/conv/Conv_param_0 98.119057 220.278183 90.174858 146.011322 156.833130 184.112137 239.340897 122.158592 114.370483 202.988708 122.591370 58.037388 202.162811 179.317368 89.823524 138.049774 64.892296 329.664886 57.892162 67.856010 100.705887 109.300774 191.032883 85.176262 69.756844 119.363190 101.413704 100.624710 92.095917 293.189697 335.044647 92.175858 128.005173 144.175339 82.170097 69.739098 132.921417 211.856491 425.993835 175.405243 91.505524 126.768990 259.594849 166.932190 113.075264 133.836166 159.858856 150.783081 147.892868 100.921303 143.975388 
/model.22/cv4.2/cv4.2.2/Conv_param_0 389.365265 312.991577 181.504532 382.494110 307.623901 175.148819 393.786530 306.175385 171.341232 416.820526 320.118164 209.417068 415.157227 314.695709 200.846329 499.704132 363.262573 284.257935 500.666016 367.626862 285.192993 250.815811 274.797668 275.671448 250.092300 270.370056 266.765137 234.320724 209.080383 281.946869 213.193436 210.945663 281.184875 355.079865 431.336639 324.309235 370.507111 428.141571 290.447784 373.969818 311.492218 265.675171 357.766174 306.536255 267.176178 251.300476 251.057922 274.797668 215.489639 246.070007 273.210083 
/model.0/conv/Conv 127.404358 
/model.1/conv/Conv 3.424909 
/model.2/cv1/conv/Conv 3.125852 
/model.2/m.0/cv1/conv/Conv 10.479670 
/model.2/m.0/cv2/conv/Conv 17.673996 
/model.2/cv2/conv/Conv 10.359960 
/model.3/conv/Conv 28.368124 
/model.4/cv1/conv/Conv 49.653336 
/model.4/m.0/cv1/conv/Conv 31.983597 
/model.4/m.0/cv2/conv/Conv 52.835007 
/model.4/m.1/cv1/conv/Conv 23.213171 
/model.4/m.1/cv2/conv/Conv 113.169785 
/model.4/cv2/conv/Conv 20.815573 
/model.5/conv/Conv 56.531746 
/model.6/cv1/conv/Conv 53.056129 
/model.6/m.0/cv1/conv/Conv 46.071682 
/model.6/m.0/cv2/conv/Conv 48.967056 
/model.6/m.1/cv1/conv/Conv 21.383543 
/model.6/m.1/cv2/conv/Conv 67.172226 
/model.6/cv2/conv/Conv 20.858402 
/model.7/conv/Conv 67.698456 
/model.8/cv1/conv/Conv 53.103214 
/model.8/m.0/cv1/conv/Conv 56.916401 
/model.8/m.0/cv2/conv/Conv 41.763077 
/model.8/cv2/conv/Conv 24.697241 
/model.9/cv1/conv/Conv 31.430599 
/model.9/cv2/conv/Conv 14.182962 
/model.12/cv1/conv/Conv 67.698456 
/model.12/m.0/cv1/conv/Conv 41.859276 
/model.12/m.0/cv2/conv/Conv 63.439892 
/model.12/cv2/conv/Conv 34.938797 
/model.15/cv1/conv/Conv 52.529629 
/model.15/m.0/cv1/conv/Conv 42.185165 
/model.15/m.0/cv2/conv/Conv 78.083290 
/model.15/cv2/conv/Conv 38.831928 
/model.16/conv/Conv 42.081417 
/model.18/cv1/conv/Conv 42.170845 
/model.18/m.0/cv1/conv/Conv 45.782097 
/model.18/m.0/cv2/conv/Conv 49.614506 
/model.18/cv2/conv/Conv 31.466103 
/model.19/conv/Conv 35.135509 
/model.21/cv1/conv/Conv 49.620502 
/model.21/m.0/cv1/conv/Conv 38.633175 
/model.21/m.0/cv2/conv/Conv 46.140648 
/model.21/cv2/conv/Conv 31.741396 
/model.22/cv2.0/cv2.0.0/conv/Conv 42.081417 
/model.22/cv2.0/cv2.0.1/conv/Conv 49.241604 
/model.22/cv2.0/cv2.0.2/Conv 10.411209 
/model.22/cv3.0/cv3.0.0/conv/Conv 42.081417 
/model.22/cv3.0/cv3.0.1/conv/Conv 56.716457 
/model.22/cv3.0/cv3.0.2/Conv 24.644684 
/model.22/cv4.0/cv4.0.0/conv/Conv 42.081417 
/model.22/cv4.0/cv4.0.1/conv/Conv 24.443619 
/model.22/cv4.0/cv4.0.2/Conv 17.577311 
/model.22/cv2.1/cv2.1.0/conv/Conv 35.135509 
/model.22/cv2.1/cv2.1.1/conv/Conv 38.900684 
/model.22/cv2.1/cv2.1.2/Conv 10.247036 
/model.22/cv3.1/cv3.1.0/conv/Conv 35.135509 
/model.22/cv3.1/cv3.1.1/conv/Conv 56.795776 
/model.22/cv3.1/cv3.1.2/Conv 13.142201 
/model.22/cv4.1/cv4.1.0/conv/Conv 35.135509 
/model.22/cv4.1/cv4.1.1/conv/Conv 20.940649 
/model.22/cv4.1/cv4.1.2/Conv 17.503366 
/model.22/cv2.2/cv2.2.0/conv/Conv 27.946007 
/model.22/cv2.2/cv2.2.1/conv/Conv 31.684566 
/model.22/cv2.2/cv2.2.2/Conv 6.656165 
/model.22/cv3.2/cv3.2.0/conv/Conv 27.946007 
/model.22/cv3.2/cv3.2.1/conv/Conv 42.285313 
/model.22/cv3.2/cv3.2.2/Conv 17.610168 
/model.22/cv4.2/cv4.2.0/conv/Conv 27.946007 
/model.22/cv4.2/cv4.2.1/conv/Conv 21.055628 
/model.22/cv4.2/cv4.2.2/Conv 17.526781 
