/model.0/conv/Conv_param_0 21.281919 7.309192 37.373219 18.569311 25.588737 49.583969 10.567836 11.044814 7.472368 34.152702 59.889950 15.897475 8.242335 30.863493 28.903318 18.617733 
/model.1/conv/Conv_param_0 44.366650 133.532104 49.084194 107.862885 206.422592 173.100677 114.135895 132.407547 358.101410 196.860306 236.792969 217.351959 249.866837 251.183914 267.310211 119.568520 144.158508 122.371590 53.024021 142.842392 118.768394 271.076080 50.924824 149.106140 141.039688 112.914528 232.644241 143.401947 225.564819 125.445267 140.497543 126.179756 
/model.2/cv1/conv/Conv_param_0 367.609314 444.312805 137.132233 149.611603 213.566605 165.394424 186.150208 320.779480 284.163696 203.324112 290.116577 379.452881 90.881516 288.441833 387.172028 175.703964 430.944946 410.838104 623.127014 815.484985 385.747131 470.473633 552.437500 436.575653 564.718933 306.582092 202.270050 803.374329 235.234177 197.971497 286.581543 142.450302 
/model.2/m.0/cv1/conv/Conv_param_0 21.125933 57.933384 25.614250 22.785778 22.895971 30.629303 25.436686 23.583429 24.384764 26.277460 60.807953 30.980553 16.549526 35.547253 17.642405 36.208111 
/model.2/m.0/cv2/conv/Conv_param_0 37.711258 24.122322 65.088608 47.377575 53.205536 45.455376 45.085453 39.659863 41.621544 47.271862 59.304432 45.247158 60.751102 40.524029 66.962212 39.549671 
/model.2/cv2/conv/Conv_param_0 519.004272 537.260742 309.697174 550.365234 642.589722 298.618988 579.915649 177.621887 261.165192 334.968567 271.331970 441.316040 442.523743 491.024017 414.227356 222.803589 526.790283 724.330078 388.776215 655.116516 256.059387 246.106369 380.809875 772.508362 232.911407 367.113831 363.355560 347.436066 406.028473 523.839905 199.645767 249.027390 
/model.3/conv/Conv_param_0 347.258331 420.028992 537.987854 2077.724854 924.632874 599.935608 1653.859741 503.464050 684.847717 821.048706 464.244568 365.116333 393.872589 520.372620 529.268982 779.929932 617.540771 1622.021118 1111.886963 1246.363892 571.611816 1016.832825 863.209351 739.537903 709.593262 1204.216064 618.398560 516.597839 1263.881836 511.158447 968.851624 793.369995 391.277130 266.341003 814.480164 1090.444580 854.861450 1191.584839 386.060150 482.604736 505.655334 1123.689087 478.488068 814.775513 418.344238 561.377808 468.853577 597.970154 705.846313 345.421844 715.268005 480.268829 740.918640 1304.835205 1172.310791 371.586487 2017.514771 775.911316 1240.879517 427.784912 630.768555 571.794861 836.328369 531.458496 
/model.4/cv1/conv/Conv_param_0 179.904419 186.991013 132.235718 403.879211 150.605392 162.303696 98.381630 101.453026 123.402794 315.188385 121.955620 143.393478 80.434418 96.376785 147.994354 132.485168 164.317337 63.047756 274.902954 176.151733 107.669273 144.860458 147.419922 267.806702 137.793228 297.141174 68.189690 159.975983 255.656891 171.787979 172.504883 129.438385 245.334198 348.776642 486.199799 274.311462 490.523865 599.610718 369.457611 396.435913 125.149864 240.049850 610.333984 550.003540 319.845093 578.154358 492.986847 527.990417 341.807068 370.075104 581.755554 436.559479 383.645721 337.949310 392.013733 530.920471 514.331482 543.482727 512.003479 342.248169 574.039673 202.977066 280.864746 236.789459 
/model.4/m.0/cv1/conv/Conv_param_0 61.905693 35.972992 27.950390 34.210854 39.509571 31.551321 48.979153 19.788410 69.279732 52.100979 37.854244 63.202751 29.184395 39.145771 28.025404 105.211472 33.693718 49.284943 40.625835 30.072947 39.221828 63.247093 34.615959 44.021271 56.496208 29.279697 51.484486 51.747940 42.580265 36.573505 53.114632 41.199467 
/model.4/m.0/cv2/conv/Conv_param_0 86.372520 135.582047 126.986595 42.052250 128.942154 49.346233 104.728729 46.775505 102.936394 159.853073 73.895103 117.912460 100.644379 163.017807 82.787483 95.129883 73.452408 58.779816 144.902084 97.148247 75.901031 27.301050 102.792313 49.314404 86.825455 27.686878 134.492279 86.478638 32.911453 92.091141 34.331932 37.769054 
/model.4/m.1/cv1/conv/Conv_param_0 435.578613 109.616570 99.351997 52.773800 123.042702 98.611839 145.515182 88.973503 70.049858 118.349396 93.796768 109.926704 112.414619 58.565609 127.615524 81.645927 85.353981 143.918198 83.182549 112.351601 137.976517 126.729309 79.289291 117.903236 208.870300 104.455353 103.871521 80.684692 91.368202 53.376007 87.476425 95.696480 
/model.4/m.1/cv2/conv/Conv_param_0 13.802652 42.438007 27.783092 30.274300 23.610390 33.476967 42.143284 24.197577 44.674965 36.915638 20.525927 51.371666 28.994345 24.434849 35.866482 27.126307 14.423493 17.138264 40.437767 35.670822 15.773102 17.794405 23.727251 24.722466 18.867584 19.523672 30.319675 24.380457 19.928408 15.122894 30.903065 27.950552 
/model.4/cv2/conv/Conv_param_0 239.398651 355.005432 372.580566 541.558105 285.542206 255.993790 253.093964 272.854706 308.370056 247.726685 304.601654 487.925659 515.452515 450.701752 306.161926 332.608765 449.752869 314.066467 509.652954 224.404770 350.130920 654.027649 334.681305 427.596924 295.133759 237.705246 163.620148 278.759521 240.521637 324.499420 228.826126 246.448212 202.183487 318.210052 247.019241 167.883774 239.352875 525.311035 258.582153 284.642609 567.327637 297.748779 352.360474 356.458588 276.608246 228.901154 404.571899 499.489807 247.965088 354.836517 379.721680 552.343567 240.185471 205.377670 180.216415 367.085480 650.219543 185.352814 219.378387 430.695709 491.004456 182.601486 507.001770 275.226257 
/model.5/conv/Conv_param_0 280.912201 186.111115 450.112488 197.236603 383.984741 561.046509 346.640228 916.835815 345.899139 809.579956 657.346619 381.462585 373.893250 484.833221 572.752686 337.532623 372.416260 411.332520 524.262512 658.371216 546.518188 428.270355 499.201355 460.966675 647.282166 852.559631 686.151062 411.832031 659.451233 539.197449 788.351685 532.689514 434.236633 387.906586 402.690491 591.204346 598.681702 404.976898 736.948425 612.058655 372.846100 376.578796 388.617676 911.895447 680.322449 379.379486 623.357361 421.738556 444.719849 688.794800 494.082367 414.746918 713.478455 370.489288 441.695190 361.611481 795.927856 343.183533 652.799377 575.041199 474.457520 583.271606 446.588989 518.822998 587.168579 506.869293 289.438141 470.061737 304.432892 240.450012 643.179871 977.161133 991.206177 319.349609 372.879211 495.197510 412.204224 458.176819 509.594666 673.529419 401.507111 384.191895 233.947098 607.532959 389.374084 596.336853 198.399017 561.515991 1019.715027 350.425598 462.528809 358.268738 360.989471 397.634186 428.615845 381.275757 580.210327 409.651825 829.123108 565.065674 413.301300 330.334381 488.232452 360.589905 492.775116 785.982971 461.852905 700.820190 419.816528 521.570190 546.988770 441.194824 797.300354 521.883789 210.118515 522.616150 290.648895 243.833252 511.156433 300.890686 778.421509 488.085541 228.737076 1200.698608 1322.254028 460.930481 737.823669 418.659698 
/model.6/cv1/conv/Conv_param_0 193.412476 94.310295 144.657059 133.156845 132.297897 106.917076 250.617004 95.419006 145.209549 189.871353 131.361710 171.291916 98.557449 212.869034 138.601700 171.569717 166.079300 149.197708 132.326584 204.510895 105.445801 232.660522 84.304489 96.567207 116.796577 247.826096 106.976395 175.614182 154.282516 129.843292 112.641777 108.394402 166.387848 93.996086 186.714096 117.311562 130.164185 124.004158 80.357132 123.343788 122.956123 178.931885 66.125397 129.375320 135.099472 127.263565 135.107117 114.362267 68.414604 103.158501 74.924866 83.705399 78.752342 166.501114 154.733170 109.639061 111.644943 55.377316 148.224350 207.501343 105.210800 108.980850 135.967087 89.051796 253.967941 375.013214 336.474182 82.884628 316.864258 173.810852 350.261322 131.948135 262.233368 436.806335 264.686493 302.657745 278.847412 237.374039 194.557678 338.697815 335.706970 355.009094 384.086060 349.415222 319.216858 595.239075 440.423462 194.786179 296.637848 337.351501 328.355011 308.713226 209.400497 300.053345 334.521637 269.051666 351.833069 447.196747 275.015869 180.265564 474.530701 274.794678 339.975006 280.827881 458.523102 483.466705 271.134430 108.571213 215.740036 180.191147 315.026276 461.944733 485.333038 453.032349 221.254883 256.329834 326.859161 398.722839 503.345367 181.089355 168.361572 481.842255 150.823608 459.911133 397.838898 259.550385 221.299011 291.404877 
/model.6/m.0/cv1/conv/Conv_param_0 73.349098 105.403160 55.862545 27.580288 72.376015 67.354195 61.584679 59.962452 85.245918 46.690540 40.496895 59.100174 93.437386 60.681580 107.309822 25.159187 32.671574 41.113354 75.519119 54.935631 135.001556 61.737766 94.828102 48.184753 43.612934 54.618073 51.359715 46.058331 42.597229 105.630478 33.179310 89.351311 84.351097 52.275356 103.726097 59.541615 73.363823 42.090908 54.429985 28.609547 91.059563 74.578506 90.379646 174.996216 66.516182 81.929787 110.630035 59.010353 53.851978 79.352684 56.314865 37.456852 74.603798 63.392197 46.589985 132.054245 27.032284 82.580551 45.120392 108.660904 95.058693 65.163200 66.942589 48.225693 
/model.6/m.0/cv2/conv/Conv_param_0 65.073166 137.403336 151.565369 97.784142 94.639709 54.915771 70.728226 94.229073 68.303070 99.671631 85.400475 90.552895 62.809921 104.137009 54.400635 88.460793 76.620811 83.921158 82.947586 95.701813 79.687401 117.239998 111.289650 99.352585 56.635059 37.719543 86.198761 72.888191 63.641666 70.473747 104.365547 114.277313 24.907404 62.242985 102.547531 127.416740 68.279472 90.774628 79.714302 68.390594 19.005447 114.581444 118.254570 76.158524 44.369835 79.842148 133.042816 118.428314 33.021870 108.336288 145.078598 82.836113 75.862854 110.502892 157.697372 65.439888 129.692413 72.492401 53.991798 86.717819 85.219879 87.310158 129.747177 94.412125 
/model.6/m.1/cv1/conv/Conv_param_0 162.489471 99.191422 238.852753 96.984795 135.678192 100.165947 147.692307 166.676102 149.561127 73.721649 130.661423 134.986069 108.923180 124.973351 207.747055 77.216423 106.274307 85.515625 123.988075 369.952148 89.565567 144.535309 79.815071 72.395226 84.910568 133.913086 99.682175 143.357727 125.625938 185.330322 97.033752 149.991272 80.997971 97.581512 106.832283 135.917587 73.380524 77.211212 67.317429 197.446014 89.693665 120.709915 138.752289 115.055153 96.982826 68.053131 76.364136 89.122017 73.905960 105.435104 145.468643 93.083183 76.427650 216.567490 68.021790 165.661469 193.655884 66.064980 127.683243 98.194389 123.785072 107.441017 121.882294 174.615494 
/model.6/m.1/cv2/conv/Conv_param_0 48.543083 41.806328 66.894669 60.084858 48.901745 58.691906 34.413944 73.078934 55.491108 51.705475 45.537582 79.777534 85.649361 62.931072 62.393608 48.959713 51.363132 48.641056 35.170197 34.250309 52.672302 54.355499 15.619456 62.769264 39.740555 39.208702 64.379517 41.556702 41.862568 36.771126 59.603832 42.784119 44.983524 33.886494 62.479321 57.548874 47.486515 43.485222 61.222961 44.701340 71.374130 42.056236 49.780922 39.621750 32.782597 41.743214 80.386803 37.749569 43.089169 66.359596 56.237820 43.547344 47.382492 47.779171 19.905529 64.104523 33.155033 52.747223 69.265305 50.316113 50.017494 46.371368 44.222187 69.872772 
/model.6/cv2/conv/Conv_param_0 590.732910 507.730591 457.300415 425.514984 591.900696 837.524475 590.795593 272.094055 271.141998 397.980469 766.495483 329.449585 529.767212 525.464966 760.120789 291.411652 503.639709 234.094376 449.439423 547.817139 756.706787 395.357239 686.441223 337.957550 495.860046 894.199219 451.885376 356.603668 429.221588 449.675415 494.647308 633.296875 389.370026 459.344360 382.735413 536.959778 659.355408 690.588989 531.803955 669.009888 675.225769 317.307068 342.548645 568.351562 706.143005 533.061890 441.680756 548.454773 763.494141 726.906677 643.813965 834.114746 724.844177 440.674591 321.189667 509.454559 611.101013 396.173157 395.660583 372.746002 363.830536 902.365784 741.963135 303.254242 460.137634 655.501526 480.555389 1405.547241 691.290588 507.093140 406.371368 380.638580 164.428574 700.956421 369.185211 989.429810 547.543640 239.481964 638.137451 623.056824 525.379211 427.175720 567.080811 520.140808 571.591370 756.002747 520.047974 649.866333 370.942200 673.664062 557.190125 594.103088 356.754517 848.272766 466.301208 406.206116 552.397949 499.601074 573.321594 719.126770 977.347717 717.941162 673.400513 552.083069 624.250366 333.495544 465.204773 414.376556 773.618774 427.883545 663.798279 338.830261 471.850494 594.383728 611.753235 1041.640991 301.866058 702.187256 341.401306 430.121796 896.756897 527.158386 284.975769 587.615723 437.812683 685.982971 297.730286 570.755615 
/model.7/conv/Conv_param_0 644.135986 819.311768 652.514954 453.705383 612.905151 419.649078 379.305420 736.684326 437.881592 505.799622 774.098206 493.656219 711.192932 560.496765 467.743774 742.550293 365.955536 633.642212 564.567261 625.834656 416.637604 542.699768 592.150024 610.867371 877.121033 423.644775 745.180420 390.069733 654.035400 488.204315 908.762512 421.552551 539.754456 804.620117 764.178101 685.124939 712.786255 475.907715 433.535309 636.989990 539.245483 366.011017 836.651245 544.799500 641.380249 456.630798 499.745728 190.396713 660.673889 660.921082 775.061096 645.446167 783.741333 421.613495 424.408905 636.655579 480.044861 604.163940 567.525818 550.348877 563.104126 435.419342 311.924988 304.413208 760.303467 212.143661 491.110260 705.562988 672.966492 995.190308 509.737366 517.742615 706.893433 394.063141 273.350800 727.517334 753.185242 684.134827 482.363129 404.771393 347.846130 580.820679 402.379608 418.581604 501.034058 430.857544 635.454224 810.437561 519.818909 459.608307 486.910431 656.231934 792.778748 559.258362 570.699829 389.577789 209.657150 857.075012 615.796143 551.428162 621.472168 469.279419 624.707825 705.017761 344.961578 373.177765 761.319824 486.994568 640.411255 799.016235 608.491699 815.237000 554.222900 722.321411 744.135559 802.549927 604.594055 875.770447 551.972900 761.135925 799.039856 773.453796 613.252808 414.475708 508.464447 666.444885 589.370178 601.699158 455.793427 486.036804 397.615967 788.909180 267.692902 460.644684 452.446716 461.320892 663.122314 251.159805 543.019165 473.729340 553.355835 392.600555 503.888214 442.285400 476.345703 765.643860 601.145996 426.103363 602.871399 392.598450 590.367188 500.002991 696.423767 595.469604 490.465729 434.272400 681.334290 574.973938 413.688965 436.436035 723.113098 429.084564 445.322540 408.763275 687.102600 467.796600 471.719940 560.666626 521.329590 497.820068 703.514771 620.662842 430.504364 194.155487 474.599304 504.264526 494.748444 662.043640 560.759460 445.615906 486.050964 476.737213 693.940369 521.090149 446.591614 795.204773 608.283264 431.549377 418.859589 388.026520 562.567688 522.419617 607.553955 556.598816 494.169617 653.246216 396.091125 468.611603 595.644104 500.268585 352.775574 442.135071 392.143097 604.565247 368.807861 560.470947 478.264679 667.232544 603.761230 621.680725 370.129120 581.456238 631.997620 456.401520 553.288513 426.266296 623.766785 362.363281 727.682983 216.882080 460.115326 476.022858 358.952209 519.488037 510.277649 647.577148 421.254059 562.924866 310.572479 911.641541 761.841797 583.867981 494.963959 709.679016 474.494568 905.516724 579.399292 680.510681 680.780029 553.912415 650.732849 439.407715 613.316956 441.642456 616.030029 557.775269 438.216248 319.155579 515.860474 578.522095 342.186249 383.917542 517.908936 848.025818 579.373718 481.325287 
/model.8/cv1/conv/Conv_param_0 152.469040 190.582535 207.114502 219.878632 133.149033 200.216843 193.987228 134.315033 198.043869 130.655640 174.118286 187.368225 167.508926 206.496780 174.146011 211.819824 145.211868 104.193878 240.109924 140.460648 198.910782 250.809174 175.741394 117.847321 232.874680 161.774872 132.041061 160.518982 194.627487 175.804489 223.601227 188.854889 157.328476 204.566483 118.356377 164.063629 207.349579 197.180222 189.694412 224.471191 167.701294 165.885666 181.107254 166.926590 190.035004 133.417679 167.580124 191.686325 144.741730 126.839394 209.712708 219.390610 170.137589 193.105499 224.848328 210.622894 175.617065 172.780136 160.307602 218.649994 213.506927 194.276031 212.961563 215.686157 253.396942 206.686554 223.388275 223.331284 235.050995 148.391785 246.997040 229.577988 222.622269 231.412949 190.136673 267.651550 128.310928 115.260132 245.775101 102.624390 197.078949 214.202515 211.593323 191.657578 215.989655 89.448318 179.451736 171.216476 185.319138 210.950378 234.459747 184.926270 189.529968 155.685196 203.070328 182.951904 220.511337 155.779175 136.243988 171.481888 200.129395 192.279831 178.958405 178.863434 97.230843 274.249298 106.663368 183.336517 183.474258 195.891266 127.316330 143.102783 179.377533 152.851486 191.910828 140.469955 81.764046 199.386993 219.579010 181.531219 131.662109 180.920227 125.040268 179.615128 157.511627 173.037781 169.007874 169.522079 739.203125 370.116760 324.609467 241.361664 179.206970 244.148254 1613.230835 365.460510 258.722443 374.684570 204.385742 215.333908 380.058868 375.937622 226.910812 443.154663 208.447998 273.225647 274.907257 238.877426 309.653473 249.515915 179.755402 211.289993 351.725586 235.059311 294.177795 315.756866 161.101425 342.432556 143.775024 437.415497 373.514374 240.438568 300.952179 491.204529 297.041534 320.047058 571.449524 298.407959 245.443634 390.343964 265.072174 332.129425 293.921326 163.796021 345.832581 427.558228 282.884521 449.391846 345.328583 586.076477 188.647690 365.110748 343.230042 242.081940 290.737854 181.814728 363.034546 313.375763 229.053864 310.931335 347.887634 324.100891 400.657928 297.462463 269.972748 169.449448 251.801163 315.828247 350.318481 330.967773 190.226013 305.580505 372.338043 294.490204 442.861389 337.358612 268.001495 223.749390 342.245850 311.156433 309.506714 253.535950 510.554779 271.894531 304.240265 358.146606 442.327515 314.579224 230.967087 313.691132 250.462250 357.694397 207.734482 213.588120 254.680817 528.165527 443.916046 317.039520 273.857117 191.549393 188.810135 255.005249 505.813599 371.959808 201.567337 190.796387 280.088257 553.714539 473.169922 320.030731 196.996445 298.880219 292.503082 208.998474 473.826782 410.049072 337.343170 190.450699 347.273895 257.665588 160.180099 259.022552 314.241791 209.508408 269.163361 353.836151 
/model.8/m.0/cv1/conv/Conv_param_0 56.771736 83.145454 64.520973 117.078888 142.130692 87.770119 99.070885 106.956009 74.029800 114.528458 128.829803 221.585037 122.254677 70.945808 84.753746 80.712418 41.916275 53.774769 121.625435 45.444283 45.410576 107.886383 94.938080 75.844070 135.504059 58.988079 55.573132 71.328903 65.195618 60.792961 68.181046 86.542641 90.834183 106.767471 134.654694 39.919724 78.500206 49.637897 70.522232 68.206642 96.614952 62.619034 73.920868 56.687542 79.188332 75.066292 68.628159 87.483711 76.422508 72.128578 113.811119 80.099327 109.852432 113.043083 63.243664 57.372177 127.971619 75.560982 99.760551 65.880013 66.252785 76.608521 111.899445 120.796730 197.088654 80.830765 40.752048 100.954674 86.086426 60.638298 94.703064 77.752258 129.033188 71.142723 63.220280 63.133072 91.423683 86.993286 44.794312 43.618969 64.772087 61.225834 143.059296 78.887878 87.499924 88.647179 143.389175 101.643555 56.084938 120.982735 73.464790 72.978088 69.944160 118.190758 55.925537 50.916389 194.378555 95.915108 106.144585 39.725559 81.758011 88.798370 77.440308 80.892776 87.123123 97.006271 45.451252 144.736069 92.091278 71.363533 81.074356 60.309906 198.008072 67.870911 87.155167 82.324158 93.438385 106.580597 122.117104 86.773842 62.855553 78.621811 146.466980 70.539642 83.604843 109.887688 84.767174 54.976494 
/model.8/m.0/cv2/conv/Conv_param_0 97.121086 127.021866 65.320343 103.256363 91.053024 62.976780 115.511101 135.271744 93.087936 141.335785 82.180489 121.523041 94.006874 75.108467 63.111755 108.948280 60.787277 96.227463 90.618034 100.428513 118.935974 100.235222 87.990616 97.856667 102.831589 101.132408 127.348434 124.493538 110.073647 78.433304 127.130928 50.687111 102.508469 89.601875 90.958832 128.338165 109.795509 62.070431 82.567696 66.803398 109.100899 74.343971 104.856689 124.045166 26.906507 114.333420 96.065910 91.481438 138.139084 43.013050 123.326820 101.820129 143.704803 122.108994 118.604332 111.440460 91.614113 86.347359 110.929703 140.364258 107.879646 114.467796 103.275848 48.520996 110.029243 81.671318 128.670105 84.797691 144.024124 130.593445 105.880928 114.557770 83.498642 95.601189 63.169952 108.403671 143.997925 89.109482 115.464874 127.569145 116.820793 66.947220 67.881767 80.458344 107.277290 151.434448 71.805359 135.058548 110.717209 164.265549 86.797844 56.641796 158.469879 135.272949 64.820114 142.363495 26.201096 108.973557 109.790955 105.874969 66.221298 79.635902 120.327675 90.679733 121.844994 125.238579 95.936905 102.636368 120.402870 99.745796 89.162056 132.974106 125.037430 127.635666 77.762054 178.043961 87.030350 128.254532 121.529709 101.210342 87.855713 93.449249 88.032837 65.190674 113.067253 97.251610 67.056786 74.615349 
/model.8/cv2/conv/Conv_param_0 547.214294 450.240845 618.605347 761.966187 528.945862 526.896790 543.656982 691.765625 218.322968 727.069458 677.371216 357.639099 674.878174 495.224915 568.830322 618.754333 465.856445 561.457031 606.399109 389.733643 822.624573 542.854980 489.097473 776.047852 382.974335 606.620544 490.998840 620.610901 660.361816 644.819519 740.425598 611.395874 788.774231 700.559753 528.852173 399.666748 314.354858 500.526184 283.166931 578.637878 395.431488 554.417847 320.319122 265.282440 509.372284 534.378296 548.173584 579.528198 675.455139 433.754150 467.367340 514.154236 423.442169 475.903931 477.611633 601.882629 415.704620 626.204102 706.054321 374.944885 593.308044 216.845245 430.769867 390.209564 334.128784 638.644104 646.854309 617.395264 540.081360 657.230835 354.393341 591.899414 351.572266 569.812134 686.642273 452.934387 544.852478 523.569519 416.584351 423.764099 576.557922 372.583466 371.932465 581.151245 430.601501 285.439148 536.252197 485.677155 595.737061 735.201782 661.877502 333.884003 766.413269 533.697815 583.915833 601.503357 316.545593 543.489197 474.118683 602.416260 578.418457 629.133301 450.745117 325.053741 700.960388 824.561096 637.843628 644.474609 373.275421 655.605408 435.441833 460.975708 443.376862 347.765991 599.362549 439.296875 518.905212 586.601379 434.240479 454.717499 545.764160 430.577484 549.841797 541.425964 557.522522 578.992004 470.726166 792.231750 758.687378 312.754974 462.879059 373.966644 294.976654 340.494476 478.970337 504.093842 566.729553 306.700195 756.886475 676.710632 479.747681 632.456482 667.672668 508.618622 573.952637 705.488281 593.167236 434.476379 513.523010 569.664429 366.966187 376.608551 445.216858 468.714600 299.479187 392.983704 494.220215 405.558075 670.463867 722.347900 525.262146 428.512848 409.203857 314.422516 256.525085 250.171921 563.263184 421.827789 423.346130 620.991760 404.454529 447.048584 441.999969 564.872314 405.912964 555.399719 496.043365 482.161957 503.415344 378.038025 376.001190 602.661560 513.627869 628.093262 482.915863 453.921173 829.367249 421.092468 571.899231 614.481873 325.521423 485.235321 456.202118 412.949799 336.786682 444.004333 719.835938 325.194458 502.776794 526.811584 386.963959 573.447449 430.172791 396.372925 412.535706 588.499512 697.361023 724.264587 570.179382 618.930420 860.996826 388.442017 691.565491 431.662231 449.270264 333.511383 287.666107 539.620972 416.889862 452.376923 549.234192 375.586700 361.304626 663.376831 674.810791 703.940857 671.883484 520.375793 512.590271 476.936340 382.245422 691.465271 342.082611 538.792908 482.363892 471.818024 730.839355 620.351807 534.335144 628.034424 527.241821 489.913177 422.647980 380.292419 612.596680 494.033997 487.543884 626.930847 489.001556 533.836975 796.718445 506.599152 435.329529 653.028748 621.659302 464.393585 
/model.9/cv1/conv/Conv_param_0 237.882050 415.378021 347.344849 345.662140 354.973297 234.577530 400.971252 376.448334 340.924683 197.101761 411.001831 364.354584 468.245972 493.500153 286.101715 338.778503 362.885681 422.626038 279.254547 367.365356 288.786224 472.095947 368.725433 231.698837 335.410095 535.130798 128.746796 203.709717 375.531219 288.643097 333.306030 299.321228 407.973450 451.240875 335.415436 358.815125 267.834686 378.920197 465.326019 368.756317 224.019043 371.903320 323.922180 169.826019 370.134155 280.051270 341.096619 440.493683 422.214691 345.854614 217.949280 474.990387 470.503876 216.364624 375.071869 231.668533 411.940491 301.509277 400.378632 259.773224 301.147797 313.136810 324.100250 336.509064 385.707123 487.809204 307.814972 234.013138 405.232452 426.163971 142.339127 375.248566 366.082123 399.076538 441.311310 493.233185 399.840363 449.217560 300.499634 326.040985 390.119171 382.422577 486.548523 410.295105 467.882843 444.088440 376.931885 122.116814 314.214050 442.195129 398.085876 447.450714 400.308350 442.888367 388.049744 393.677795 338.690521 330.927734 448.727112 242.919357 353.246216 356.098633 386.968079 243.515793 358.560150 214.323105 194.243637 427.528229 361.482513 191.785004 459.833405 144.878891 171.565521 193.364822 447.648193 269.300415 466.706390 495.567535 349.703491 336.083679 270.517395 288.834656 440.891266 323.266418 360.997955 382.009338 372.350128 464.155121 
/model.9/cv2/conv/Conv_param_0 486.307831 808.092896 449.346008 680.771545 604.954956 340.158325 933.900635 545.952209 1083.453369 1214.003174 1167.610718 1075.853149 746.269348 1043.221313 404.682159 801.463257 339.969543 516.061523 656.703735 492.604919 988.306213 340.011627 588.038940 809.604980 1259.802246 299.501831 422.652039 489.168091 704.153931 900.684448 414.109375 1038.197510 353.012482 483.188843 589.452454 1100.764038 267.092194 622.761963 400.942017 621.739014 554.591003 892.973877 926.445862 880.119324 360.796509 1799.343262 449.344147 715.218201 571.712891 209.015671 179.341187 811.287781 680.994507 688.128174 588.215820 832.680542 611.254639 791.740723 668.991089 902.608887 613.675659 1218.463989 537.834961 1441.117310 843.590942 686.253418 550.680420 567.849548 691.525391 704.373840 811.678467 559.995239 827.376648 941.395630 300.494873 494.369415 483.692688 391.894135 1034.632446 637.304993 333.976013 1312.528564 697.747375 469.332764 928.852661 762.184570 584.665833 623.485107 1108.092041 782.076294 760.900635 889.379578 791.253296 792.984741 475.943756 305.599243 483.776367 421.032898 750.934082 724.952576 276.960693 664.570374 619.186768 393.612823 727.113525 361.089661 470.421967 538.493774 393.515442 947.914856 645.721008 569.249207 1045.929932 466.101776 493.531586 360.483704 656.339111 499.771881 1089.601074 1035.088501 994.475464 340.244293 468.798950 646.563599 562.631653 1133.762939 1069.551636 667.544373 660.271179 1006.478149 1327.611938 1892.408447 655.044250 723.799622 900.054138 1475.650879 611.317993 494.029938 459.198242 1245.953735 507.612976 603.118835 693.933167 747.179077 491.551514 833.604492 520.832336 340.219452 1119.379517 655.133057 545.800964 500.284790 400.443329 2048.096436 505.560608 615.187561 448.443085 901.999512 764.007507 1040.323364 1323.134521 777.240601 387.985474 1186.121948 1093.278809 372.645538 632.877380 753.234619 1204.622314 480.389954 620.654846 710.102905 301.331696 641.138184 906.506042 862.869751 291.280579 368.253143 882.993896 675.322998 940.133972 725.014954 827.504944 280.933167 928.566772 416.537476 476.787262 693.545532 589.974915 1022.714600 689.961853 451.129395 946.202454 205.228973 802.083313 716.609802 611.854065 909.047485 813.350586 406.497742 1165.660522 855.642517 619.369507 451.825348 504.717590 715.103271 179.327835 396.304413 1034.827637 416.047485 584.141296 333.016449 465.826385 642.424561 875.035767 340.129211 373.946625 1024.119751 425.970428 427.491425 739.011841 872.931885 1253.623047 600.285339 568.918518 557.839722 976.781006 572.510437 626.142883 533.119385 281.839600 418.217407 327.117889 548.395752 1343.302002 865.174072 732.182068 503.926636 948.847839 734.843262 807.974915 338.539368 525.292480 437.271271 643.478577 384.021790 802.983398 737.450073 688.979675 1219.107300 525.595093 210.231277 991.197632 969.482117 587.376099 530.006775 
/model.12/cv1/conv/Conv_param_0 165.486221 287.368927 249.804291 266.520477 267.571014 262.383972 327.179352 150.276627 348.176910 280.249695 297.273071 179.699890 273.242004 308.045898 241.196762 389.789337 144.753555 142.583145 209.737396 226.251053 247.894409 208.588394 211.966629 287.796906 277.196198 227.095306 196.047501 210.935364 505.766052 266.518036 117.315140 309.141266 246.795410 190.368362 305.229004 311.171997 426.130890 403.771332 165.930084 227.614914 219.279968 313.928192 323.253601 214.197723 366.108429 267.677429 124.680481 358.416016 282.923950 360.738861 211.301620 182.173203 253.196732 214.926773 349.665131 276.220215 296.906921 196.297577 348.210510 369.959534 281.141693 236.264252 249.103714 449.589050 304.785492 435.368347 224.562973 284.765961 172.817261 293.699005 408.791809 245.229843 171.410721 128.180115 242.813858 189.792694 115.292099 469.656372 242.577332 209.479126 252.464462 328.786896 270.543182 316.264923 266.355621 235.443527 284.261078 256.280762 287.118591 298.929596 162.991837 259.084595 289.119537 450.867310 297.700165 532.787842 404.210205 175.480881 304.773682 632.661499 302.825714 246.441162 419.910065 196.943909 241.790848 509.153534 594.116638 262.618713 172.698959 82.307976 296.034973 274.742249 525.459656 243.574249 194.567993 354.274231 308.140869 332.510010 653.442810 147.279388 180.556091 216.714706 135.387131 281.956940 218.752258 233.884872 588.551941 182.184235 
/model.12/m.0/cv1/conv/Conv_param_0 63.909904 69.968788 59.886581 77.324928 44.114525 72.325897 89.811707 59.009583 67.504364 55.427059 79.898727 71.915886 65.700508 101.262192 67.683975 53.068554 110.093384 101.854843 48.894073 49.872211 75.537254 63.419861 67.089401 94.899796 90.062943 106.841637 90.132195 75.133354 82.014687 65.393593 85.610825 118.683418 86.828735 71.693169 90.286682 92.750938 50.582760 140.326874 51.209679 128.775497 84.510780 87.025604 82.494530 62.963745 81.183342 75.979202 62.307514 91.975685 44.489975 67.061012 66.791862 66.275719 40.847515 76.507874 81.283653 42.914028 99.703781 50.292126 76.883423 149.352203 145.969391 84.498611 84.353531 82.470901 
/model.12/m.0/cv2/conv/Conv_param_0 74.932457 69.862671 91.086334 145.443939 60.956974 138.983871 73.211411 46.000114 48.479694 132.519897 74.487251 133.575958 137.513260 65.081917 57.537395 68.455109 112.630302 104.578072 56.731075 76.312416 38.649273 67.341133 37.916927 93.018990 91.417351 54.560104 101.863792 61.865467 52.550594 74.704582 107.503883 102.350586 46.987839 82.676971 57.752293 128.148636 51.328083 114.139587 136.282990 105.176414 94.352119 58.784904 70.285843 42.968372 70.328957 53.129021 55.246189 66.347267 111.455696 56.187233 61.019390 58.505585 144.289612 87.892090 86.986153 82.880608 43.627125 58.722813 79.018410 89.310989 77.193146 72.992630 105.457092 93.415268 
/model.12/cv2/conv/Conv_param_0 237.226547 182.692810 224.916672 172.293823 180.292328 342.082001 260.773346 460.480469 289.624542 219.615555 151.184113 313.670013 221.287842 229.197067 402.477692 430.935303 232.789017 192.465546 325.650879 239.962555 408.857758 213.266449 353.167725 214.911224 343.603088 215.079437 264.259644 470.165710 247.028809 154.866562 219.889664 201.551834 379.245880 635.415344 234.297531 253.218185 438.725098 343.445557 214.201538 179.327942 229.244354 253.984772 412.946899 503.888763 482.697784 223.322021 228.475754 249.639343 421.799072 372.004669 472.612457 380.658356 283.882294 561.751892 155.542877 230.610382 211.367249 280.430817 198.893936 202.389709 372.369385 243.624496 55.884930 426.863922 202.462051 306.081299 264.583435 202.947678 163.056320 202.104980 254.699051 242.170639 269.931641 274.940674 331.678528 376.515411 290.560974 133.445755 378.487213 478.955566 210.443024 389.959198 219.993332 219.770432 340.521545 368.384125 300.131744 248.458771 394.493103 213.071564 208.632141 333.800507 180.513550 193.141296 308.029785 207.884613 536.054504 298.076935 223.401138 224.980499 213.529739 270.223694 195.131210 387.162384 201.638718 311.367279 539.168213 319.256073 388.000916 199.690918 184.366547 156.661377 381.445740 429.233826 248.402985 290.044189 173.926544 304.769318 259.292023 205.151840 348.063599 258.750732 169.813965 300.520508 281.612457 273.433624 337.233948 312.773071 
/model.15/cv1/conv/Conv_param_0 461.309845 630.694763 232.125473 111.386925 559.466553 348.555176 556.772522 531.489441 545.735352 741.558777 245.053146 380.657166 259.698853 191.991653 506.917053 400.586182 190.933304 392.704315 402.544403 264.315216 268.471100 233.586761 572.458557 834.117004 303.842621 380.831573 529.567810 317.832520 416.501160 254.182205 224.734970 386.568573 328.390015 794.946655 168.781784 208.535400 202.284546 500.203918 210.181992 701.730713 343.501007 414.601166 306.025787 610.367004 358.071136 466.596344 347.214050 230.788925 215.272186 384.210144 337.354004 371.461823 321.779083 178.571121 547.584473 287.342804 212.170822 583.613220 344.114044 220.853653 550.320984 257.116486 739.958374 259.597900 
/model.15/m.0/cv1/conv/Conv_param_0 65.662407 40.403561 74.599419 41.073761 81.550919 63.065979 39.694920 57.318001 49.460785 33.080757 71.039627 68.354744 59.086327 69.121246 94.076508 47.442520 41.284996 117.735847 68.830605 51.359310 115.518013 58.551437 34.754608 34.260090 42.143913 58.018265 65.411179 49.414165 43.725544 68.974884 30.339682 43.798771 
/model.15/m.0/cv2/conv/Conv_param_0 43.955589 87.104286 44.956856 59.860962 78.218796 67.642502 55.054867 29.412771 106.646149 77.442207 43.180859 44.080200 53.375416 47.234993 30.507318 25.064083 90.037361 63.892708 82.074570 47.649807 127.209305 33.926472 35.097797 80.332092 52.480381 35.089695 29.703810 89.998924 60.729332 55.542027 40.798275 36.030960 
/model.15/cv2/conv/Conv_param_0 219.942352 360.164215 326.793121 175.222702 515.442078 401.324249 158.162338 393.546692 414.078796 381.625031 400.767426 293.512970 261.224609 397.126465 203.311172 195.207733 153.430328 284.145782 102.377602 436.054565 119.321304 141.479233 194.102219 288.544464 235.400055 157.031006 130.357559 185.503204 396.656708 109.524544 307.259918 384.996948 444.496674 347.329529 274.139099 207.587646 154.407516 192.299469 342.779266 134.026154 373.524200 130.100983 252.101913 192.472443 196.104523 177.651901 203.650803 265.358337 152.750595 263.317017 319.718292 104.893158 227.839417 133.579895 368.856262 351.105286 238.816635 263.153503 339.780548 373.390533 254.769226 388.643829 314.097656 86.300934 
/model.16/conv/Conv_param_0 370.706299 338.870819 320.456207 714.805847 287.505920 476.525574 461.270996 752.600159 354.217468 207.571365 469.560760 333.140808 427.367065 409.712677 307.798828 374.628754 401.028961 242.660019 355.411987 323.820770 282.888580 170.118332 194.700195 280.961945 571.025208 297.693726 415.269043 329.415527 359.368622 294.369568 237.527069 294.742218 287.526367 293.294159 389.239349 320.696686 242.990387 665.341431 460.059052 400.759766 228.324402 303.706207 387.804443 218.592392 234.500488 351.758301 560.191406 289.444061 210.393600 498.035919 396.419983 279.266510 248.140030 476.640289 202.113968 161.004745 206.343719 191.468964 253.926346 373.038116 341.815155 279.059143 380.081604 608.192200 
/model.18/cv1/conv/Conv_param_0 326.201263 213.481079 231.192657 148.306442 181.181061 136.539978 140.535019 248.717010 248.261719 235.236481 369.018158 155.929031 154.617615 216.788788 162.950363 357.351501 164.861328 246.893463 303.305420 161.488388 375.268982 201.816940 199.659454 219.849487 141.881393 181.257309 153.773834 125.771507 245.561279 193.382919 160.554596 202.533539 323.413696 161.264526 315.200897 126.534988 154.855667 203.299637 166.538223 277.014374 201.041840 312.756317 122.781105 156.703964 243.743637 176.171753 242.380447 279.107635 194.759460 237.031998 190.986237 201.346100 238.672440 213.133972 242.668839 137.574768 251.105103 190.699493 160.960281 203.191467 195.896362 166.189194 278.836548 148.462540 194.333038 140.296906 198.950897 248.584732 130.076111 161.172119 186.228714 248.875977 159.801483 258.606445 285.127686 276.319397 206.415619 176.477188 211.426712 317.283966 218.299591 347.961914 256.052979 264.106781 331.441711 367.138550 208.549072 185.605682 253.873825 200.943878 236.461044 314.074493 135.844162 221.542892 243.537445 190.161850 161.101761 168.004929 196.462112 361.681458 320.959625 190.128128 256.223907 253.674377 221.896393 175.198929 640.885925 223.234024 207.504684 241.194916 162.493271 318.740509 243.944901 328.650970 266.475494 193.458450 223.552780 355.305817 236.876938 185.292435 179.535797 236.105652 247.221298 275.724548 228.745453 237.165939 191.146469 213.171936 
/model.18/m.0/cv1/conv/Conv_param_0 58.531399 109.414955 40.827438 66.439079 58.662575 53.460644 50.754768 50.705727 68.210258 584.766907 69.496429 108.236519 44.235962 78.244659 71.881805 54.223167 46.501774 76.924004 76.024834 67.920845 82.555962 87.437111 49.395279 78.247200 78.929817 83.865639 49.130085 50.026482 95.532188 98.933472 86.458511 50.084015 168.522995 60.863384 36.841877 90.132065 110.536446 93.967194 50.128792 55.505623 111.599411 78.965065 55.975044 86.799118 71.363922 97.865608 53.172344 57.655994 57.046215 63.446018 84.758377 82.101440 68.055145 84.014290 63.340549 71.316475 69.308334 112.090851 144.189148 95.069557 56.534847 62.226791 69.813896 64.197708 
/model.18/m.0/cv2/conv/Conv_param_0 54.188286 51.274235 36.511276 55.656132 36.346958 30.069954 42.815086 40.547375 24.247019 24.279308 26.958139 27.207563 46.663910 32.215088 24.241278 49.299770 28.823137 30.272438 24.583813 25.534304 69.581184 30.408253 35.551571 22.458904 39.360462 72.395836 28.322901 31.609369 45.769188 56.519970 30.736622 30.542673 24.510509 21.613001 39.384892 26.192635 59.436230 35.710812 41.429886 28.264233 43.666012 37.785187 103.877602 25.448500 79.988022 24.663143 25.851183 33.285931 29.105370 40.183132 17.033922 25.299480 30.633423 34.420059 34.646664 30.746782 24.833282 44.335545 31.210133 42.792938 54.483242 45.285061 31.387966 38.357143 
/model.18/cv2/conv/Conv_param_0 211.803085 830.458191 215.331589 462.055573 857.819458 333.186188 179.156662 191.125107 279.184387 459.569000 804.854980 721.208435 279.871857 268.739136 232.963791 703.483154 315.508270 612.410950 102.243538 681.642456 188.549454 187.629623 295.658875 173.586807 967.227844 210.814240 113.225548 227.848267 187.887619 215.815018 267.305664 265.714294 346.423920 284.323822 339.887726 248.891617 699.726807 662.116760 395.848846 337.948853 860.145569 323.429260 249.031662 321.069824 559.884216 507.626312 272.801239 416.170837 245.541809 760.561768 325.788971 458.756134 624.954895 204.770538 106.563553 322.115021 173.180542 258.170441 262.766174 280.809113 808.347717 430.802490 338.920593 318.347870 435.745789 612.727478 558.109253 214.937759 314.032196 270.697174 82.081314 728.842468 370.319580 552.940979 193.168808 251.555283 355.177155 275.300293 299.494232 270.643158 139.504547 193.829163 420.624756 247.510574 193.302963 165.251663 231.539703 301.979004 287.057709 229.597214 300.701141 202.133408 400.945740 260.744629 278.429993 457.488586 340.894226 486.114380 462.492493 653.021545 220.620773 432.774780 305.087341 347.931549 171.666977 523.951355 207.978317 193.824997 112.491318 200.194656 355.096527 176.548874 228.757828 317.204254 106.609550 212.402847 506.434570 555.975403 457.935211 274.694153 391.582275 867.170349 599.344604 201.180222 196.455612 173.124512 167.100098 199.466858 
/model.19/conv/Conv_param_0 486.592316 275.544952 912.122864 321.547668 277.442780 552.419006 574.892883 539.597107 566.675232 770.505676 259.018738 536.575684 448.817963 657.218079 698.802002 485.873444 534.857849 263.613403 301.083740 533.043335 404.949127 296.356506 235.551697 534.458496 376.487885 378.756866 758.977966 289.696899 403.492035 252.078156 457.686493 449.574982 377.307678 380.727234 329.406525 501.579742 780.548828 384.023315 704.843628 443.496765 538.443909 507.646393 302.852081 363.607056 264.379669 952.068726 450.546539 527.455322 383.140808 300.745026 294.748840 466.853485 377.737732 480.660339 266.087463 670.574219 337.619812 513.910583 580.253723 477.744415 431.467834 341.687256 451.532959 386.986450 556.937439 486.261810 297.679443 279.833679 500.818298 457.361664 467.171143 621.807800 249.650009 382.740021 280.027924 382.551849 633.189575 365.411499 344.943054 493.849426 318.777771 362.780548 476.066101 584.499634 514.872559 584.693604 248.963867 575.562500 495.446167 644.098450 648.499634 535.419006 511.958740 425.490295 354.269897 387.713715 229.264938 364.264679 610.935913 543.450500 243.162048 817.646179 318.002563 666.165771 811.769531 265.362701 349.204437 484.990845 301.346954 911.284973 691.356262 540.353088 630.381653 297.148376 260.769653 489.238983 621.217346 716.610718 667.122803 495.896912 319.305084 683.006409 533.517151 568.186829 489.486816 748.907776 330.365265 376.092010 
/model.21/cv1/conv/Conv_param_0 211.599228 195.230179 144.309326 207.144470 313.858154 172.296692 208.324585 275.030670 186.664978 227.220428 203.660416 215.382019 188.751068 226.531296 157.662201 187.918930 153.578934 216.942795 233.539368 208.806580 226.988586 157.237946 199.171204 167.757385 199.068542 204.978851 234.123581 166.221573 210.252457 196.520065 199.043411 201.231491 204.328842 246.198105 219.840500 158.587784 207.597427 184.020599 311.847687 191.024734 174.510269 182.974869 168.873306 127.302719 166.551163 227.079453 234.389755 158.594986 266.746094 283.107269 249.163925 213.937988 156.699188 162.429276 158.358597 172.539093 226.712326 184.302902 202.308884 155.253128 289.071075 205.366638 239.214569 200.607742 223.633575 251.195602 181.041702 317.384338 187.305695 159.048737 158.553894 272.055023 208.195938 172.018906 209.404419 248.130753 247.881317 112.492546 248.580292 207.349960 305.005157 229.548508 164.387619 229.587662 201.279053 154.009521 251.445999 179.667130 161.449493 255.203262 212.478317 137.310303 234.016556 191.863739 199.498428 219.812057 219.029694 207.287125 125.056282 229.112778 209.809250 236.031799 257.471924 197.548203 202.303421 214.263809 217.269012 200.596283 166.329941 171.651611 356.748016 172.206024 241.606445 261.798737 186.417328 169.949310 207.527649 322.745880 117.624725 180.234116 156.327011 213.912781 242.448349 209.123856 173.960205 289.306702 184.943024 206.793625 139.748795 206.331451 195.111313 159.507462 152.069244 256.191833 190.616562 230.298340 287.897339 195.683151 209.610809 212.388351 169.594437 243.146194 184.111038 154.861832 208.714935 452.822266 203.275513 196.621231 340.470215 206.601242 221.837051 322.410400 184.868423 284.198029 275.354401 180.992523 193.939957 174.616226 324.566803 225.898666 271.725769 233.153946 203.591370 130.432083 213.832855 192.118088 167.285278 217.992081 316.752289 267.318665 215.691010 173.904602 160.776047 173.410751 218.819382 287.368042 112.545273 246.542206 201.886536 154.349319 201.354355 174.105270 245.909973 211.686768 480.067627 231.297684 100.766617 287.643768 118.213165 263.575500 242.081848 160.895172 332.634460 114.330757 180.695190 256.698914 269.161194 273.327362 318.628845 132.073227 171.109238 228.019531 223.886719 302.688110 215.579849 105.657616 203.391876 191.611938 334.738586 203.929916 203.678116 189.155838 158.889481 216.518677 304.694366 176.469513 272.118011 266.757660 189.913910 244.775085 257.817902 423.571442 234.042999 214.915756 229.960709 240.322006 230.217514 206.795059 177.879456 266.499725 314.392242 231.026932 208.901581 280.034180 191.712265 161.559540 523.731689 158.116608 153.601974 225.168991 302.809265 149.146698 234.910583 214.047592 419.188721 186.977615 220.178787 170.653320 311.921448 175.328537 179.580368 218.201340 265.698853 154.560593 178.665436 178.479416 
/model.21/m.0/cv1/conv/Conv_param_0 168.698227 177.689423 81.935081 88.721214 59.739170 119.129906 105.227509 69.580864 56.860447 119.852928 117.828766 95.526871 136.896652 80.586105 78.355927 198.554825 98.487694 65.770508 61.449100 86.086823 42.400764 63.766106 78.438316 86.929565 93.297401 72.839989 107.041679 88.037926 79.437767 42.739040 84.663651 56.659653 50.161491 110.645157 136.523422 42.022133 56.666958 69.059624 114.173126 70.542099 182.399384 85.936058 80.516914 90.020599 93.318771 110.565338 101.470726 122.991318 62.981834 120.448647 64.398407 106.529564 42.977764 141.044449 77.747437 71.658371 99.647995 120.972420 50.166565 63.097984 48.644386 85.338860 119.479507 64.463860 165.340637 101.759613 83.903328 81.729515 48.705727 179.276993 87.430931 146.734009 112.142380 133.645691 121.296303 130.061310 64.582718 58.099972 109.287819 122.796394 223.204514 76.461342 148.424866 292.552856 129.440048 124.520737 55.940193 60.219875 75.948334 87.788673 68.357780 171.401810 88.259628 99.918785 84.366249 44.147354 60.384949 84.997231 69.796448 102.784119 179.506439 100.857445 131.363907 95.549606 56.912827 51.901108 91.854576 70.966194 57.316734 176.332642 100.428673 167.592270 133.878937 89.384644 121.745590 104.905777 101.271133 65.935448 145.055389 95.216843 125.162354 76.002769 104.201843 114.039970 98.140411 82.827072 164.124756 101.967690 
/model.21/m.0/cv2/conv/Conv_param_0 30.613047 53.320408 50.787727 79.273247 60.079105 27.770046 50.248341 36.335133 30.744186 67.119408 99.434692 48.368748 63.604168 32.411102 55.570435 71.673225 58.784023 92.288261 46.148247 50.448288 41.010002 86.370781 67.115685 121.598106 33.774860 48.006557 32.230404 53.017086 47.047165 48.129906 69.643326 51.467052 35.666439 76.869667 46.227722 73.474174 23.464233 55.779858 59.010765 59.318535 63.308403 43.497292 68.344337 37.234436 33.209473 72.746948 53.215759 79.006332 40.223774 77.434273 111.069145 51.208893 60.798122 40.863922 78.376938 47.028233 28.568813 33.527199 34.993244 53.825256 63.818928 59.008469 28.968843 31.639791 59.346157 102.436150 58.589306 29.566029 78.607506 30.810585 60.125675 54.803604 56.931839 105.712418 59.282112 40.568790 29.367476 30.287167 51.798916 51.028233 55.325195 67.141174 32.656090 35.273834 63.921684 39.089092 46.960876 30.197666 33.443951 59.760956 146.527512 86.475021 26.643522 52.064278 72.894562 41.803143 37.111656 46.898964 40.862988 44.114349 45.780380 51.488491 55.130196 67.439842 82.350281 75.305244 29.095545 51.137386 29.654247 46.719425 41.146648 85.597702 62.633488 59.244705 46.154140 47.092545 38.005417 55.606903 58.218227 31.869001 47.782501 43.847622 52.176163 52.398296 65.788948 44.528465 54.086075 34.107841 
/model.21/cv2/conv/Conv_param_0 314.835083 209.098541 85.539948 363.576019 389.994019 365.690308 433.976044 196.154480 224.747345 210.193634 387.888947 84.639534 197.154831 372.121704 408.064728 93.116310 393.503693 308.144348 310.949158 340.756561 260.409210 663.917786 235.957581 176.143646 199.218582 348.449158 140.896530 246.310638 327.782837 212.072052 380.570618 264.172302 124.822594 377.116272 202.558640 263.449463 165.910141 414.261078 327.916779 293.854736 304.028046 158.332977 314.564850 298.669861 198.882889 250.361130 58.540421 482.329376 214.748489 443.474487 111.851227 236.681076 181.779663 99.356285 314.222198 143.505249 164.086838 241.662643 219.664856 153.603104 373.508057 352.069031 383.228668 228.255798 193.036026 450.987885 219.228043 258.590149 336.304993 306.237305 313.567322 213.481339 171.099716 164.428421 149.804520 57.634720 413.139832 325.368530 461.739868 206.942169 166.666565 238.644043 149.450592 184.959396 240.768997 194.472321 155.915237 128.739624 419.271820 266.236786 144.634995 273.777100 242.595947 198.832779 356.649811 286.830719 342.516205 271.636780 261.737885 445.228210 384.338959 201.660507 395.223419 319.885193 50.969574 323.447723 165.974686 184.412552 467.101105 220.618713 658.091553 308.948761 203.023132 193.519531 307.043915 374.731720 163.823547 654.527893 160.276703 459.952240 258.848907 92.950081 438.080475 524.219971 122.908249 225.029663 384.145142 287.566193 194.196213 228.879517 520.493042 399.204163 200.013687 314.659546 92.953178 237.682419 110.380608 405.776398 423.191681 357.346466 244.667068 409.136810 375.136169 197.416901 194.180527 290.021820 215.047272 108.523636 234.405487 426.626801 234.215302 668.399292 127.867012 204.715958 471.383179 225.459778 330.780762 312.060913 176.713577 269.288544 464.847198 398.737244 165.804886 294.548004 339.066864 187.060349 207.588608 146.543472 288.566406 377.986145 162.251175 262.621704 256.079193 179.016281 349.520538 281.529419 233.728943 186.366440 175.885376 381.701965 327.130859 332.899963 246.783829 510.257111 206.655121 234.867340 433.637238 157.094040 132.375580 199.898529 497.418060 310.569885 292.531189 345.663147 284.508026 454.906830 172.965698 310.198120 123.330009 712.417725 484.142853 232.948944 261.174622 196.215988 277.959991 185.886475 388.019318 236.983246 210.477951 232.067230 299.430389 312.920593 456.284058 228.376801 375.605042 51.897297 290.044403 195.775864 315.744415 426.100708 283.975006 294.404419 464.833160 198.718613 249.760864 366.285278 233.702591 188.561035 219.224609 215.706604 454.636932 153.955261 295.007874 276.849457 394.647186 331.952332 226.585510 174.089569 342.040924 220.992111 371.816650 315.859680 378.327545 433.925354 382.459381 201.694931 185.009018 456.865723 382.665588 308.246002 142.794907 364.500427 292.577637 379.447906 188.763824 417.408264 
/model.22/proto/cv1/conv/Conv_param_0 80.077965 78.295677 74.150345 31.953537 150.275177 202.403183 57.448833 128.849838 214.311142 85.405479 54.113930 115.440285 81.822197 28.608967 133.709824 36.227913 112.091469 77.815926 62.155960 34.644169 82.068588 56.316841 89.651634 49.613098 225.077393 39.476868 86.628410 86.610199 255.726242 76.078522 42.670006 45.617531 73.633331 147.222855 58.084251 64.636238 42.252972 88.986763 62.020569 90.777245 59.204369 98.512924 33.810699 70.557968 244.091049 43.930374 152.830597 68.710594 75.201439 86.892677 67.589600 94.424469 101.484947 45.390766 101.596657 108.606651 45.209728 68.468010 65.060135 77.087700 108.630165 356.613037 219.756546 121.266510 
/model.22/proto/cv2/conv/Conv_param_0 33.849277 58.832710 30.814060 21.637699 35.288761 38.716743 147.400833 27.116159 98.442345 58.224583 45.115154 35.691616 95.331947 76.039627 29.239962 39.117477 42.661556 53.754742 33.820824 110.028091 35.086853 58.674797 72.798782 42.164276 110.075569 30.412943 54.380104 74.066460 118.368881 28.243008 30.617462 67.818916 61.011452 51.943867 80.548233 25.585661 173.614761 78.028786 46.744038 34.067135 27.998087 49.161858 31.387619 87.851768 21.191992 36.354126 32.899792 108.396034 48.426590 31.522923 81.893265 33.837074 65.367401 146.228287 68.236031 91.782524 53.956711 26.949503 59.901894 69.052734 50.443222 99.341171 101.596390 46.424534 
/model.22/proto/cv3/conv/Conv_param_0 61.743183 63.703838 55.610424 175.236221 70.066254 43.201218 43.653896 39.932350 35.496155 58.970829 58.977230 52.128944 34.543556 72.260521 34.632721 32.955902 60.380920 59.136406 33.737869 52.935322 44.000328 53.868141 45.704063 38.285862 32.101341 66.858246 44.413967 40.928303 53.184517 48.516476 55.308098 29.563683 
/model.22/cv2.0/cv2.0.0/conv/Conv_param_0 95.282639 50.272354 40.348835 53.940434 78.147697 40.329826 140.121094 58.371593 37.357773 41.885521 55.911579 62.961586 31.725973 47.308350 40.394054 67.257607 64.750542 96.247177 58.639523 41.097828 39.214958 42.778137 54.982796 124.649010 165.894516 70.739510 123.349724 50.060684 25.487490 63.588032 102.953110 57.766064 40.706646 41.900639 46.833889 37.330181 74.056557 51.661774 289.634827 73.789375 57.016525 76.918579 51.163654 59.840466 66.363907 41.045303 105.013168 77.102608 69.975761 68.151360 59.148060 76.596603 32.735180 93.452766 58.520164 147.666748 49.902985 22.013060 55.900925 42.674816 46.771530 44.059505 52.409470 107.516129 
/model.22/cv2.0/cv2.0.1/conv/Conv_param_0 37.574299 13.993381 23.399651 5.569841 20.707251 17.254955 11.790691 22.227339 13.385757 14.694451 23.498981 7.944961 32.911537 18.068064 24.280394 12.184461 12.630636 10.336699 32.403522 6.003709 15.132605 8.283411 14.785334 8.358188 12.441609 6.539394 5.770164 20.886559 28.252653 4.677128 10.238777 4.913382 7.555849 17.112091 20.113449 26.886612 12.231324 6.401257 29.783525 25.474281 5.226493 13.600661 22.423563 31.321754 21.433325 17.833902 12.802803 5.603108 16.555820 29.296545 16.761749 15.895239 17.211643 28.179771 6.842997 14.035378 10.687937 21.107260 14.885613 22.222128 14.906351 8.603705 43.443813 14.497610 
/model.22/cv2.0/cv2.0.2/Conv_param_0 457.110718 435.307098 472.472290 541.866638 732.149170 647.407593 774.095215 830.977661 854.174072 949.255493 1150.867310 1321.961914 1496.955444 1620.535767 1801.530762 1748.544556 502.115845 512.252075 551.927856 603.821228 673.387695 827.014282 779.898071 1082.042603 770.654785 933.079834 1211.862549 1316.941772 1283.632324 1387.178711 1572.764893 1147.060669 483.449829 489.362183 550.176636 565.426086 508.994141 747.402283 866.986694 711.616943 1010.081543 1035.723267 1112.115479 1352.026001 1400.247681 1615.503052 1775.399292 1205.543457 483.899536 513.516296 550.759155 603.471008 814.071960 730.094055 782.832214 633.993896 916.637878 834.979126 839.696533 968.700195 1112.710205 1323.643799 1631.974854 1486.262817 
/model.22/cv3.0/cv3.0.0/conv/Conv_param_0 127.813736 56.348755 49.627407 79.569344 58.283096 147.589600 107.277893 103.470985 58.325260 50.914459 78.991959 140.102554 101.103195 71.221169 111.111900 86.544434 36.151001 35.521206 63.985157 159.621048 65.914490 28.861225 53.390469 56.862640 179.340317 111.712746 44.050285 72.535675 100.868416 120.700645 67.450623 198.583115 227.403427 109.730934 113.193947 54.429523 108.379768 26.975851 41.918964 105.572243 84.861725 105.323593 54.189442 43.849655 149.877655 74.083839 50.696373 185.401413 102.722504 129.541595 115.881813 63.453297 28.034330 65.250710 66.676186 46.831593 51.932384 70.656784 53.249992 92.774590 35.534943 61.823631 65.453957 143.736526 176.632111 138.126785 26.565779 55.685795 92.596573 58.754784 92.775383 117.437447 123.260239 55.369110 76.032509 113.898849 135.801315 79.067444 107.355057 107.494629 
/model.22/cv3.0/cv3.0.1/conv/Conv_param_0 45.505222 28.939955 24.797621 18.075254 22.137859 20.920450 23.586094 27.738129 35.669109 20.118860 28.363554 20.701952 26.555456 9.044534 22.813219 25.014751 23.099710 13.327922 12.155202 27.020929 30.504799 24.373535 15.907086 23.473606 18.621370 19.864748 38.655365 24.059334 36.130825 26.070242 24.398975 29.983383 12.677393 42.339317 33.930836 37.497990 17.496899 29.925390 6.076132 24.343985 29.237082 26.230433 18.285295 22.186899 19.893761 21.787790 34.191978 30.341375 36.281925 5.492082 31.219231 8.957965 38.278755 26.109434 28.387705 24.736242 25.713820 41.065758 20.725578 27.348463 29.836311 42.940224 15.402352 18.722803 20.869753 28.959297 28.225336 26.096270 4.626868 22.375917 20.211882 23.674162 29.241993 42.372341 30.050785 23.718252 28.987314 26.313335 17.764555 16.988117 
/model.22/cv3.0/cv3.0.2/Conv_param_0 613.072510 1191.734253 923.964478 1207.642456 1105.615356 1323.643799 900.765381 1011.063171 994.630981 832.307190 906.257812 1014.019470 1000.369202 1047.718018 1007.148132 920.693787 809.007751 1323.643799 1039.864014 1039.344604 982.421143 832.973572 1008.124023 1177.571045 1063.787354 1004.231689 982.421143 649.833862 1089.978027 827.672241 1059.993896 1218.248291 875.744080 1057.300781 1121.103394 1116.291870 1065.967163 1138.898682 839.019348 880.189514 875.007568 1016.496338 1108.560425 1011.063171 1018.486511 994.630981 901.545898 938.128052 1059.454224 1033.665161 975.055298 1091.121094 1079.796631 1027.539795 952.732605 950.990845 853.473328 1098.610352 917.446228 1182.254517 707.744202 865.544067 980.569275 1001.332031 911.817688 680.879578 1145.166748 1157.912109 1296.428711 912.617554 1226.145020 1099.190674 1539.029541 887.699646 950.122375 740.486816 1452.036255 1042.991455 1275.762085 1170.285767 
/model.22/cv4.0/cv4.0.0/conv/Conv_param_0 70.244263 59.746567 106.221375 96.892975 57.280411 88.131660 158.359451 52.989105 65.363304 63.303692 71.068092 40.448402 51.389935 106.032120 72.356712 86.729279 127.395554 45.198845 88.020256 55.915112 53.660885 108.244598 138.191605 86.011383 134.501312 53.726284 515.715576 105.528183 40.907734 36.866184 108.524574 56.206203 
/model.22/cv4.0/cv4.0.1/conv/Conv_param_0 88.373436 31.888199 39.511497 61.675800 52.119938 57.990170 42.572544 32.696823 64.659386 94.662369 66.917419 71.008789 86.997772 65.832191 52.493511 59.658352 59.695518 43.719421 83.080544 73.394363 90.012970 60.605602 48.031456 63.589619 70.545036 74.049561 50.343109 69.588463 50.250809 64.327225 45.059116 43.672485 
/model.22/cv4.0/cv4.0.2/Conv_param_0 593.487732 753.901428 1551.653931 819.845520 615.611816 496.366425 935.597107 449.993073 456.308777 659.723511 847.908691 650.239990 575.115540 613.433960 400.764252 493.540802 807.124878 593.149353 449.215881 2483.016602 556.355103 1177.571045 518.636108 310.747894 596.892700 759.404358 446.133789 830.977661 811.531982 1903.721924 496.840485 508.000000 
/model.22/cv2.1/cv2.1.0/conv/Conv_param_0 22.241617 35.915546 47.106617 22.269283 41.913925 62.296871 183.475128 24.316856 13.389196 51.575607 38.932507 84.970329 72.316925 52.047501 65.182747 59.359875 65.390800 25.939957 95.842468 95.671661 70.219788 69.971710 51.649097 68.971657 56.973568 42.633171 31.343948 76.340019 44.450989 103.793694 82.568237 58.259037 72.780968 69.161652 58.376652 59.241695 48.001221 55.642372 39.923538 48.414360 36.912312 21.580681 49.744293 26.582994 60.010132 51.376129 44.988583 11.847366 57.335999 58.927986 25.318781 53.756878 77.028702 60.120609 28.638769 66.470695 27.994633 32.121159 45.658031 31.633982 49.471733 58.084076 25.817822 84.588295 
/model.22/cv2.1/cv2.1.1/conv/Conv_param_0 20.043856 5.923957 18.690910 10.930498 11.792250 31.437597 11.742924 16.872046 5.064960 14.950745 15.216967 46.163456 19.240290 48.839890 16.247345 29.459541 61.802147 36.530796 24.331221 23.811420 5.763153 64.938522 33.608246 11.835015 49.346512 20.744116 53.024643 27.517998 20.624369 11.396120 29.108452 25.291952 34.077049 11.128933 12.111012 27.429710 8.525178 68.524979 17.106977 18.064098 8.568255 7.234864 15.186615 34.472912 15.046636 43.328068 20.334154 65.093964 17.156044 11.054694 18.282587 22.381035 20.598879 35.860512 20.940945 19.737766 26.841984 19.268297 17.247236 35.519970 27.589773 32.922295 9.014902 34.363178 
/model.22/cv2.1/cv2.1.2/Conv_param_0 462.392883 478.117645 518.377686 566.349487 581.544983 515.041565 629.391418 629.772400 725.511841 723.493713 950.990845 1250.461548 1026.525879 934.756531 910.222229 772.945007 467.378265 475.061188 549.015320 575.115540 618.539856 548.147522 595.185364 778.148071 828.991211 1022.490417 1186.298706 1466.362183 1419.350586 1369.827515 1442.973633 1028.047485 431.694611 435.671692 450.772949 512.504456 594.165649 565.733521 599.644958 731.120178 944.087097 839.696533 948.390137 1110.335083 1323.643799 1170.285767 1166.349731 769.514771 483.000916 458.318939 499.704132 607.346191 608.056091 607.346191 597.578430 867.709778 903.895752 836.321533 1498.033081 1175.575195 1057.838379 1018.985291 1031.104004 911.019287 
/model.22/cv3.1/cv3.1.0/conv/Conv_param_0 135.279068 112.580276 107.755173 121.466972 178.800323 41.769955 41.627541 143.265167 94.054558 77.615417 40.573074 53.861984 114.538269 32.868240 56.069679 117.066322 126.173622 91.788589 69.790680 92.539886 41.167252 101.599434 26.892681 98.373932 140.149796 42.060806 40.808945 39.292606 99.559868 80.474030 87.437492 79.091103 29.260662 79.776672 67.377510 99.158058 76.914818 27.813351 64.164764 68.071526 95.250374 83.945259 77.759270 40.110619 92.241028 113.011993 111.301079 34.067242 81.332458 48.891407 24.815739 27.268192 92.024857 76.711182 97.299919 71.912727 78.768684 57.204529 146.021271 84.987541 105.516792 38.139793 101.015671 38.937595 137.794296 104.178017 67.033020 136.384979 66.869781 98.922882 40.354645 82.069389 40.386463 133.357651 113.098625 145.153503 68.253334 57.905891 79.947075 85.310112 
/model.22/cv3.1/cv3.1.1/conv/Conv_param_0 29.365923 45.887047 59.209202 29.749630 44.757420 36.508179 50.957653 37.311539 38.449284 51.174095 40.438152 37.329247 42.701405 34.552135 55.367161 38.365570 58.168808 43.385956 50.695820 47.294651 46.929493 60.328781 42.225582 47.028088 24.253866 48.479958 59.048004 43.234741 59.618748 33.600063 47.340351 40.460876 66.054871 38.937366 47.948254 54.941422 30.391415 25.303581 55.620403 42.134739 57.745087 24.830631 43.972168 50.718628 41.141911 41.457405 2.518177 50.235897 49.048557 33.133965 5.617729 58.274712 48.483253 39.490227 61.243500 25.279522 62.059814 31.834276 28.707914 25.005789 47.403748 33.576355 10.878526 31.219589 61.668091 30.980518 18.879225 46.553852 43.652485 51.622368 46.832355 44.911266 36.937149 33.502625 9.323493 41.511333 51.531788 24.487656 40.297554 30.645479 
/model.22/cv3.1/cv3.1.2/Conv_param_0 461.982239 1264.136108 759.404358 1135.170776 1111.521362 756.642883 1129.011353 1060.534180 920.693787 1160.495239 1187.652954 1240.768066 1040.384033 1025.514038 1029.064331 966.899658 802.765442 1112.710205 875.007568 992.732849 1048.245850 1156.624756 974.142334 943.231201 753.355530 993.680969 855.578918 1030.593384 1063.787354 971.413635 1016.000000 1403.080200 951.860962 775.248901 1016.000000 875.007568 1121.103394 1191.734253 1180.912598 973.231079 1274.199585 839.696533 1237.079712 1114.498169 900.765381 926.432739 985.212097 1059.993896 1001.332031 903.111084 953.605896 899.208313 1173.586060 903.111084 868.434082 680.879578 569.761230 1019.484558 917.446228 941.523987 942.376831 906.257812 914.221436 1056.227417 769.514771 811.531982 1271.086182 1306.194580 933.079834 864.824585 985.212097 973.231079 1026.019775 923.964478 1009.101868 795.400635 1175.575195 990.841919 1166.349731 962.427368 
/model.22/cv4.1/cv4.1.0/conv/Conv_param_0 76.191895 116.025124 71.649536 88.484459 124.197868 65.065849 59.702618 139.247971 200.171036 136.030624 270.876587 100.052361 193.585312 103.585121 158.427078 106.009949 52.296818 55.698330 180.534439 81.318192 40.202251 107.906639 123.814529 154.051208 139.852890 37.985287 53.715809 95.409500 29.652655 61.866562 61.210838 67.648422 
/model.22/cv4.1/cv4.1.1/conv/Conv_param_0 63.470642 48.260395 37.478535 49.195896 51.250614 38.697357 28.577444 52.052921 28.144810 35.007107 42.107155 19.664272 47.594734 49.851963 51.063293 51.540535 49.568871 42.523846 22.472023 125.066940 35.044617 66.467476 55.746464 26.863947 67.933189 76.026596 42.322475 39.484463 36.319561 54.151974 27.971676 69.460884 
/model.22/cv4.1/cv4.1.2/Conv_param_0 725.006287 1079.796631 769.514771 1020.484558 1003.263245 590.791626 630.153870 889.217102 550.176636 802.765442 601.030640 867.709778 359.994476 862.673279 388.783264 532.438049 855.578918 919.879761 374.238861 1440.975098 423.264435 527.043579 925.608521 304.740479 457.512756 1345.904297 303.495911 710.644836 978.724365 800.911499 714.059021 465.704559 
/model.22/cv2.2/cv2.2.0/conv/Conv_param_0 33.697323 99.264038 67.368729 77.080154 41.321930 58.304657 64.817902 44.801334 90.063187 80.228264 64.344299 97.391586 28.251749 51.820545 77.471268 92.952942 75.877914 36.871822 42.457100 27.623121 98.925468 53.404781 53.727249 78.549553 25.890238 31.374813 82.776466 51.596024 39.293892 79.704979 44.972225 61.245640 64.550163 44.769981 51.658730 45.447926 62.720272 63.359600 34.750820 77.007797 63.142490 47.096001 31.745420 62.628548 37.108002 45.637852 72.787666 40.804436 86.070068 55.654797 60.432365 71.767212 61.595482 90.147247 74.576660 47.269005 90.142570 66.925201 61.139709 46.279152 51.302452 46.233681 31.732513 83.835686 
/model.22/cv2.2/cv2.2.1/conv/Conv_param_0 15.502952 19.670729 29.120199 10.707908 53.107018 19.099564 28.203901 87.415092 17.319075 45.079441 28.115276 43.120602 44.151749 50.207901 59.026726 14.908773 29.375496 29.521917 22.705776 26.022638 18.520622 54.362465 17.310471 45.314640 20.471008 102.100067 19.762287 34.147594 67.745689 42.676113 19.374788 44.764572 58.807346 12.854492 36.060444 35.051418 31.456255 70.974487 31.261997 22.958549 34.553616 40.390179 20.498314 25.733242 22.093082 12.315639 25.666676 38.887665 75.077057 42.903519 61.791458 28.758268 57.636162 22.064596 15.619558 82.745384 32.296425 40.442020 17.216063 26.427923 29.220625 14.744625 17.756643 27.616772 
/model.22/cv2.2/cv2.2.2/Conv_param_0 494.479095 445.369873 498.268188 525.977783 483.899536 547.858887 772.371216 687.175720 611.990601 955.357239 759.959106 776.985840 1123.524780 779.313843 703.913391 693.589355 483.899536 450.382690 448.828308 436.769104 481.213684 527.845764 479.881927 455.908844 674.260559 565.426086 1011.063171 702.013489 916.637878 1225.422852 2150.664551 4629.072266 446.133789 417.824890 492.606049 597.578430 537.111023 530.808167 680.879578 706.302795 503.087036 663.087341 664.357605 705.823608 799.066040 691.285034 649.428223 673.823853 459.533569 476.802948 521.234497 508.496582 692.204895 589.452698 532.165710 706.782593 794.792969 523.595398 702.487488 762.744873 898.431763 937.282898 993.680969 1121.707764 
/model.22/cv3.2/cv3.2.0/conv/Conv_param_0 123.001976 116.640999 141.365570 107.525314 130.555649 170.124710 129.208328 141.058853 29.131931 144.955109 165.811310 22.720274 50.630356 136.971130 77.704559 133.254074 350.220276 95.944427 135.233276 177.468323 99.346275 17.444628 142.728104 146.160034 92.535568 20.222950 131.981461 128.242188 57.979374 130.030365 196.804764 158.488922 174.210785 129.609650 114.290482 145.484695 135.784546 69.160149 86.535316 52.809624 159.304077 175.910690 198.166595 38.793457 170.859924 125.649323 124.894348 159.541336 179.303787 204.419754 199.376709 20.151598 73.800003 14.630733 152.283997 138.124725 66.899780 168.741455 149.797516 19.186537 126.059563 49.596840 178.923752 61.847404 92.995720 162.284576 58.764450 136.359390 134.130020 145.165894 154.653809 142.475433 120.280647 136.691284 131.040848 154.990570 154.456177 65.527191 140.809586 82.478287 
/model.22/cv3.2/cv3.2.1/conv/Conv_param_0 72.889053 63.942043 52.004070 71.207840 68.321739 36.432449 73.528023 34.514587 74.192619 70.111427 61.594818 83.989334 62.889679 68.794022 97.931030 83.428772 34.086231 27.947109 46.331226 46.139183 59.006092 54.887135 37.836494 50.057262 7.263093 83.819229 74.012497 39.760574 10.573660 32.732132 31.324450 36.448925 43.182423 46.945854 40.939117 42.375149 61.458607 50.028389 32.143490 93.932938 82.513626 36.530121 60.144783 66.294716 52.137566 46.515610 15.269899 46.422005 45.689732 9.605008 36.152050 64.438858 65.575722 31.081516 34.582134 79.136024 38.742725 83.690079 61.529488 86.773560 3.732441 72.148056 58.379047 58.189274 77.765045 49.010708 46.720161 47.584183 60.892845 49.185375 37.283329 47.392956 54.914669 87.016861 71.018799 59.539783 69.391174 46.611050 34.957497 60.411201 
/model.22/cv3.2/cv3.2.2/Conv_param_0 408.634735 1248.211182 782.832214 872.805359 903.111084 795.400635 768.946045 854.174072 987.081604 1092.840332 951.860962 1377.992065 772.945007 893.033447 886.942871 843.098877 903.895752 928.914307 1113.901489 1017.988281 840.374817 1113.305542 875.007568 822.437927 1031.104004 1008.124023 919.879761 1373.444214 1096.295044 1051.423950 1086.562866 975.969971 1202.756104 990.841919 843.782654 1220.391846 1005.201904 1166.349731 1359.979126 896.110229 1216.112183 1307.015015 1328.715210 939.822937 860.532654 854.875916 1164.391724 1495.879272 1017.988281 1124.739502 1256.502441 1218.961914 1216.112183 825.701599 1267.215576 851.378052 798.452820 789.365723 935.597107 655.566467 511.245209 947.526428 964.211304 984.280029 959.763855 1191.052124 1286.012329 1600.590820 1042.468994 1024.000000 1763.362671 781.069092 782.243591 722.990967 797.840515 994.630981 1435.012451 934.756531 1991.165527 1152.141724 
/model.22/cv4.2/cv4.2.0/conv/Conv_param_0 98.120804 272.583679 162.126831 204.328445 84.261810 261.695770 204.110809 171.812759 150.209885 257.950592 58.867512 167.461044 494.466949 279.316223 271.553619 181.327713 263.030487 176.693649 59.099964 255.277344 164.145905 72.837097 124.204140 50.103306 239.574570 523.739075 186.655762 216.788086 296.532593 61.586342 93.828239 235.232071 
/model.22/cv4.2/cv4.2.1/conv/Conv_param_0 55.949821 180.453796 102.410255 104.539207 65.643608 44.571426 109.724167 76.618759 70.397583 66.572418 68.894379 32.607063 72.516830 82.842812 75.945686 103.004723 115.777046 65.923424 98.289391 79.202873 43.546268 81.634659 79.547058 84.213097 125.426811 133.437836 113.536812 91.776917 71.450500 108.185738 79.380669 120.189697 
/model.22/cv4.2/cv4.2.2/Conv_param_0 1414.526123 1133.933472 796.618713 801.528503 754.995667 621.867310 488.443207 2895.988770 1124.131836 927.258484 608.056091 1051.423950 382.494110 1178.905396 345.183807 1027.032593 984.280029 1197.219849 460.754639 804.006165 623.357727 382.494110 2065.278320 420.867310 347.489655 1222.542847 387.913483 593.487732 764.426147 702.013489 1560.966187 683.563721 
/model.0/conv/Conv 127.404358 
/model.1/conv/Conv 10.640634 
/model.2/cv1/conv/Conv 3.152392 
/model.2/m.0/cv1/conv/Conv 14.071182 
/model.2/m.0/cv2/conv/Conv 10.307977 
/model.2/cv2/conv/Conv 7.017546 
/model.3/conv/Conv 17.200836 
/model.4/cv1/conv/Conv 31.892982 
/model.4/m.0/cv1/conv/Conv 49.833649 
/model.4/m.0/cv2/conv/Conv 53.042660 
/model.4/m.1/cv1/conv/Conv 26.721737 
/model.4/m.1/cv2/conv/Conv 67.514778 
/model.4/cv2/conv/Conv 21.110735 
/model.5/conv/Conv 52.896519 
/model.6/cv1/conv/Conv 56.615982 
/model.6/m.0/cv1/conv/Conv 67.284538 
/model.6/m.0/cv2/conv/Conv 56.500427 
/model.6/m.1/cv1/conv/Conv 26.702904 
/model.6/m.1/cv2/conv/Conv 80.992188 
/model.6/cv2/conv/Conv 28.230494 
/model.7/conv/Conv 66.949158 
/model.8/cv1/conv/Conv 56.652622 
/model.8/m.0/cv1/conv/Conv 67.170578 
/model.8/m.0/cv2/conv/Conv 45.941166 
/model.8/cv2/conv/Conv 27.549780 
/model.9/cv1/conv/Conv 46.102848 
/model.9/cv2/conv/Conv 17.654856 
/model.12/cv1/conv/Conv 56.754124 
/model.12/m.0/cv1/conv/Conv 46.102676 
/model.12/m.0/cv2/conv/Conv 56.784042 
/model.12/cv2/conv/Conv 42.193130 
/model.15/cv1/conv/Conv 52.896519 
/model.15/m.0/cv1/conv/Conv 56.747841 
/model.15/m.0/cv2/conv/Conv 60.245716 
/model.15/cv2/conv/Conv 35.387470 
/model.16/conv/Conv 53.043358 
/model.18/cv1/conv/Conv 52.751102 
/model.18/m.0/cv1/conv/Conv 42.391300 
/model.18/m.0/cv2/conv/Conv 60.282684 
/model.18/cv2/conv/Conv 38.750877 
/model.19/conv/Conv 67.240501 
/model.21/cv1/conv/Conv 56.754124 
/model.21/m.0/cv1/conv/Conv 56.714066 
/model.21/m.0/cv2/conv/Conv 56.302013 
/model.21/cv2/conv/Conv 41.931694 
/model.22/proto/cv1/conv/Conv 53.043358 
/model.22/proto/cv2/conv/Conv 366.636780 
/model.22/proto/cv3/conv/Conv 152.668625 
/model.22/cv2.0/cv2.0.0/conv/Conv 53.043358 
/model.22/cv2.0/cv2.0.1/conv/Conv 77.779778 
/model.22/cv2.0/cv2.0.2/Conv 6.803693 
/model.22/cv3.0/cv3.0.0/conv/Conv 53.043358 
/model.22/cv3.0/cv3.0.1/conv/Conv 80.976212 
/model.22/cv3.0/cv3.0.2/Conv 10.438820 
/model.22/cv4.0/cv4.0.0/conv/Conv 53.043358 
/model.22/cv4.0/cv4.0.1/conv/Conv 49.764729 
/model.22/cv4.0/cv4.0.2/Conv 28.035322 
/model.22/cv2.1/cv2.1.0/conv/Conv 67.240501 
/model.22/cv2.1/cv2.1.1/conv/Conv 35.109329 
/model.22/cv2.1/cv2.1.2/Conv 6.840273 
/model.22/cv3.1/cv3.1.0/conv/Conv 67.240501 
/model.22/cv3.1/cv3.1.1/conv/Conv 42.176727 
/model.22/cv3.1/cv3.1.2/Conv 6.302586 
/model.22/cv4.1/cv4.1.0/conv/Conv 67.240501 
/model.22/cv4.1/cv4.1.1/conv/Conv 52.980370 
/model.22/cv4.1/cv4.1.2/Conv 24.766182 
/model.22/cv2.2/cv2.2.0/conv/Conv 52.751625 
/model.22/cv2.2/cv2.2.1/conv/Conv 24.776848 
/model.22/cv2.2/cv2.2.2/Conv 6.797362 
/model.22/cv3.2/cv3.2.0/conv/Conv 52.751625 
/model.22/cv3.2/cv3.2.1/conv/Conv 32.024574 
/model.22/cv3.2/cv3.2.2/Conv 6.632373 
/model.22/cv4.2/cv4.2.0/conv/Conv 52.751625 
/model.22/cv4.2/cv4.2.1/conv/Conv 35.555367 
/model.22/cv4.2/cv4.2.2/Conv 24.597530 
