/model/backbone/stem/stem.0/conv/Conv_param_0 110.306618 137.858078 116.326019 159.220551 79.177780 72.407089 60.740955 162.353409 70.493690 251.692947 109.128769 192.862366 294.577942 212.960098 153.185257 121.914284 
/model/backbone/stem/stem.1/conv/Conv_param_0 15.432084 135.888138 12.153439 22.471249 36.800400 23.708502 12.047704 34.982006 54.207523 23.461639 9.226077 41.719139 50.370159 47.779469 45.567177 25.184404 
/model/backbone/stem/stem.2/conv/Conv_param_0 35.220730 22.584732 19.574242 22.916746 24.475636 124.138931 19.406010 18.083576 13.597287 8.865497 23.494902 11.143552 26.157242 41.221889 30.675241 15.222976 27.626610 25.424318 17.746674 18.605459 13.163079 13.499709 8.022217 13.481596 14.600204 25.870819 91.578247 102.826469 25.877733 11.517122 29.033989 13.039743 
/model/backbone/stage1/stage1.0/conv/Conv_param_0 798.446960 545.963684 1504.369873 1384.109253 733.503967 1032.818237 664.411194 1108.314697 741.155640 794.281128 589.190552 1088.129272 1044.988281 966.140808 1261.083984 1060.580200 795.714355 1473.807617 894.680664 802.223450 809.380005 782.181152 675.985962 1035.731812 1111.383911 925.538757 775.843689 837.530396 662.781799 853.482117 1387.394775 1362.532959 849.474487 466.582397 1838.104370 826.791504 1085.776855 677.134399 803.044983 1191.521362 1295.043701 1064.049683 1268.035522 580.923340 931.355286 1006.028015 1346.494385 647.299377 643.420776 1046.163818 1009.037659 834.465637 950.118469 899.576538 1184.464722 764.055359 478.763733 780.212341 954.378845 690.433716 1065.548706 1669.219116 625.433228 429.842804 
/model/backbone/stage1/stage1.1/short_conv/conv/Conv_param_0 139.590149 616.508728 120.646591 768.153503 913.490051 174.023819 1261.760376 392.441986 790.707886 504.416138 452.345673 873.822449 467.272675 1477.145508 627.891418 295.619385 475.534973 220.330109 160.357849 751.980103 448.500000 612.286499 244.449783 596.710571 224.386185 644.578735 756.234192 519.562073 509.604736 459.147186 184.969498 588.679688 
/model/backbone/stage1/stage1.1/main_conv/conv/Conv_param_0 1104.972290 1999.295044 1430.219238 1408.651001 1941.743286 2052.755859 1525.854736 936.789795 1284.393188 1680.421143 2602.650635 1742.067505 1014.249146 976.762573 908.142395 1688.535034 2545.561523 1040.028076 500.059875 2626.457031 1683.988159 2578.403320 1199.630249 1336.017578 1067.152954 738.695557 1811.432007 3333.015869 951.901550 1508.431885 826.286377 1393.012085 
/model/backbone/stage1/stage1.1/blocks/blocks.0/conv1/conv/Conv_param_0 112.492081 26.215830 184.549957 113.964439 38.320343 67.033226 70.641281 30.377144 204.389496 138.231384 383.987579 40.019299 2.421898 70.139755 38.285820 442.417267 258.148529 148.889328 1403.489380 125.041298 310.025116 42.602947 18.242315 258.220917 40.576580 44.563335 29.908030 77.505096 26.280607 193.010468 68.291504 25.016043 
/model/backbone/stage1/stage1.1/blocks/blocks.0/conv2/depthwise_conv/conv/Conv_param_0 19.607924 238.153793 32.005863 5.181802 35.203747 21.221016 6.766932 50.679180 1.446788 7.028543 1.307936 44.895966 465.362915 6.455063 52.678421 2.755406 9.040981 7.572285 0.767258 10.603236 7.905737 134.409988 148.171219 5.842596 57.591816 60.945530 48.883263 12.171941 118.431206 11.708159 5.571128 63.336212 
/model/backbone/stage1/stage1.1/blocks/blocks.0/conv2/pointwise_conv/conv/Conv_param_0 374.606018 380.337616 721.360413 438.825165 313.580048 387.229279 922.650452 757.148621 851.065613 262.932983 369.170502 709.016846 830.952576 244.715683 811.099976 814.354431 569.746216 591.831482 915.425232 491.073364 792.327637 555.359924 294.325439 624.703125 904.861755 569.103577 300.885010 109.321571 620.223328 719.116333 262.076782 435.881012 
/model/backbone/stage1/stage1.1/attention/fc/Conv_param_0 466.417114 339.967560 1161.666748 1060.538208 1105.877808 939.094238 1087.031982 285.773682 368.961700 1031.877075 290.578674 162.191971 302.093628 285.715698 1040.814941 214.109222 470.252777 1123.615967 875.119141 1176.921997 1198.252319 1123.562134 152.801682 837.728455 1005.468506 193.368179 1169.674561 895.013550 475.672638 1182.782959 259.736511 266.599152 247.080688 343.964264 1166.346802 1114.523682 1124.756104 310.054199 1089.180786 322.506561 309.398590 190.258408 298.245758 242.478241 311.851501 370.220123 362.185089 360.500000 159.363342 94.481857 477.288086 621.942932 395.861053 1084.950928 194.152649 363.622406 275.492706 375.397064 324.982422 258.526825 127.220779 123.945641 91.972939 364.178467 
/model/backbone/stage1/stage1.1/final_conv/conv/Conv_param_0 74.022224 150.778305 122.821503 113.611961 75.936600 89.696915 169.860001 98.399437 205.818054 89.230194 167.959198 55.557816 153.005142 68.540070 128.656738 210.180038 96.698135 65.930130 63.572075 149.767075 69.047127 52.622627 129.204071 94.912735 77.598579 89.430275 161.795319 104.250252 79.046478 88.065781 78.574074 48.031010 84.704437 53.250427 88.958008 82.416565 71.873444 90.233765 188.589890 139.207230 81.760902 184.151276 124.636742 112.814484 81.596298 64.710091 143.159790 85.839981 86.150810 126.371666 89.270988 105.809387 161.809097 83.533028 44.723667 106.387062 137.294373 121.847603 68.638062 93.347328 71.620468 172.547928 68.296043 111.342453 
/model/backbone/stage2/stage2.0/conv/Conv_param_0 450.411255 411.301239 725.314636 529.380920 316.849792 906.065552 506.435211 408.298279 440.504364 836.491516 875.318054 419.738312 482.134247 338.077118 640.376221 306.153320 433.464844 399.411316 588.714478 342.246216 513.859375 1021.049805 476.154999 609.259033 1397.530884 195.518845 363.292389 402.437958 257.079468 508.314240 321.723969 508.032715 452.872437 352.122467 334.715668 425.665680 422.937103 163.490540 370.181366 653.753845 361.320129 264.661011 303.520874 722.249207 466.347443 498.730988 1061.367554 307.547455 686.724487 658.877441 465.241852 266.447693 699.266235 707.116089 1078.322998 564.590332 660.026978 255.951675 1390.190918 369.923401 519.551636 448.644165 349.740540 426.372894 422.024597 199.661118 383.469696 314.919922 329.049133 519.718933 488.338623 555.618164 615.073792 298.371216 553.059631 455.629944 592.329102 858.493835 961.616028 518.555542 248.925705 344.823029 425.352142 431.717560 357.462280 374.312439 358.030304 645.889221 398.808472 806.371460 561.946899 285.698975 1040.829346 430.084595 635.229248 481.843445 390.028290 332.339081 941.225037 431.896271 656.186157 476.945801 191.335785 319.408539 1131.068726 418.743896 462.629669 1073.145264 461.719147 841.733704 874.701416 485.072571 298.581665 692.136597 662.030090 427.604797 327.569794 533.658447 590.716797 1104.669800 387.295197 686.412720 482.451355 525.127136 329.973083 550.810364 356.888123 346.602112 
/model/backbone/stage2/stage2.1/short_conv/conv/Conv_param_0 65.179443 386.340973 166.660324 565.220276 603.279846 369.736237 142.010284 318.664032 296.906830 35.812683 38.600666 107.595459 164.574081 156.595779 105.818550 35.581951 307.739594 119.368843 127.506866 316.721649 238.212662 160.816269 207.028442 65.815971 128.504150 362.475281 535.884399 67.232811 40.792385 164.960571 79.996437 156.884644 94.135170 600.663818 142.899582 219.432724 236.728302 50.432716 128.397690 192.381180 86.374794 465.968658 59.377346 84.871010 117.654129 171.458221 137.347229 450.869843 74.456512 75.652870 314.256134 147.204041 68.104744 80.712265 33.923069 93.075653 144.802933 432.920380 27.119707 79.515480 402.286163 200.203568 171.601257 117.894455 
/model/backbone/stage2/stage2.1/main_conv/conv/Conv_param_0 853.679810 502.977478 146.988266 1099.988525 250.760818 850.359497 310.026123 282.767944 335.220093 625.433167 279.837616 743.963013 300.342224 178.566772 808.885559 168.702698 524.566956 285.717834 346.541260 673.070923 470.622284 141.914932 297.819855 192.504242 877.435913 202.510086 280.558746 151.775223 174.291656 278.342834 323.180664 629.947327 393.568237 393.139709 409.973633 219.542068 418.836975 445.669067 220.613281 369.852325 181.803070 551.383118 1121.421143 314.779266 342.399994 207.176025 243.102814 420.662537 477.325317 318.992798 261.716339 353.800690 375.522797 843.269897 242.308533 609.135498 658.839355 203.749039 240.910614 272.787201 228.730179 556.521729 251.567490 251.797241 
/model/backbone/stage2/stage2.1/blocks/blocks.0/conv1/conv/Conv_param_0 45.354290 175.082855 1470.851685 332.396271 38.293236 282.175690 180.913422 145.985992 119.295341 92.102859 436.297333 482.463074 299.331146 45.794331 24.653555 1360.082275 34.960403 9.068252 17.212547 76.213173 22.728199 21.076296 48.537521 21.558100 191.132690 30.282827 1123.779175 351.065460 17.439970 959.750916 76.322868 54.818764 62.745052 289.668243 2.670455 10.521750 49.632465 18.380442 18.407047 114.992455 64.704170 311.640442 308.085999 194.616470 429.891846 70.533058 14.606465 66.324265 24.924129 1007.800537 500.400085 248.124557 109.824570 251.144394 1050.830933 41.357738 81.241898 339.919342 125.168732 98.598297 339.202301 349.757629 237.004318 140.657227 
/model/backbone/stage2/stage2.1/blocks/blocks.0/conv2/depthwise_conv/conv/Conv_param_0 350.051178 32.607143 4.616954 23.245787 228.242371 120.061798 34.266727 59.292259 33.249111 68.346542 102.593788 63.141380 26.154713 82.800865 630.948181 5.822785 268.105255 3113.148926 613.037231 179.100555 1075.734131 445.744934 980.155273 543.526428 1128.253418 472.570374 8.051464 15.543076 871.470642 6.856725 266.979431 278.101898 97.722733 28.389164 6060.357910 1104.323364 185.289001 7890.241211 1509.808594 114.943542 2490.011230 17.996931 28.477108 32.936584 20.008671 135.630234 861.468994 164.507660 1134.496582 4.919785 14.971848 31.090960 29.752260 212.083923 6.488094 834.455017 41.215893 16.187906 343.799255 65.127197 14.039999 14.251798 21.320536 40.823433 
/model/backbone/stage2/stage2.1/blocks/blocks.0/conv2/pointwise_conv/conv/Conv_param_0 36.818340 4.211394 3.121445 8.497340 62.480328 34.679676 21.222740 14.798912 25.080458 11.058426 8.264574 28.396654 2.848355 31.258757 4.239119 9.618086 31.275742 9.871901 1.842472 16.925144 8.824833 41.319916 10.247983 32.722794 10.391521 33.155907 17.779821 6.425932 23.827456 5.055953 17.621632 19.732843 8.311450 6.360350 52.674770 7.132425 25.003042 3.566941 34.963810 14.446768 31.897436 6.384459 2.288484 4.662546 34.229099 9.829011 8.019902 15.189276 5.033894 13.119572 27.578264 8.857337 6.956635 7.029860 22.375677 27.739317 18.489492 21.072643 20.487196 15.497540 40.434395 3.557015 15.296904 16.764317 
/model/backbone/stage2/stage2.1/blocks/blocks.1/conv1/conv/Conv_param_0 59.964252 57.343109 65.669052 128.991959 29.784342 57.026878 59.388363 207.260330 24.597208 48.009300 86.791389 84.656807 40.630836 125.640343 156.823914 54.627552 92.598663 20.625645 40.300591 36.650753 157.535934 37.745941 21.598043 147.655319 25.493170 851.549255 7.951390 158.061554 33.973034 23.805437 51.691395 98.806549 52.188103 51.961586 58.705482 38.044399 132.982529 363.225372 54.586971 37.685902 20.207994 13.747521 43.840046 29.872238 31.794912 33.314777 127.221542 75.696190 949.371277 63.471634 55.705360 35.805019 35.817417 47.531750 38.900700 262.901215 63.701935 97.178116 54.324051 62.617882 54.570923 4.006449 36.213703 297.361511 
/model/backbone/stage2/stage2.1/blocks/blocks.1/conv2/depthwise_conv/conv/Conv_param_0 55.335094 40.555244 22.165361 12.567433 73.958931 30.855881 10.418121 3.675325 190.121902 19.069838 39.137344 50.113483 229.146881 27.527563 32.315636 61.498512 13.982201 211.422455 30.870577 42.618458 19.774271 307.118774 244.010071 10.951816 119.673790 3.015444 1069.373413 3.172573 113.548218 310.317383 24.458706 40.203693 37.594200 73.418915 78.022903 138.292542 42.581512 2.083135 40.296318 51.860306 149.567657 543.760681 26.485769 47.529537 139.812195 108.853294 2.088119 31.411360 3.417219 27.471397 42.638489 37.057030 81.343712 52.818832 124.981796 13.901919 82.951019 35.460606 48.632603 104.497574 31.346785 534.477966 132.832901 5.153732 
/model/backbone/stage2/stage2.1/blocks/blocks.1/conv2/pointwise_conv/conv/Conv_param_0 202.737396 71.661102 820.369934 621.090088 411.677185 363.704987 959.443176 615.336792 492.038422 379.582642 704.970886 680.037476 690.396545 368.029419 271.404358 900.144226 335.890594 648.042664 1362.817993 585.060120 193.928543 233.032944 799.739502 116.458199 454.425781 208.648163 450.439667 308.322906 614.907776 218.396744 484.528564 220.648346 613.180542 219.246368 623.515442 365.781250 661.770935 396.603821 644.766907 579.127930 780.953003 431.761139 1052.231567 201.337906 387.710602 820.024597 253.273544 413.071808 420.507111 518.937927 597.507324 302.812744 411.738342 938.044739 258.771149 486.167694 836.791077 359.408081 554.303223 294.213165 368.263245 217.412064 526.211609 472.023010 
/model/backbone/stage2/stage2.1/attention/fc/Conv_param_0 457.562561 158.792343 282.069427 240.706894 569.035583 403.572540 340.810272 599.504517 450.918488 231.013214 843.310181 361.402435 357.128906 185.867340 277.792999 715.171692 315.724091 792.574463 615.767090 312.778320 290.307709 181.041611 390.043823 273.746368 312.109375 235.073425 698.676331 241.050476 84.244003 178.917236 202.747330 381.077759 289.410339 359.043854 331.563202 186.527374 795.650085 642.747375 278.080414 352.519867 276.339233 139.254456 349.583771 103.873291 771.538818 294.521576 512.321716 663.337524 437.181305 731.476196 702.986389 167.998779 296.101898 379.249603 112.903847 463.956390 280.506592 209.153046 78.748016 435.684753 267.463226 373.274017 625.315613 670.741516 138.895325 345.222595 171.469452 811.035828 345.500153 735.710449 189.735779 279.963013 354.553284 204.002045 153.725311 273.407318 203.956055 249.494354 313.907379 257.899750 247.109314 168.405350 217.574081 136.279495 142.064667 257.373627 366.848511 208.228012 462.737488 416.158691 413.438263 135.358307 311.536926 283.725922 236.662491 211.648132 343.414856 388.678131 171.721817 259.075806 268.427917 156.354935 129.281906 142.233978 257.380585 410.875580 167.445084 175.084030 201.029800 273.609802 362.183441 304.861633 187.412552 210.131683 239.911026 235.576340 209.831085 192.336670 219.354202 300.032532 212.552170 334.921082 223.500259 124.080818 289.660248 374.054230 333.403137 193.864487 
/model/backbone/stage2/stage2.1/final_conv/conv/Conv_param_0 62.412304 83.340134 76.633110 52.305058 190.363205 85.248482 170.137848 158.249268 110.632164 53.375927 57.220253 48.590473 35.819252 172.566620 64.491974 77.515266 93.444962 145.321884 162.689713 38.695263 48.982109 140.846420 73.786575 123.032730 105.888680 106.233109 93.862083 132.498703 50.242569 132.191040 77.228378 88.110725 72.715881 89.781372 115.554237 28.315065 89.714600 42.859676 95.686882 54.962814 51.020840 136.586746 60.978382 148.812912 57.116795 59.623863 85.312096 124.067543 93.418892 98.271362 129.428116 85.307220 49.312935 60.605045 73.777405 56.778969 42.311932 75.359314 45.814823 108.949883 151.430984 46.297756 52.156696 227.620239 162.492676 50.044834 96.428970 77.026169 58.073746 109.906548 65.332565 128.521255 44.267433 101.234146 49.409809 112.311073 79.510490 31.776634 76.136292 84.935463 115.454155 46.957912 82.999496 53.549030 76.178360 144.492203 54.851765 124.320107 88.657761 44.511555 31.676332 64.892776 75.697182 113.711990 104.741592 53.134346 45.930138 46.172367 51.227417 106.330940 35.963581 33.725147 65.860428 60.430679 111.657288 91.179169 185.953705 78.927849 103.705116 113.113335 94.121964 78.931343 80.389305 104.464180 74.549721 83.488289 59.818523 77.605972 46.400455 165.898544 42.876373 93.999458 86.746620 46.651070 83.861763 72.375504 89.294525 80.425102 
/model/backbone/stage3/stage3.0/conv/Conv_param_0 466.618622 729.461670 914.524170 403.084137 383.479492 404.370972 428.378876 510.292603 454.225952 729.502502 759.599182 820.500061 512.440918 286.909393 387.025299 435.658386 582.135376 476.846466 421.807495 659.774292 690.671875 434.715118 660.750488 476.242157 613.065552 615.153442 327.979675 473.683533 619.131958 422.565735 599.673462 479.279114 420.394196 566.390930 274.069733 632.074768 446.049133 568.431580 440.683136 704.981934 394.613708 674.456421 789.056274 596.296631 639.504517 585.103027 350.180145 926.758789 528.139404 399.301392 443.826202 1033.020996 614.168091 830.107727 751.911621 287.338715 1196.270996 559.949097 322.673462 480.019165 375.041840 338.009247 570.424866 717.293518 390.378082 371.423126 644.164368 538.074951 256.533813 431.180420 359.306213 625.396790 723.948547 347.454620 582.192261 646.742676 408.661011 405.171783 817.828186 574.500427 388.300323 1056.479004 832.509338 1181.974976 422.712341 792.015564 521.382874 551.216736 732.078796 424.637970 708.179321 763.623901 507.797089 363.148499 825.654175 372.038940 567.693604 465.100006 432.317322 543.320740 696.911011 887.718262 735.586182 448.411804 659.669006 1021.724731 600.981567 579.811768 384.722961 669.285339 453.119141 512.394409 571.621399 699.543335 977.401611 340.825806 474.669189 318.854034 403.171814 465.573944 543.156250 527.854736 1075.424316 612.659424 296.783600 511.885040 1086.060791 724.188232 533.272034 664.551575 1264.260620 411.122498 508.164795 467.242920 847.305908 865.163269 626.305237 575.973450 416.550995 844.584595 589.015625 685.595276 649.450806 518.259949 514.496460 575.706970 763.603394 416.173523 685.282532 774.875061 640.094971 494.948303 485.048981 515.826111 735.606506 243.064514 621.253967 834.210571 1066.426147 404.013519 413.243835 564.251282 311.786102 447.030914 449.416473 508.267120 259.669617 653.705200 541.029175 904.710144 690.307983 791.629517 557.300964 438.471680 491.135559 717.777100 465.253723 700.631592 694.617737 725.914978 332.832916 629.023010 339.513397 574.266052 501.572937 584.437988 487.911621 813.539490 649.942383 632.393494 494.690857 995.239441 528.988281 613.866089 579.253540 567.489136 720.010742 890.400330 643.885803 368.975433 888.833740 542.369812 292.168518 393.695007 375.554749 899.663330 886.720581 664.417419 436.941345 432.081146 1123.242798 1090.487549 352.295532 964.841125 519.082520 370.300293 730.584106 309.994293 441.585876 323.491608 399.501343 546.763428 439.168976 776.636841 435.880463 441.584290 527.454041 388.087769 395.469910 403.881165 384.940735 257.746704 438.969543 626.336792 579.319153 878.466492 482.331177 592.518494 588.515930 641.906311 471.002014 343.454987 620.048096 583.345581 438.512726 578.065308 550.938599 530.466370 386.879150 450.329651 791.747986 524.981689 674.956360 471.581451 555.627136 720.004089 
/model/backbone/stage3/stage3.1/short_conv/conv/Conv_param_0 138.316666 333.307068 66.932587 124.469818 398.118408 164.845306 135.634796 136.569778 276.276703 187.484055 511.734039 122.943878 271.536377 45.642384 316.028931 213.698593 399.298920 125.958382 297.244476 41.125114 167.652145 476.318329 223.269669 479.605927 540.775513 473.955017 152.917664 376.598419 341.803314 201.417572 87.693832 481.506714 99.814774 506.241486 271.133728 377.668091 83.625946 431.310974 199.034897 292.384125 512.419006 275.850891 512.134155 378.234528 466.242126 190.406265 127.218094 254.193985 145.767609 64.814308 156.768906 172.252380 109.351517 209.134872 122.982750 177.352600 79.804245 169.271225 266.140564 370.951355 412.851807 211.209946 212.941772 350.896606 62.935616 464.812012 94.067390 191.732254 142.173691 119.256332 250.086136 382.521271 214.781143 289.191742 163.603683 303.334717 252.457016 306.280487 413.844360 390.784088 426.565155 466.819122 364.650452 416.993652 305.726959 262.929382 215.756729 173.745590 169.113174 97.807465 268.635498 379.258026 366.039124 401.873840 152.045715 191.543503 217.363159 98.311722 234.837082 166.031265 489.250824 206.221664 175.772552 419.620026 304.290100 114.497871 254.642517 38.070305 195.050079 101.522316 62.739964 131.498520 519.101624 406.143341 326.717926 191.253082 201.234726 296.531189 16.004038 291.449432 274.856537 100.169220 212.032990 431.824738 126.304565 64.022652 144.511322 335.673767 
/model/backbone/stage3/stage3.1/main_conv/conv/Conv_param_0 587.694580 683.399048 424.891479 639.328857 545.300354 460.739410 370.571777 308.714020 335.091827 202.077621 347.571381 224.309937 401.880371 398.728424 519.497498 456.387054 473.927063 924.085388 963.864197 236.260254 724.187134 256.271698 637.309265 833.754150 339.258850 241.857330 444.125580 180.635925 533.037781 224.555862 284.740936 360.621185 932.574768 296.647369 746.389221 301.150970 320.020538 365.267120 317.237671 768.667175 236.273193 1312.919678 977.006775 938.469238 920.374939 355.619995 316.831512 1148.511841 309.074982 346.280273 835.515869 728.271362 598.047363 1080.717041 369.926453 523.968323 226.854263 248.088776 301.429779 1040.258911 254.340302 304.516632 351.084167 397.301147 989.613953 198.102417 459.583862 383.076172 832.612610 458.986298 706.116821 341.495361 209.571243 424.048096 566.830994 476.012299 959.569763 446.365540 510.979645 176.315338 1144.925659 652.472473 303.995300 236.025726 658.026123 977.815613 217.723373 972.587341 277.567688 341.185150 1141.023315 516.192078 698.628113 825.455017 200.544556 263.178589 784.315369 548.075562 1112.161987 981.681335 313.619965 384.963226 219.861008 806.879639 486.018982 248.855148 503.002777 374.974548 336.736328 377.887970 364.282532 204.581558 306.042267 466.173065 970.377625 348.408386 470.997650 878.411987 429.750458 499.502411 870.506165 192.049484 1035.409546 882.960388 336.604340 401.140930 321.683990 852.797668 
/model/backbone/stage3/stage3.1/blocks/blocks.0/conv1/conv/Conv_param_0 43.582745 35.894978 66.661423 1238.232910 46.287804 61.345772 145.846786 20.828575 73.264450 49.680214 36.614182 38.753139 187.177139 51.005955 36.298073 40.317268 276.549286 39.900066 53.715958 66.476837 31.153437 1212.960815 28.018198 624.600830 51.805103 170.222015 71.277008 5.802663 50.060246 42.365597 46.413162 811.036621 31.381676 44.954376 248.517380 934.137329 40.116634 12.351957 63.429440 28.967020 1125.986450 13.918253 234.859543 533.291687 49.722553 45.076973 29.494574 57.741451 37.498756 37.962948 22.619907 95.711479 79.780876 333.666901 24.912956 54.992393 37.373535 56.758896 48.742065 34.607349 28.176624 274.192688 32.488346 67.667915 58.322845 38.057373 25.180992 598.760010 49.495647 13.542719 178.480591 82.748398 504.922424 15.371819 667.199036 71.419380 112.265640 342.447693 141.132187 87.493652 99.564758 472.679932 55.221992 31.536085 58.003452 24.793560 68.219101 42.744652 36.412197 161.108871 28.185898 50.287781 177.320816 55.222607 28.923792 56.599918 53.395863 35.725510 119.229431 56.247505 31.646320 620.546143 53.840870 74.104584 14.882877 630.489868 338.628326 31.647871 599.078430 50.030235 29.891174 37.629688 103.755295 84.986443 70.873734 49.792351 737.121155 34.711781 166.609833 162.716156 67.184212 20.524569 36.425606 55.282162 28.501314 102.271210 1165.257324 1334.539673 
/model/backbone/stage3/stage3.1/blocks/blocks.0/conv2/depthwise_conv/conv/Conv_param_0 46.182812 31.080980 79.204269 4.752343 93.635857 307.121246 14.832971 125.208961 43.015579 29.419767 90.755699 62.448730 28.740236 65.496552 81.862511 160.117310 13.659038 50.329815 25.600338 70.851418 47.158051 1.195779 74.494781 9.007469 31.294994 3.188159 179.840363 738.192566 76.063416 17.399345 167.635605 8.310760 40.498920 44.904221 14.408497 3.718631 38.423862 629.223877 92.469818 248.687119 10.203525 411.435974 9.429481 5.841483 92.868942 123.574059 81.578110 75.147118 74.711136 69.842743 145.263794 45.336529 49.872612 13.055331 83.019005 63.940674 80.165947 53.701885 57.251266 84.729919 209.511810 7.663324 59.031567 37.467319 73.365540 310.338654 51.119282 4.130633 64.777672 90.204430 3.110899 21.290125 10.980985 134.927887 4.049715 42.673714 13.775908 3.193020 11.010776 25.796112 25.416300 7.288994 23.771723 137.782761 54.598930 72.618713 53.917442 96.225914 64.358833 32.948406 80.697517 56.373146 2.536215 45.433289 72.026047 81.219376 35.576130 55.488934 8.696718 50.433941 112.734299 5.791739 37.872814 39.383251 158.810608 2.806629 13.509304 83.697136 2.905197 75.417259 90.469055 60.302223 34.127731 13.810892 59.260464 37.389519 6.161645 193.133102 2.204047 33.102570 48.147968 432.688263 36.043415 43.632206 67.440643 18.615244 2.333597 3.508858 
/model/backbone/stage3/stage3.1/blocks/blocks.0/conv2/pointwise_conv/conv/Conv_param_0 947.503784 1031.593506 668.053955 634.278809 1589.401001 1372.753540 398.642578 1175.657593 452.483765 792.230591 447.943451 901.530396 1716.525146 464.772339 258.833618 1121.237549 423.367523 959.822083 1261.025391 565.704102 406.384796 1316.674072 1191.652710 1579.371704 307.350586 529.348328 563.513306 872.086182 714.197693 972.044006 1531.314331 459.091187 701.389648 1090.761353 1843.580566 1123.205811 1087.791016 1893.911011 568.289551 633.741699 577.727966 627.565369 1104.697632 698.169617 2065.527344 938.267151 1193.760376 619.196167 421.026337 1248.668823 996.231567 902.853638 989.748413 556.754028 679.591858 1002.449768 305.984558 679.295349 1344.738281 1520.818604 448.047211 1196.191162 938.316650 677.910950 634.443970 780.486755 1273.501221 1165.991577 1618.492920 463.241150 1015.549377 937.305237 500.413513 251.544983 609.451294 451.880859 1263.626465 1327.140259 1339.156006 642.395630 983.293762 1391.003418 1102.774170 1889.036133 329.023285 782.332458 1747.324097 1842.164917 935.653015 1566.974609 1338.673706 758.719421 1169.649658 853.497498 713.477539 503.534729 1201.236938 684.627197 320.149963 1278.968018 752.913757 234.223694 910.887146 506.570435 1545.355835 790.813354 869.756958 1218.767822 664.140686 596.033142 298.375671 341.562927 1122.693359 1224.104370 1121.952271 355.451416 315.731293 539.815552 735.065735 1721.002808 761.314209 1781.693359 703.045227 1978.753540 1616.515625 624.317322 1800.053711 1288.900146 
/model/backbone/stage3/stage3.1/blocks/blocks.1/conv1/conv/Conv_param_0 155.437943 301.115601 101.054970 79.935814 165.644562 86.308838 46.633850 54.778252 122.290810 328.612671 454.188904 46.323807 49.616329 61.535328 86.078033 148.605515 137.538071 170.260162 98.279755 370.338623 85.052353 67.971474 109.129868 76.745316 182.810379 438.276886 68.865967 92.325859 63.868126 55.337627 74.027763 72.320778 187.468475 90.374634 159.028061 49.004524 48.321033 73.022400 82.652855 77.095749 140.749710 45.763023 21.199987 92.015373 81.786049 827.573242 63.598705 69.065910 109.927353 73.236214 206.777130 98.056473 73.279724 125.460983 122.367760 99.550293 68.123344 64.190910 79.624702 48.724762 145.470139 73.893372 63.822193 59.163113 65.375374 53.260475 81.525284 1967.790405 78.243004 127.848137 653.762878 50.667480 58.856125 42.762886 68.925484 94.012245 67.645752 83.197044 158.896194 86.988754 97.040108 67.411430 50.793392 77.716995 144.624374 63.532948 40.925224 79.394447 67.884972 73.103180 61.863628 48.734810 240.400253 60.893658 72.040543 39.210461 331.316956 283.590485 121.733238 72.693672 151.119141 86.177071 57.512150 99.708466 97.851860 71.499817 1295.684570 64.105072 120.286850 1350.142212 55.768303 38.857994 18.731085 38.029881 90.903175 59.433548 89.162109 91.340248 1301.199829 68.292999 68.756592 63.668926 118.216599 44.150536 175.802109 75.152817 897.785217 78.225731 
/model/backbone/stage3/stage3.1/blocks/blocks.1/conv2/depthwise_conv/conv/Conv_param_0 46.920769 29.575855 104.866638 88.245605 7.609900 101.344894 70.372452 59.434036 59.418854 1.371129 10.112843 372.469330 50.681885 57.830635 127.808540 59.380093 174.392639 42.385624 54.558609 10.859244 77.649864 35.643066 75.404564 33.031994 32.081966 12.809310 93.526077 76.300392 111.365372 218.943405 299.033600 78.946609 8.020270 94.408592 55.303234 212.661743 78.961182 96.883003 57.657108 47.158390 74.975327 134.879166 393.606476 54.859360 41.241417 4.136261 40.089920 143.592468 97.776054 149.136459 71.293907 34.119499 106.807732 26.376139 65.819534 66.317635 292.200958 88.330025 52.158321 81.503899 141.947678 191.282715 99.535706 68.463562 32.686249 60.470798 121.846420 1.420956 47.593452 96.080093 19.256006 145.954620 71.186363 70.510414 203.607056 59.143909 79.045288 131.652786 49.121765 98.553825 58.410084 39.859356 255.159866 117.409286 30.340607 68.167099 137.933563 33.173534 140.191895 52.656898 91.020477 69.416290 35.948273 115.117638 53.501785 107.195343 8.881230 1.616780 20.731140 109.570930 69.888504 127.298935 35.331547 54.503757 148.270828 28.302904 2.914298 100.553711 45.108158 1.598602 45.520424 86.148453 350.690948 140.127167 47.203014 99.076294 57.231483 116.745193 1.489686 44.545578 127.288857 90.304878 79.529289 111.398933 58.145359 59.294685 5.496467 103.627647 
/model/backbone/stage3/stage3.1/blocks/blocks.1/conv2/pointwise_conv/conv/Conv_param_0 583.639771 1354.091309 1652.491455 363.943542 1920.625732 1296.502197 820.614319 385.010559 301.235626 540.032959 490.101196 1066.827515 1090.263428 454.342987 155.162415 862.591248 264.173828 871.584045 1304.065430 1201.026123 756.932983 1242.177612 1003.699951 1618.088867 109.480171 1125.683350 459.787170 810.415222 546.577271 433.687744 536.534058 754.505005 1062.092896 418.272400 1003.066162 643.154297 576.195435 297.328308 841.630066 421.796539 273.303162 408.018036 825.168274 768.691162 1270.499878 1684.389038 813.120056 520.002686 383.415619 1204.965820 703.135742 696.493530 1330.412720 386.463043 1030.728394 379.850952 388.355408 537.710327 598.898804 1227.591919 741.419250 1242.936035 742.328918 646.363037 738.429138 270.811066 1019.668762 607.557434 985.824890 252.658585 604.583191 502.518707 570.033752 928.652954 331.376678 516.370544 1533.162231 1389.712524 602.231934 97.514389 1307.367065 1554.119873 252.928604 1042.493164 916.824341 255.281921 1101.619263 1234.383667 390.881622 973.231262 619.621216 1403.160522 990.898254 1199.902344 480.824493 455.313446 1530.200439 771.167664 105.030685 670.347473 465.686035 981.684814 701.630798 1025.954590 1346.772583 1262.338623 914.488525 1026.634766 218.724045 792.224243 581.742493 1666.017212 289.530365 1289.298340 1275.440552 648.413391 1205.289551 228.592529 771.224121 1156.305664 527.631592 1762.176025 582.562317 1457.520142 1399.780396 971.937195 1016.616394 893.548523 
/model/backbone/stage3/stage3.1/attention/fc/Conv_param_0 300.143463 257.326965 427.900482 430.095276 417.380188 383.682648 480.985565 398.562469 429.009338 200.044922 581.056213 346.585419 220.022720 570.850708 224.672836 375.446503 330.466858 297.527069 661.349060 588.465881 491.559113 340.067444 501.817596 421.125732 416.690247 212.492340 376.089386 514.076111 415.100372 416.762909 408.218872 383.666779 413.353088 575.914246 376.412292 312.312622 531.270386 300.973816 486.953674 396.394531 564.719971 295.786377 511.271973 411.762726 406.293335 428.550171 389.208374 513.758179 313.947266 370.665344 261.531891 420.303925 467.698547 444.825500 430.526947 260.873566 499.688599 556.404175 251.292450 648.728821 455.666382 607.588806 336.881134 379.102722 218.653503 274.859314 438.428162 342.634399 434.017853 335.634460 414.265656 545.785645 458.811768 408.873962 251.789139 500.869171 452.012024 412.365662 504.100464 524.481750 617.611206 369.657227 258.843292 144.495224 458.941803 262.824707 545.577942 427.972443 618.128479 577.716614 413.487427 487.054413 574.651855 346.715790 539.138184 370.617462 505.220398 452.556274 251.236984 477.886719 683.656433 440.495667 388.689453 515.995667 635.452881 158.281830 516.299988 537.844116 379.332214 536.465088 367.945465 578.396790 349.871613 431.457275 588.166443 492.578491 413.873230 434.690399 169.942780 489.302399 529.082031 639.744995 406.817993 530.094971 457.238251 387.923553 611.046448 359.362457 232.309540 327.343872 397.112793 185.562439 319.865021 214.849640 217.450027 299.039795 292.486359 198.092102 451.109802 166.139648 437.732086 584.418152 247.800873 280.171814 431.530853 138.492859 441.003418 401.358887 179.669708 344.306976 254.354004 333.318542 626.666504 391.969299 331.918243 219.775238 100.080101 322.269104 168.372955 326.544067 116.237999 587.300537 342.305389 210.811905 127.090927 187.196869 273.177582 164.403854 332.360840 327.005371 500.220612 280.349365 613.278870 327.921051 193.344131 384.289703 232.217010 258.551575 177.969971 129.949249 190.666351 295.064026 163.273056 562.961426 146.906387 454.247253 168.548553 616.206848 347.328766 253.814224 162.798157 269.504578 129.633026 300.099335 209.403870 342.700928 147.054276 206.066360 345.534637 352.550140 197.440643 347.739929 199.257614 382.025269 201.643997 327.871521 264.288208 483.219788 412.288208 478.432800 201.082199 407.575378 474.462494 354.875916 268.043152 200.775894 227.432358 108.298302 234.998230 393.259094 642.834534 323.151886 187.248825 375.935516 125.884781 99.388329 223.057419 646.528625 340.600708 368.840424 342.351746 264.584869 316.443512 213.276154 252.267105 508.399658 513.534485 175.989258 162.536270 161.667603 441.754852 374.941986 334.365631 426.696686 263.514709 437.345520 511.500092 305.155945 286.705200 165.912186 231.289886 236.932724 185.538177 666.465332 197.081497 128.113007 
/model/backbone/stage3/stage3.1/final_conv/conv/Conv_param_0 229.367111 228.705627 227.126602 129.779007 212.303513 174.846573 123.914909 108.921188 204.844711 139.418335 211.213593 189.481750 241.627945 125.771194 229.051620 176.678284 116.492981 126.835632 312.392181 180.014725 202.453751 156.898239 178.865356 128.971649 287.000397 152.473480 197.584900 258.323914 247.440735 204.891891 129.133789 198.815842 214.847092 187.579422 134.597275 119.180641 265.102325 233.316360 105.816994 157.892334 155.102264 229.395874 131.034592 190.803391 147.730148 157.610901 167.068619 134.410995 195.561951 88.314484 281.178009 203.100952 262.705170 113.203987 144.863800 146.637802 169.517731 194.181946 176.666275 252.596848 149.732208 142.461853 124.766388 220.362442 238.966507 204.330887 119.975220 406.905914 223.460770 123.118073 149.279312 124.334229 202.655533 163.604721 307.666321 235.716385 218.173309 161.357513 315.859833 352.519012 85.859505 191.972321 292.905640 119.047165 205.196182 153.240036 148.317108 209.012665 60.037697 210.368942 124.303078 134.069550 254.774490 198.002716 124.112221 234.928024 219.097672 125.448296 140.101959 169.963272 219.684967 106.091263 146.979965 206.484818 261.105072 74.164841 185.900940 265.071167 166.981613 122.523613 267.150757 352.063873 242.371246 171.995895 204.936432 136.664398 145.482040 90.683495 358.248383 243.775421 208.512573 169.568680 152.352402 405.575562 85.890099 276.284302 109.778381 163.721100 168.253052 170.550247 160.101669 249.745560 297.205536 139.086685 156.345505 148.735001 124.386185 234.197891 232.373901 408.573456 195.740158 198.808777 200.150467 211.591049 154.459030 194.477829 239.007126 154.535339 204.177567 268.891296 310.159821 172.929230 156.741776 224.116943 185.800049 208.316208 123.545700 149.857346 194.866928 164.034744 172.874710 268.413666 113.808128 194.200989 169.771774 162.944336 151.419449 213.862869 272.081635 104.623772 136.531769 179.113297 236.314545 312.858124 212.287262 328.291931 143.512207 214.336060 201.093170 118.528816 150.583466 102.752914 217.146988 152.535828 163.292923 172.395752 154.870987 169.526352 167.762772 147.665771 160.941940 142.227112 272.128723 188.269409 219.231918 113.181183 122.188515 202.282318 141.312103 353.455658 211.533813 199.507126 201.925751 147.462509 156.376450 112.484428 141.273010 154.142029 219.432114 187.336914 238.822327 234.113510 177.377136 304.691071 151.549332 202.402939 131.011887 152.063293 118.871613 117.658409 259.032166 295.761810 148.653595 166.314178 197.043274 202.980042 139.293930 200.662445 305.525421 129.750244 77.232170 45.866760 170.405762 169.688782 105.093376 165.375717 223.259140 255.406418 159.714828 122.963081 164.944626 241.738373 307.359863 132.909134 234.589096 88.586800 127.055634 118.941650 130.485748 149.678680 110.565315 95.446655 125.106995 91.085724 229.160400 209.476288 
/model/backbone/stage4/stage4.0/conv/Conv_param_0 593.110168 954.864746 799.357300 950.521973 755.188110 607.864685 761.946106 809.391602 708.612854 421.973297 771.558655 631.134216 1012.726868 957.371521 1073.190308 809.397766 1172.963745 625.085205 684.122681 811.308411 1048.793335 517.909241 879.485779 867.568542 838.081604 789.528748 581.264099 1101.884033 522.167786 944.128662 796.112610 593.306946 624.009277 1093.810059 609.405701 795.539429 482.600525 748.161865 1110.128296 695.575256 880.122864 867.612000 538.200195 582.222107 507.288422 540.954285 569.537659 911.164185 635.730347 750.333496 1045.918213 815.682556 841.172424 531.422852 757.009705 624.378784 730.392395 600.995972 958.110168 446.935455 754.964233 761.665161 321.241333 979.118225 1037.751831 716.112915 1016.491943 691.883240 566.126465 446.226562 583.328613 610.360474 709.566711 960.793457 405.101532 702.018921 1023.497192 640.421082 920.295532 728.311157 514.327515 726.208557 637.470459 424.113770 809.708801 800.579407 1125.050415 724.657715 585.255737 902.916138 361.789551 956.552124 1082.391602 409.125000 359.842621 911.420288 756.453003 924.018372 712.786255 394.559326 744.017395 472.834290 807.636353 541.635681 909.424072 853.882751 608.578491 677.522949 742.964600 1130.792114 843.102966 678.262329 998.557434 766.946106 878.096130 898.286499 457.310608 940.435120 772.327087 410.297455 921.997986 770.249939 952.043945 963.593323 805.309143 691.895264 692.734131 826.325073 787.816040 535.820251 791.340637 747.259705 638.504639 891.203918 681.508606 384.128845 727.661804 628.455933 604.632812 1151.827881 887.840393 925.435059 445.085693 980.135010 1020.007690 1034.301270 861.640747 775.575562 488.461823 441.321106 904.172180 452.548767 763.069946 922.018005 433.280945 498.266388 731.837646 654.366150 864.144348 858.235291 417.546417 501.075531 610.924072 618.097595 313.825439 737.474915 835.267395 772.780212 856.574280 477.067627 701.050842 823.559448 972.734436 799.669067 778.175171 866.300598 503.210266 1047.830322 866.997009 784.300842 859.727844 1007.397156 635.879944 392.820160 908.268250 791.077454 675.522583 733.059387 580.786316 465.345490 773.218445 548.041443 931.752808 877.110474 530.681152 679.753784 550.253235 586.003845 616.224670 646.717102 520.860107 771.172852 631.580750 981.807617 338.916107 1736.706421 554.558655 723.134216 456.740906 1039.419312 625.676392 554.347595 912.244568 730.737244 662.804932 516.052246 560.950562 758.038269 777.973206 744.278442 723.336792 742.918823 334.562225 821.183044 772.369080 674.600525 831.193542 664.107300 931.512024 360.810211 710.433777 565.529236 681.584656 692.864929 1007.806213 481.558350 791.236328 925.953796 758.869873 858.853821 452.766724 972.108582 743.894043 943.009644 839.538940 1090.218994 887.773926 964.352600 632.888916 1004.416260 915.239319 341.163879 541.363892 728.074341 519.028198 928.248474 631.085266 563.809631 868.155518 822.550049 704.220642 457.454834 788.570740 1042.248779 801.519958 853.540405 601.377258 596.845032 649.421997 420.926514 573.412415 735.452576 992.294067 1073.517334 743.571106 706.364502 681.822815 891.748413 616.237244 885.845825 869.175415 958.107117 1006.934021 619.857544 668.309937 959.371155 777.408875 769.133484 708.589905 962.184875 693.995850 445.464478 832.246216 722.113708 807.055054 759.693604 785.855530 555.113037 773.780090 623.948608 904.482300 838.128540 649.361145 809.423584 939.226501 475.543304 985.190369 785.932007 740.708496 684.465515 572.032288 988.521851 851.878784 676.453735 777.812500 776.771057 516.013367 965.194275 1258.428345 875.391357 923.664490 868.943542 854.935181 835.245056 725.963440 514.907410 955.742798 779.354187 633.034607 890.277039 807.551392 820.619690 773.405640 551.610657 704.404663 696.503540 795.880127 499.342621 1045.674194 701.049561 487.108673 655.785889 605.904114 548.929260 494.571136 879.708008 885.868958 528.157288 979.393677 914.919312 807.588928 506.784973 691.364868 832.465942 715.335510 1048.868164 768.510742 665.019897 288.812836 471.967865 752.570496 538.180908 727.073975 595.451538 471.554321 843.765747 871.922119 665.406982 699.910767 441.188232 752.197327 756.059753 907.372498 615.811646 362.468231 850.601685 1012.193420 787.229492 729.713745 901.377563 856.168457 1124.376099 802.703918 843.935730 685.733948 805.468018 885.769287 753.754028 897.189209 649.802063 584.905151 1030.750854 984.005249 868.478394 795.450867 777.916992 701.238098 769.853271 958.512512 512.875305 707.918640 680.629639 595.760864 724.385010 977.438843 368.089447 637.324463 918.839233 1048.997681 778.272156 614.094788 399.335602 891.358398 452.112732 573.029785 490.132507 630.309753 959.726440 844.348083 636.276672 904.335693 935.192627 664.804321 603.651001 698.427612 862.778687 725.966980 535.493225 729.129211 646.130432 750.560486 750.324341 791.197388 1056.421265 645.325073 599.345947 899.643677 870.961304 821.071350 958.839661 886.773193 813.242676 631.608337 389.838531 671.819153 752.538696 925.220581 1006.223267 791.645081 936.127380 682.042358 798.278503 804.520508 780.546753 899.097229 559.672180 930.033752 777.297058 726.207458 603.216370 1029.499390 704.632935 768.050049 1124.752441 908.761475 472.752197 745.727356 821.359192 609.216492 1167.303223 988.258911 838.315552 1124.489746 381.394165 780.020264 1076.895142 261.682770 806.151184 1078.649780 686.741455 776.800720 1024.159912 745.039124 699.519409 947.919495 773.219116 794.246033 820.752686 709.368103 611.457458 490.841461 685.609497 706.922485 657.196716 866.937622 920.421082 592.604065 764.743958 752.911499 691.471069 776.412109 973.927612 925.205811 628.241394 855.940796 581.086792 758.494385 584.597473 409.567871 883.136536 814.885986 654.997742 
/model/backbone/stage4/stage4.1/conv1/conv/Conv_param_0 378.296906 348.558990 324.091705 199.159424 391.158051 367.205383 308.494324 347.070953 215.056000 183.594330 132.402542 347.349762 271.414795 449.468231 296.886627 325.019623 168.754715 506.990387 370.048828 256.943512 408.544464 131.232864 367.013245 232.189194 344.109741 363.461670 459.354858 266.841370 294.319672 474.173431 352.110962 331.156799 286.659698 299.673309 316.930267 424.130371 344.212006 386.503418 415.649109 233.235458 462.187408 312.606537 249.190506 317.777496 241.570480 131.186279 242.482407 288.728882 413.312012 323.334076 281.997650 178.946655 94.640656 399.145111 141.646164 367.119812 343.691437 287.119354 170.808228 351.154785 286.147980 365.938538 530.003418 349.225708 421.969696 369.753357 285.691101 445.181946 366.632874 429.194916 313.152283 398.689636 195.804977 515.379333 208.637772 383.420776 126.723366 478.228058 418.330017 272.155762 340.356873 474.365631 208.316711 474.210968 276.473022 353.969818 486.349274 374.239075 304.670868 393.596222 125.754669 237.242889 525.015625 532.200928 308.007446 164.710220 225.702560 301.317657 378.545135 338.442810 397.241516 303.139374 284.954651 400.405792 368.152557 221.257507 514.682373 386.230682 330.776489 269.524323 349.130951 540.974915 343.350098 476.350952 329.937378 423.854004 563.228210 151.488632 183.293686 343.769775 411.478699 450.439575 358.923523 184.049850 372.509949 144.231613 309.062439 398.744232 367.772491 336.733246 295.818237 335.220612 261.185242 404.820801 468.026062 435.620911 118.546646 319.454559 478.522461 303.932068 422.947601 205.177048 293.962097 111.204460 290.477203 459.085236 485.820557 300.313629 244.466782 282.485596 412.875763 368.202209 366.652313 237.000229 252.573669 202.739059 239.089249 394.568848 200.808014 330.164459 385.547852 190.063980 274.800476 419.459351 492.777924 221.332932 234.494614 372.189911 284.291504 388.668945 292.696014 461.659119 360.420898 66.116982 443.457367 347.810638 440.932220 266.182556 450.844635 332.974030 365.266113 145.217514 416.032745 252.944992 324.623505 405.756439 475.679138 377.215729 362.337646 411.592041 409.021637 249.729568 281.169281 239.035492 339.116028 392.183197 160.145493 422.785217 362.431335 493.969177 328.531097 350.786987 289.725922 321.708313 366.827789 248.597397 435.564606 388.024414 391.272705 503.494019 295.590332 466.208954 502.512909 424.351715 399.788757 329.428284 215.137604 477.555756 300.136292 391.045471 373.385498 359.311340 234.005096 251.430984 400.017761 398.148499 246.462067 471.250366 312.380737 374.647552 455.185577 338.177856 417.103760 251.344864 366.324829 328.069305 290.546661 362.788940 461.494598 375.397308 291.949036 468.114502 317.452667 312.525604 353.330292 354.985596 367.504333 314.354187 306.828491 393.744904 376.937195 296.045441 404.711212 134.935806 459.466095 411.344360 
/model/backbone/stage4/stage4.1/conv2/conv/Conv_param_0 522.120728 1258.467529 3013.230713 1463.755249 1252.455566 1697.766602 1234.829956 2129.413574 2917.095215 849.084045 1517.671387 3869.512939 2079.680420 969.843262 2443.039307 3038.058105 1965.887451 1470.760498 1747.962524 1978.084595 1242.077759 1110.986450 3338.356445 689.332642 1017.694092 1364.679565 2682.818604 1601.465698 1923.691284 2426.346680 2412.356689 3046.805176 3243.088379 1756.662354 1242.245483 2155.185303 1115.761719 3467.355469 1020.364014 1027.587158 1898.286255 1647.753906 1303.751831 1564.911255 1334.957275 1676.212646 3660.767090 1523.997925 1760.990112 1660.447998 1932.094360 823.114502 1764.089722 3303.206055 3730.127930 752.864746 762.034729 1107.210449 1049.370972 500.102386 2212.864014 2046.430176 3116.375244 2188.291260 792.150208 1024.454224 4200.587402 936.400757 1202.036255 1698.419800 1276.642944 1131.526123 683.904785 1979.303589 2803.582275 1351.579224 1284.183472 1398.860107 3266.256348 1724.339844 3517.363525 1395.632568 1758.693481 2040.598145 2863.947754 1216.347534 1546.003906 1583.325317 1509.689087 1050.997925 1071.999390 1607.209106 2227.437744 1241.975464 2599.116455 554.216675 1300.248535 718.084595 969.194885 1500.642822 1422.113159 1010.106445 1228.188110 1099.876953 1214.388550 2940.205566 975.579224 3246.369873 1185.955688 1807.151489 940.532227 1502.812012 2405.899414 1207.153076 621.169861 1084.315918 1151.571167 1575.251465 2950.035400 1174.208618 733.451050 1574.940186 1153.665161 3328.544189 1122.776978 1042.911255 4199.736816 2933.414551 2030.353394 1173.961914 3540.018555 1134.286133 1637.019287 1596.142090 2135.794678 1631.547241 3754.942871 2365.052490 1648.109985 1785.312744 1509.522949 1895.667358 1371.838867 1169.693237 2425.645996 1288.190674 2500.882080 1902.883911 676.626465 1786.052856 2846.537354 1855.579468 668.644165 1694.412109 1170.353882 2612.774902 816.522095 1569.633179 2298.803223 1153.785767 973.009155 1007.235229 2747.183350 2242.501221 1851.639038 2111.177002 2289.046631 891.381714 1112.798096 1047.437866 991.056763 1593.016357 1527.423462 2163.964111 1569.448120 3725.423096 1604.816772 2286.223633 1327.638428 1582.768555 1886.827148 736.266479 2143.911621 1873.091553 1357.932007 2184.349121 1325.877075 1490.613770 3082.149170 1192.273438 1996.061646 1317.415405 3086.516113 1191.839355 819.784485 2041.753784 2382.509033 1151.851074 1464.267090 1681.535156 2804.122559 900.928162 1522.138062 702.954163 1034.119019 2387.967773 1799.563599 648.370728 608.589050 1524.213501 2559.733643 1238.293213 3855.099365 2653.916504 3067.551025 1024.515869 2494.939209 970.079773 1522.971069 1821.527832 3782.258789 3576.520752 2439.468994 1086.872803 749.655823 1289.966309 2022.811401 1685.916382 4874.033203 3227.755371 1200.585205 1032.498779 1354.344971 943.345398 1946.635742 1184.085571 1724.112915 1341.382324 715.969971 3364.266113 683.563110 1423.405884 796.843079 1932.604736 1192.790527 1669.214355 1907.631348 1350.806641 1078.029053 2898.186768 4648.889160 2184.026611 1131.983643 1532.650879 1519.462158 1105.331055 1824.996338 2529.916504 903.659302 1816.461914 1087.909668 788.291809 942.402344 1080.384644 1622.648926 887.505798 3306.107422 2322.014893 2119.935791 867.717468 1413.282837 1655.543701 2089.253662 2013.868286 3278.402588 1462.764038 2045.391724 2643.874268 1512.185669 1501.513550 1726.038818 1494.511597 3711.355957 1143.873657 799.913574 2350.639648 1139.477905 1191.559937 1036.457153 3417.993408 2805.862061 1923.386108 1474.579468 3055.406982 3206.624023 635.450134 2434.054688 3229.574463 1870.842041 1160.409302 600.348511 1972.253174 763.326355 1450.696289 1576.740845 1603.933838 1175.194458 3166.718506 4341.270020 1098.085693 1658.299316 1528.914185 2599.800293 1131.354126 1223.608276 2442.206787 1023.906494 1519.332642 806.300842 3297.432373 1585.492554 2182.629395 1616.439087 1992.764038 933.150391 1152.434204 1942.059814 971.461487 1053.103882 1880.136475 1946.939209 1930.542480 1654.317139 1952.516357 1229.009033 1005.319214 598.875793 1689.559937 694.843323 860.796204 2051.321289 1319.534180 1404.145874 2070.102295 1964.787720 2056.614990 1052.225464 1266.330933 1314.537231 2044.743164 1999.543823 1528.160889 1514.518799 1917.391968 1428.044922 1342.383911 2200.027832 3492.059814 1715.426758 1403.645508 1882.214111 2997.749268 2425.050293 794.533630 2811.644775 686.467529 1202.043457 913.482544 3467.551270 1186.249512 1963.237427 1495.204346 2752.286621 3661.122803 2247.561768 1590.421143 1352.363892 2937.368896 1620.472412 1363.819336 1493.878784 1290.106689 2289.609375 2652.936523 685.071838 1831.173950 1640.656372 2478.544189 1091.223755 2116.491211 820.718018 1258.015625 1842.088867 1575.497681 1551.289185 828.725647 1458.476929 1675.037476 979.806213 1939.620605 1651.483032 1815.870728 716.207886 1375.957886 2798.320801 2522.900146 1904.385010 1453.028198 2723.762207 1350.061768 1539.715942 1444.212280 1469.594360 1620.364624 1287.563843 2103.071045 1112.970459 3340.738037 1154.072510 1215.382690 3542.823730 2030.044189 1757.360962 1976.285156 2651.140625 1773.416626 1600.819824 812.915833 1951.880493 1229.573486 1755.132812 1856.772827 1594.635864 803.971741 1610.084106 1344.563232 1313.191772 2067.913574 1513.940430 2543.982910 2162.073975 1332.210205 1811.578491 1542.518677 3350.428711 1421.151733 1129.068481 1624.679077 1291.470825 1087.444702 2050.435791 753.971130 868.800537 2082.493408 3936.408203 1626.561768 1430.321655 1662.793579 1012.893677 4184.959961 1183.006348 3346.463379 1462.252197 1401.617310 1725.918579 507.710693 4026.585449 1446.399414 1806.368652 786.768311 2127.041260 4082.129395 993.133789 1588.855957 1697.924683 861.135803 1571.376831 1207.235229 2116.814209 1165.646973 1287.202637 1624.511597 4703.212402 1594.072632 1608.062866 1613.032349 1300.263672 1664.853271 1349.125977 1365.503540 1990.618652 2940.468262 3209.313965 1793.590332 1393.997925 1465.169800 953.443481 855.617432 1354.049927 1606.252930 1353.243774 1666.531616 1961.638672 1188.650391 2285.928955 1657.648438 1379.743530 1347.382568 2103.366943 722.331604 2142.090332 1398.807129 
/model/backbone/stage4/stage4.2/short_conv/conv/Conv_param_0 272.812531 89.379471 371.660736 164.408630 324.694672 234.420639 113.800201 196.210251 176.286545 103.540573 388.422028 116.323654 208.550125 203.325027 186.856308 334.820374 89.427101 184.476105 289.977081 366.752136 127.398941 296.997894 92.912430 178.632965 147.307434 106.942429 75.593460 229.902344 226.236496 344.913239 229.760818 200.197281 286.384613 223.034958 298.481964 312.494324 170.624771 107.185112 121.934235 101.652565 147.766266 245.173035 106.967377 322.705109 251.103043 112.640442 194.455933 168.563614 86.129547 332.423706 266.446991 110.698105 203.900940 269.416412 136.801178 252.474884 195.673508 322.199585 155.320786 259.717651 297.617462 106.445290 91.562828 134.738617 204.534012 333.661316 241.717697 371.396698 364.888123 420.392700 265.887360 236.205032 297.116150 318.083527 214.445709 167.390213 304.961670 162.875076 264.381958 221.199570 292.829437 88.031281 269.504456 141.586945 330.793732 129.969711 190.158432 303.580353 229.729324 82.602486 114.197601 192.683838 97.892067 139.668365 265.078339 202.687271 344.310150 100.721535 303.458344 170.869736 133.098923 195.934494 286.862885 133.128708 77.318398 291.910950 350.281494 295.868317 311.098572 115.734238 94.015823 280.749207 158.332794 197.633972 141.058960 188.107269 105.093498 147.636032 188.463104 63.838799 316.106445 248.398300 154.601624 233.263397 302.694641 208.241074 243.568909 225.193344 291.234833 199.328491 308.142456 289.462494 65.943726 216.471161 146.845840 263.669952 260.634369 271.407562 53.658974 341.361694 260.646912 342.315948 385.481506 244.464111 82.147484 271.520416 132.841110 311.417419 218.991364 247.731476 288.739990 100.122749 172.167175 153.406418 139.623734 188.942734 205.123764 143.184708 202.609863 255.025131 225.222717 215.321945 69.414726 135.482269 234.605164 216.303146 546.768799 217.875519 338.454651 235.587997 238.453125 417.408478 254.734406 98.366959 245.833435 342.268921 109.685028 272.614502 91.581604 371.267120 223.284943 240.687241 218.940369 390.558502 246.436035 151.005096 317.414825 208.166229 245.220871 139.990021 350.053375 131.599701 113.970154 107.663422 161.589569 239.591934 135.740799 245.187592 385.514557 226.937698 285.360870 275.604034 229.840515 343.447937 204.410812 126.962044 252.912445 108.908913 193.513504 316.652039 102.310333 88.884331 130.618805 295.757507 272.909424 80.417130 305.010803 348.251801 199.828888 251.809280 300.574188 139.979904 156.183762 202.955658 105.396187 186.775253 208.410721 217.142120 291.871124 216.531891 237.106003 286.757416 127.452118 99.964447 135.663055 76.851357 281.917114 321.032776 96.062622 156.532532 175.367432 232.650787 145.342361 240.464233 115.950287 148.075119 302.468903 136.174652 181.287964 382.841400 75.994019 106.006699 125.539818 174.984161 229.541092 86.467995 
/model/backbone/stage4/stage4.2/main_conv/conv/Conv_param_0 216.535934 221.008102 180.502502 185.373245 88.248665 169.665283 230.854889 206.737503 209.543793 191.486923 210.831589 151.237442 267.377655 200.736923 166.633667 152.647568 84.793747 118.083603 125.411537 190.644730 173.297379 314.193939 175.449707 177.954468 174.801178 196.979828 126.693924 100.695526 156.144363 100.311256 97.755676 175.683701 146.164062 172.873672 375.567383 96.391693 231.226578 147.589172 359.818634 124.077629 275.346130 159.749466 208.537857 209.855469 278.031891 178.782028 139.959961 258.190277 158.175629 125.803734 106.845367 187.364716 220.893036 179.290558 133.250397 358.380066 236.033463 132.683777 123.130676 100.381691 203.089584 173.141830 139.640976 92.342819 173.233017 121.687202 279.958313 108.630226 190.689011 150.334549 127.222519 262.819794 202.572906 126.273277 96.527046 213.886368 204.073410 129.157135 99.382393 148.479874 110.479439 127.974251 343.235382 148.824921 128.840652 110.170738 124.382637 236.269730 181.340988 172.652512 98.061989 128.804855 341.355560 135.449295 315.266022 187.622208 177.656219 197.828461 154.817535 229.689804 227.893570 193.371857 210.993408 102.191711 124.559433 283.845337 115.873596 71.494965 272.880157 219.026749 139.837952 235.567352 97.625832 157.338486 144.396149 151.558517 231.225555 215.491409 161.465561 189.800568 163.033783 168.744934 251.748062 138.735474 289.538574 272.555511 98.073326 255.880920 114.188240 200.558762 247.439148 155.327332 247.647537 236.580048 173.918900 134.281174 102.444977 140.587036 76.803062 265.860352 158.165268 87.315643 325.632416 182.451447 306.040924 133.998169 184.219864 128.243729 197.744736 139.251541 115.710464 147.497253 162.540131 159.856705 219.288361 123.346329 199.200714 321.292572 266.478271 272.954590 233.706635 109.909966 173.900452 120.410980 368.841919 255.462494 185.910522 156.516907 157.232269 209.241791 159.598190 137.887787 258.450378 194.981476 174.176987 199.537460 227.179688 305.234894 276.056519 187.847610 324.789032 338.934509 150.070343 122.134315 130.126007 191.963837 174.914246 160.213852 399.020660 150.386917 186.619492 165.875488 139.311172 188.103241 155.612259 126.299263 223.098846 270.566101 110.370750 89.571465 195.593948 188.084122 223.765305 146.676895 169.312195 182.291321 179.796738 190.201462 98.880440 118.890198 145.853745 121.338081 182.159698 355.802368 192.695984 213.706833 242.609818 127.636490 123.012276 214.302887 79.166901 84.914200 137.716110 205.662491 153.162094 258.810669 271.018707 318.700653 222.740570 245.871582 182.052612 115.328812 149.507065 174.068802 165.648422 108.383530 138.814987 231.070801 125.410118 186.054077 120.863068 170.878616 221.105408 137.413864 115.873016 157.390793 134.206390 156.203415 169.723236 323.825745 239.946823 207.141342 228.938385 106.604286 339.816711 221.936432 
/model/backbone/stage4/stage4.2/blocks/blocks.0/conv1/conv/Conv_param_0 1106.965332 144.246490 122.943115 133.818329 250.828278 275.401337 648.692810 311.179169 246.927414 283.732544 792.566895 144.331421 877.368408 201.577057 128.222595 207.682129 184.246292 152.785294 160.692917 185.392487 651.827942 114.234177 173.760910 620.718079 547.121826 215.627899 380.699646 271.451416 684.799744 99.615669 203.626343 142.483078 261.436493 342.193878 189.299332 91.345894 217.222885 182.800583 826.299194 95.364021 241.595947 262.084747 189.424057 228.249344 292.859711 114.458008 208.481125 126.366264 143.467392 168.291046 115.020493 130.431931 131.705887 129.858536 80.759331 128.664688 151.632767 223.799957 205.338455 131.750977 19.687840 323.356628 105.507835 272.988403 166.346191 146.035126 163.220779 191.235733 88.054237 314.928864 154.248550 316.618988 520.023132 242.346100 178.372116 556.317688 125.218742 158.031479 151.962509 131.585022 153.680496 389.661102 198.908310 165.823425 137.976120 161.980515 176.742325 113.424843 324.136688 407.488159 253.745865 165.463699 229.366013 144.869827 239.640259 374.296814 212.934372 198.083054 165.944260 123.008888 511.883179 171.665726 1547.599365 115.110336 117.377060 248.707062 221.291458 387.864838 144.885361 832.647278 195.604431 422.553070 838.219543 1194.419922 162.506516 560.704834 173.691940 256.963226 137.723816 424.791504 689.031555 135.092422 455.005066 2620.339111 164.626556 135.713928 3732.211914 223.154572 492.888519 125.990700 277.841492 299.841553 773.903687 108.083466 253.469467 196.960068 284.377472 4129.453125 160.066452 141.593948 4459.744141 293.587860 150.398224 332.710327 339.177582 323.948303 309.833893 169.939682 149.475433 855.370911 183.176880 1565.978882 300.108856 168.317627 156.895676 137.558746 146.111008 121.152954 98.411095 354.630310 727.702820 256.156982 115.632668 165.139557 173.271988 104.066338 62.848293 343.764191 190.764450 130.422104 424.223267 137.919327 248.542709 149.638794 118.582397 107.933876 447.852997 130.463791 196.463837 457.408539 157.051056 240.079086 1434.656860 197.291763 111.501495 200.915115 118.476120 705.888611 158.933517 192.961777 1038.519653 36.085499 170.475204 104.991058 388.327942 198.687790 215.602646 154.112305 94.606003 133.033722 159.923553 83.695900 210.701721 1489.161255 335.988403 153.000153 239.923370 653.100281 96.229797 515.763550 205.238785 97.391602 245.470642 149.114349 98.844543 247.496872 297.597992 333.340149 818.480286 160.208374 182.683899 348.794342 162.337936 204.886124 144.811630 203.131271 397.444855 226.895981 119.737160 186.319061 235.638580 619.385315 190.912903 98.654945 143.972549 141.488556 181.681839 292.297180 224.812881 205.632080 135.527008 406.928436 161.931885 440.942200 181.704544 387.386047 143.817917 156.751801 169.655457 1643.921875 108.981743 299.946289 91.541687 150.239685 944.856323 250.330170 
/model/backbone/stage4/stage4.2/blocks/blocks.0/conv2/depthwise_conv/conv/Conv_param_0 11.043860 95.218262 145.762650 145.874023 186.303558 51.131195 57.910969 114.099792 286.630249 80.532013 21.943966 544.371094 29.361404 155.315384 472.358246 141.196030 52.160866 214.032227 321.601440 95.054703 41.716042 331.219849 144.783829 63.092747 180.669327 89.985176 83.893898 72.277992 29.624016 320.083344 227.104019 189.896729 60.202660 117.662529 477.760925 301.234009 252.279816 157.335037 30.999994 166.259155 183.848770 78.603539 171.874237 157.409668 157.209564 185.450989 206.816986 72.173416 224.511642 244.378677 107.323257 140.620041 228.675476 124.229446 218.211639 276.530151 41.799915 198.652298 99.897774 54.517899 1631.705933 42.784565 282.957611 206.868576 399.724579 253.117981 110.566696 72.920540 115.009079 117.185455 293.084534 91.555847 44.588818 312.998810 173.869705 73.149620 83.769485 125.650093 285.873322 111.099861 363.386169 55.230354 92.920998 121.356117 306.304108 112.441299 86.371185 302.230591 107.144608 90.988228 272.975555 256.687408 226.310623 33.124023 52.487602 39.912540 180.471130 166.993011 155.546631 130.608566 116.155548 440.911194 8.171353 155.900574 272.216797 98.508163 73.621834 158.826172 311.418427 13.041981 185.393204 50.795433 73.477371 49.870476 287.989441 21.790022 70.635208 96.239319 109.921135 133.379272 26.228041 114.776443 73.497063 7.345387 244.862595 210.840973 11.716959 153.344711 79.589745 95.997009 95.425652 92.053177 43.897984 119.993614 90.508316 347.894165 226.866241 2.973769 89.244041 57.622948 1.949940 158.414124 161.156647 41.908550 63.985004 211.741562 132.138962 411.134949 583.229492 14.602901 382.880127 19.158173 225.786057 17.368372 107.295609 205.866165 263.406342 86.921974 64.164764 49.847256 57.544456 140.400620 256.648926 114.243126 38.453571 118.648346 282.114990 126.413582 192.543823 269.137115 52.458294 121.042580 37.815514 155.957138 154.869751 185.584167 79.615211 117.413368 126.421532 95.854897 184.566849 72.586288 12.365221 255.694687 290.646179 19.766075 401.347809 49.278751 262.185852 107.301117 21.453068 1306.462280 295.042938 314.136780 25.075468 100.532875 275.907471 305.899384 582.137695 100.213249 162.719803 116.989738 172.295151 9.481251 74.895248 192.503464 100.881760 38.095055 145.233246 137.875931 288.396729 275.162750 211.547165 308.355194 91.505623 350.771790 131.541687 119.715508 13.469878 154.374054 121.389427 73.936707 343.228821 390.096954 249.554489 255.775650 72.891624 99.122490 109.664139 55.582371 80.610107 17.707960 45.894730 237.083298 192.310928 248.289719 247.734467 114.786499 271.067719 60.582561 129.142761 28.052088 254.907913 194.097473 106.605560 44.375984 271.954132 304.306763 82.567596 30.374565 309.097626 91.073151 220.789551 263.005768 44.919205 135.818359 
/model/backbone/stage4/stage4.2/blocks/blocks.0/conv2/pointwise_conv/conv/Conv_param_0 75.015900 199.742844 956.376099 219.503159 766.487061 367.459808 216.920609 1046.962158 361.785919 153.802948 93.651054 252.132767 796.044495 188.317032 626.666382 377.023682 59.814899 182.948044 965.645142 782.284363 366.145172 108.091690 317.495728 1040.346313 564.623901 71.075539 518.610107 270.162201 1132.765259 351.828369 105.922760 600.877014 1013.231934 518.378723 459.238068 432.704803 62.845615 337.480347 772.127380 518.167236 91.596527 711.176392 477.938934 216.310745 205.682251 494.135406 297.522888 76.431252 701.346497 167.242050 315.391724 196.931381 120.508759 375.560364 752.366150 699.444702 159.276611 423.698029 464.774048 470.438995 61.040218 104.954262 417.420990 676.437744 635.867493 391.681335 987.135559 107.038712 387.965210 259.701172 1157.714478 397.911621 757.199524 387.275879 365.203796 630.423279 125.790474 211.696915 335.086761 511.383362 62.073357 546.365967 344.401855 42.211952 197.739853 557.482178 864.163269 286.820343 525.721497 632.653809 561.488647 509.993011 266.048248 734.694641 598.940979 641.387085 613.889709 88.426460 259.980804 1157.305054 550.097107 275.694489 810.403870 73.908020 251.370102 1110.389038 139.351288 57.729836 256.528717 1068.392212 474.868652 895.827881 39.860760 355.715240 558.338562 638.231995 601.994629 789.412231 669.814392 511.567841 270.768097 188.552750 480.151123 140.936829 85.218376 93.206978 733.777161 932.471558 921.408203 170.320679 987.905029 205.348419 867.113342 447.569092 762.738403 479.288605 90.605530 413.609985 1023.251404 386.468445 510.795258 132.063232 727.726562 664.312195 358.751129 655.160278 159.512955 280.619659 822.664978 801.937927 389.285889 117.977249 755.518799 76.229294 283.760162 726.774597 493.783051 65.043159 612.640503 202.137802 253.982132 558.020081 580.382935 524.575684 413.632660 883.979492 382.764679 505.358337 226.834732 701.837280 169.990295 187.327454 109.013985 131.751007 762.001404 417.979767 164.322067 140.393875 103.936684 125.526413 104.935593 1222.716309 684.400635 737.737244 208.465439 1265.690918 232.469559 933.391724 586.470642 71.883095 685.749573 338.714996 116.977837 719.062805 757.075684 200.405930 927.204102 395.530792 186.414703 956.684937 141.207733 188.385864 980.889526 244.506104 688.190002 487.458221 293.895996 269.045349 499.430054 256.500732 96.369545 740.752502 900.678528 937.316772 553.654663 753.310242 284.760040 212.881393 968.599243 190.129730 410.103058 153.619659 565.427246 158.588364 826.198364 154.453339 341.434265 128.386383 562.966187 450.070221 476.328857 261.898865 977.305908 128.104965 410.716339 121.791191 796.419861 119.455521 287.799774 315.801514 745.255798 233.362869 676.176392 249.522491 314.424896 353.935516 146.282181 707.260864 775.716431 729.172791 140.996368 57.753521 519.781128 175.910172 200.094574 52.114273 
/model/backbone/stage4/stage4.2/attention/fc/Conv_param_0 498.557404 205.902100 563.969849 119.879059 423.616821 241.352417 140.761505 288.390900 152.633026 271.666412 519.637268 358.511322 221.795151 362.859222 326.099030 125.426346 365.793365 148.101471 174.501801 447.019104 235.222488 474.947815 106.709579 441.869415 265.569763 533.053040 212.771408 114.383751 406.316681 221.006149 390.632385 361.640015 288.568176 118.358246 153.858566 239.484360 528.323853 116.609215 407.327881 97.687439 469.319427 289.296539 122.927383 214.383026 359.450409 130.902451 189.586151 574.526123 266.587921 215.506912 426.411041 390.862213 235.143494 181.621902 368.602020 229.608490 329.124939 345.115204 479.114929 287.493713 494.323303 384.944458 284.245850 354.823364 156.336731 365.784241 502.077972 85.281593 263.500946 68.131386 233.089386 297.250214 181.415710 118.523918 121.010185 472.064636 195.345551 200.865662 326.943817 346.034088 485.711456 181.618500 234.436401 478.033386 487.188202 263.025269 302.531067 121.416771 243.077072 361.259583 85.083656 168.210281 403.546387 199.350967 128.052948 188.558228 313.019196 448.888397 316.001709 72.718033 78.749725 216.269028 312.747162 478.632965 149.908737 437.647522 270.042786 467.771698 103.206718 322.754578 167.511566 300.705292 388.125244 257.316925 177.622711 146.746124 155.397858 387.608307 362.932678 304.738342 383.961060 92.986717 297.204193 317.585358 505.893646 261.635132 133.141022 499.014404 331.818176 316.508057 481.123383 247.861649 688.107239 177.865662 317.640503 271.559998 335.893677 191.973129 437.728180 419.113434 209.544693 233.219269 184.557037 444.892212 85.876587 598.601013 159.666916 300.923431 355.791138 266.990509 138.848618 226.928970 83.176270 525.568359 272.353516 241.582474 296.457397 408.288940 318.638794 135.428757 116.311058 271.827515 427.808685 185.811829 279.998657 224.488464 126.000343 401.316406 229.783234 76.090950 271.807556 66.522499 293.300079 225.982346 312.598541 156.079330 154.966156 175.002594 255.625626 195.620255 369.895538 164.137726 382.595673 435.791260 302.599304 355.997406 328.007050 411.041840 243.410080 530.648010 253.787399 339.656250 206.363464 424.125671 255.524719 335.173553 427.226471 295.721558 204.651794 417.274780 564.618591 283.848328 293.150238 198.319885 368.912567 285.927979 478.393524 175.805099 141.349213 144.209015 349.989990 332.557587 196.633301 411.156158 358.820557 285.839905 306.039062 181.347763 318.524475 142.035278 180.291077 251.663315 247.740173 414.314789 98.809769 178.223068 260.048950 234.705368 460.233185 79.655029 133.449753 95.896698 376.974976 359.705048 254.566711 258.149231 327.640442 270.676544 239.163132 81.886681 406.399689 187.321274 217.750275 132.560547 85.660271 130.823059 153.470261 310.839478 645.181335 235.553604 219.239944 364.518494 173.702072 270.134186 139.705643 256.621277 305.587311 125.895004 379.384735 99.073547 137.873505 237.654770 118.305595 287.520935 219.908371 299.056091 350.950531 192.471741 217.747604 120.116623 128.764862 266.180267 184.575607 328.074127 158.327835 434.462982 118.238106 403.091339 139.829529 325.323090 115.904221 140.264420 175.662125 169.417511 358.352600 341.903839 410.617554 269.354187 372.813019 191.880920 260.164185 392.550781 106.620781 131.362106 149.093948 235.507904 209.636703 323.336029 256.554047 380.923981 400.985229 151.507507 217.809235 148.056534 125.861610 376.963623 193.807709 183.450012 396.099396 394.505249 124.508179 294.941315 192.485733 534.156616 240.501221 365.761047 285.000519 151.043182 123.990494 261.591309 169.577728 609.209412 261.144928 454.389648 329.942078 336.357635 239.141571 229.256943 251.340973 325.933105 355.216339 181.034470 394.847809 297.524902 388.145477 317.113464 285.337646 170.262726 336.272125 297.418518 388.315399 72.712212 365.392303 311.113586 368.389862 186.759064 250.718185 256.437164 182.006256 230.018997 247.355179 332.432922 401.527191 250.195114 591.732666 234.227554 178.679886 107.199997 436.247070 84.448784 284.637329 376.066315 488.214661 310.497162 395.183716 309.983887 228.061386 366.276642 252.003311 345.558044 117.897507 203.486725 121.082268 198.348404 236.645721 262.705627 344.037964 247.939255 174.192917 328.064789 341.834656 239.333984 384.777405 341.541931 149.143967 131.692368 257.531189 190.032104 167.951675 310.900635 276.832336 199.187958 108.301170 279.222656 352.022186 291.746857 335.682068 433.928833 425.882172 391.176025 184.525436 370.935089 108.022652 355.970306 334.338287 320.440582 400.430725 217.442535 345.491760 218.577499 108.892319 262.443024 371.200073 207.659943 360.645386 177.795822 293.499115 224.034515 126.569336 165.441757 278.978149 108.559677 391.394379 176.019440 381.268372 384.453003 208.226273 170.599731 285.587036 150.869537 330.376038 526.387939 161.831390 401.149658 148.112320 86.324562 386.887634 119.894760 277.219147 350.215851 302.120026 344.593597 307.743774 206.077988 384.683411 118.146431 299.680237 107.054657 193.046051 245.820557 213.126114 175.120239 401.113098 222.748306 365.129059 199.540314 244.816879 202.195023 210.147125 345.476013 322.738678 155.305099 414.671722 127.664459 258.785980 316.374390 216.657120 103.251587 244.807770 297.531891 340.506561 168.755676 130.420334 375.511505 130.382919 318.214050 326.070801 76.960052 155.963745 353.101257 150.818588 150.768936 256.636261 177.538528 329.960266 358.886871 281.552917 442.150574 146.692352 143.660065 194.655685 90.864182 203.234299 184.765060 100.177589 206.432632 175.566177 132.443298 253.358856 163.940689 168.524734 405.919037 374.687378 316.221741 216.815216 425.419861 232.215591 225.441544 141.760376 246.994324 240.072220 271.395416 
/model/backbone/stage4/stage4.2/final_conv/conv/Conv_param_0 113.685997 110.794067 104.904625 180.706635 110.311996 118.513298 250.621460 173.767715 176.205200 145.909241 227.593643 331.047272 141.248230 182.628326 217.438065 164.735535 119.699074 220.636032 126.013626 277.538849 196.045181 177.417770 148.931717 193.807602 120.269073 112.836433 122.125862 244.367188 184.164337 200.368164 235.482056 79.258598 178.764969 185.052094 212.180740 140.256165 177.042419 215.908676 219.136108 187.724823 57.851521 168.164261 132.761444 86.471474 269.418915 163.788162 87.320175 272.000092 136.324417 176.494003 211.535156 169.641769 142.959976 164.778122 137.534256 176.177139 224.224655 219.637772 269.480286 156.453110 225.785583 91.279663 225.568771 89.896049 275.539276 218.745117 131.633789 169.722229 208.528687 124.289146 161.909500 145.891983 216.512299 188.087921 183.893066 185.266922 71.696854 174.465607 105.291397 197.713455 155.739532 214.336563 182.112274 153.006271 150.926361 266.733643 185.513229 106.074768 204.458221 195.687271 118.816505 208.052322 234.743530 156.662720 217.870712 144.947006 235.725830 199.118362 209.328705 210.931976 144.993820 242.967621 149.347977 182.661774 181.388351 116.069923 209.476837 154.070007 159.585052 248.154709 172.200073 218.998474 105.108398 250.427078 125.015663 209.689255 153.867935 252.316513 174.911484 114.497917 192.292099 56.197601 219.719208 272.165253 122.301697 193.572586 216.593521 202.361725 211.451950 167.659653 243.665451 145.418594 178.737640 280.810883 152.296600 224.020447 130.492249 114.366585 163.421112 146.661301 172.139114 245.649963 229.917374 186.841660 173.892258 141.834259 201.930832 181.820206 156.472137 273.904602 213.312881 122.656631 264.901154 160.125381 247.520721 301.450623 228.857361 195.136017 183.076477 254.110718 196.824234 116.573631 234.735153 201.486191 184.128296 196.491776 170.122498 166.141434 219.352097 143.107788 205.468704 185.135803 193.386307 233.665985 223.287338 170.216263 167.923264 294.128754 135.677155 219.462662 172.388870 209.877731 150.790771 123.051643 139.720093 260.824585 256.301331 180.054916 183.156174 148.151230 82.849678 118.691559 171.317490 140.198608 212.785721 190.246506 134.298615 135.200562 104.991943 91.379265 128.786148 153.770020 119.429077 64.629517 202.022461 239.330917 43.117504 203.201691 154.261963 232.863602 143.135544 214.721207 170.996719 298.226471 190.594009 88.915817 205.453949 275.520416 211.416199 148.150284 198.895233 266.214386 121.446732 181.388992 231.633011 205.681076 224.324432 110.916466 167.607132 294.717072 232.187149 218.116257 189.370468 237.457565 119.917610 121.366852 131.169617 136.665146 168.080307 91.539276 158.874374 334.285156 142.217392 139.330124 249.002563 176.661163 242.516815 200.303345 227.158463 212.405777 177.186264 109.712425 192.865570 89.100975 216.472427 175.905884 111.140121 211.787506 229.164597 126.353035 210.127060 219.757782 257.997559 203.660797 172.625641 79.082062 207.925705 139.059265 169.592026 189.769516 168.948715 167.495956 336.912720 159.689621 162.593658 186.810959 156.550735 260.383575 125.239090 146.096664 127.976341 335.265625 173.627045 206.865723 136.561951 113.863083 207.741943 170.019272 202.607956 200.620956 252.989349 98.973961 163.178680 133.638535 169.419968 118.154503 170.983856 94.904785 213.123734 156.716217 204.432770 82.092018 173.161102 123.933693 222.938217 162.244690 57.804153 161.529312 56.355145 157.605377 161.529816 118.302338 193.830200 203.332565 294.161835 141.043961 210.970703 183.033829 181.572525 121.773361 222.713348 130.458069 165.680801 117.698563 51.077755 100.719749 194.674149 114.670731 239.023849 232.887512 96.530212 211.917328 147.419052 174.490662 165.031189 223.114594 232.971100 94.006874 95.276146 215.394058 165.295074 184.195740 185.509491 260.990997 155.711319 175.725723 175.785263 241.437363 153.914749 212.565582 212.990219 162.729752 204.456345 172.921555 140.660736 254.117233 201.935150 175.981339 183.266251 200.236710 206.709366 166.475800 137.564301 109.187531 185.079758 177.727142 165.500275 205.221817 198.939362 52.855621 192.247406 317.571014 149.549744 85.167038 92.922043 217.404510 288.303528 131.852600 138.414825 253.428375 73.215401 212.866043 147.916763 172.772919 238.601776 141.408005 272.961029 170.267456 88.763542 173.740112 185.249542 122.889519 59.849091 96.149536 165.533737 171.499207 131.009232 99.986893 210.571533 178.089142 291.503601 184.581696 248.011780 194.829147 163.932907 92.756027 133.490753 298.145508 138.039886 203.030243 117.449516 158.697418 149.713287 162.925552 149.035828 235.779907 178.803116 112.198898 190.270752 173.571960 184.714600 246.515778 119.610680 312.421509 157.098557 226.657562 170.592529 117.644531 226.397583 122.707039 250.557892 256.072815 162.068619 229.864792 108.363525 176.237076 202.021866 202.509201 164.805298 206.399185 203.572357 184.934830 359.937439 177.710098 204.762711 265.584015 268.001740 172.342239 173.776138 219.816711 83.038048 147.568619 197.748749 74.582336 101.002007 179.297729 172.375977 145.119873 103.939140 239.484467 255.618820 91.938286 161.610153 190.039185 112.359604 221.860535 85.507912 86.337135 266.215027 143.304321 149.591980 194.750061 165.094345 145.974503 234.466980 161.887436 44.622448 112.056053 84.187691 209.272186 198.288071 103.455650 171.940048 103.462875 134.505112 151.358658 229.424805 142.320282 196.437469 124.760048 154.433624 186.044510 45.900627 227.950348 106.019150 164.079605 190.419846 181.486099 158.731171 177.037537 254.648773 95.737099 243.346558 155.619644 189.422714 121.296371 130.692368 68.309631 177.876419 238.179214 114.398155 156.851196 
/model/neck/reduce_layers.0/conv/Conv_param_0 341.954163 481.723236 739.563110 478.187225 572.937378 629.928223 460.656525 277.161469 649.787354 774.408081 658.214233 761.100952 475.831726 566.098022 658.584778 569.236328 487.593597 776.043945 542.256836 660.642151 658.029114 350.482025 430.644623 557.976562 874.443970 622.672913 648.866272 522.210449 568.780090 637.855103 784.825317 659.350403 542.896851 623.537415 597.534180 320.012726 717.018860 873.229614 340.924591 437.686707 643.866943 541.545288 527.647034 635.891846 629.252441 485.155884 717.107056 595.163757 594.175781 514.861206 591.664673 511.932037 404.823914 522.957458 694.631714 488.178528 468.489777 636.720032 515.326538 377.767059 662.583496 654.447327 559.954712 403.184509 397.444641 434.608856 399.990234 485.623749 440.976044 708.668518 818.091980 719.542053 578.110352 560.400757 574.473389 760.703125 386.257507 385.135162 231.392014 429.087738 655.251038 697.857544 849.363403 532.256897 480.212494 563.274109 479.345947 513.839172 562.172302 843.471252 438.257965 758.014526 438.423065 456.350494 596.879028 660.411926 901.274109 255.252121 395.404633 453.703033 462.750183 749.353210 438.901459 582.507874 461.895874 276.409576 388.042328 740.919556 497.727722 467.148773 509.444916 268.142944 534.268250 738.993713 828.575439 595.747437 582.361694 655.732544 525.915283 517.206848 446.689636 914.516235 536.652649 609.854309 501.458679 683.268372 492.447296 587.701599 497.749359 728.640686 487.488708 601.906982 511.397766 711.645020 444.817749 409.327057 352.100098 414.863312 737.983704 692.415710 711.220703 858.520386 659.310120 1028.286255 356.852234 810.023560 646.487549 704.288391 685.382019 683.140808 435.770966 447.603607 650.154175 599.898132 724.457336 663.248779 476.646820 647.013062 568.747314 749.515869 523.138855 403.830383 267.291748 471.238068 572.124878 437.072327 756.332825 573.212830 756.396973 781.440613 550.206116 532.512268 635.896057 502.993561 810.919128 719.140930 524.842529 464.835449 742.121765 311.470215 794.209473 539.394897 586.843445 857.524292 469.333740 632.582825 684.662231 390.244568 590.525452 563.336060 403.632721 645.893677 471.290070 511.674866 571.350220 584.921387 491.673370 588.301392 440.327850 784.435303 553.469360 515.115723 579.320374 600.941467 476.041748 579.152649 549.024109 691.742798 484.611511 575.378418 501.130402 468.259491 775.579285 661.449890 475.007172 553.536987 635.378723 383.276245 830.206238 836.883240 458.908264 540.802673 505.065979 475.863708 772.409485 611.821533 556.267822 661.552429 783.478027 502.997437 584.252380 526.644714 932.059998 397.653778 448.019470 362.470276 608.425171 503.001282 739.894104 547.267944 479.470581 329.095917 674.372375 552.909058 389.383331 505.812164 257.688690 444.182373 629.380493 541.989380 591.461365 316.459534 478.440002 598.943481 217.659164 421.319916 
/model/neck/top_down_blocks.0/short_conv/conv/Conv_param_0 333.255676 341.447205 484.565826 638.596619 419.336914 447.244568 558.909912 462.269684 525.029968 387.291016 175.914688 316.884918 387.419495 439.796722 311.705994 309.562012 357.458160 489.898895 220.801910 713.515381 369.114716 266.820160 261.574249 374.091522 392.939148 421.591919 472.010468 270.281555 376.598602 651.720093 339.110352 379.867554 300.129913 425.185181 693.102417 559.513184 448.561737 632.634644 472.065735 472.670929 311.126709 273.489197 343.048645 389.261230 539.926514 320.667053 254.227188 639.994812 230.111252 141.226089 455.460205 372.714600 544.467712 575.103516 421.738464 249.212540 279.648712 153.630737 255.015259 344.872589 587.571655 298.068878 218.142029 319.229889 431.788330 509.528412 313.147705 409.696289 326.192993 383.997223 313.911774 303.252289 429.162384 220.515259 585.000000 671.183838 469.574432 102.230057 277.493500 356.377899 384.407928 476.812164 318.576019 458.985596 516.673157 515.774353 607.638855 402.723969 445.889801 299.230377 244.537796 380.434753 314.721191 291.435944 382.298309 306.517914 372.996613 625.698425 491.287872 544.340820 382.135376 508.380890 604.549866 401.346924 348.932190 388.543427 370.578888 508.397644 552.888977 403.623291 531.714905 434.937561 525.265869 520.073364 449.112488 359.847992 295.318573 205.775192 367.152435 447.031433 356.219025 357.233215 781.485718 609.342407 386.956360 600.080994 334.460602 475.074097 
/model/neck/top_down_blocks.0/main_conv/conv/Conv_param_0 369.208008 358.217529 435.262482 348.749542 438.402405 552.016052 438.055389 386.717804 751.470825 297.250122 263.079315 358.863464 325.174988 275.519745 294.795898 419.678497 407.696136 323.832001 300.102356 387.047363 520.116150 401.661377 380.911957 254.111755 280.389343 781.462769 363.695312 743.022644 358.700928 383.299377 476.400238 324.833862 405.918427 167.449188 311.412628 336.366882 811.420288 790.689087 616.538269 308.388153 693.712524 364.480896 300.070343 349.078125 192.931351 317.583038 258.545410 329.834686 246.308777 463.051636 148.565857 245.039703 399.153320 310.931122 650.010803 152.912369 487.695587 176.057526 97.982033 284.165375 616.926453 291.122864 208.577469 269.299042 659.060242 743.175842 273.550964 105.722740 481.308868 588.115723 407.891052 351.072052 376.609314 347.846954 251.037445 265.167297 262.388519 368.884613 277.504120 318.681946 387.283051 404.997437 564.799988 116.205765 530.599731 336.171265 264.702850 284.941711 195.171082 219.137375 446.455414 358.309814 331.805176 422.788818 493.589661 217.648926 394.106049 427.902740 320.338470 228.538422 239.475143 410.613708 470.935608 382.194031 357.927582 293.376312 323.121704 308.487610 370.019073 257.211731 208.861984 329.813538 624.996826 314.284668 326.907135 151.624847 478.530029 257.973511 208.896408 282.994659 274.539581 682.857971 179.407913 335.490814 533.783508 304.582733 338.007660 162.616211 
/model/neck/top_down_blocks.0/blocks/blocks.0/conv1/conv/Conv_param_0 266.971100 1173.038940 397.939240 174.610138 193.858276 213.579575 123.665176 90.788956 152.746002 120.958870 218.967392 94.926903 92.927139 2021.060669 659.496399 161.123535 277.630890 111.069969 154.748230 76.434479 85.582733 140.963776 307.974884 260.979187 176.172409 421.360168 127.262817 89.148903 189.462097 272.555054 117.969841 210.887726 174.637894 137.313522 149.947006 131.731659 228.348587 239.417664 109.272614 735.095276 142.831024 154.395218 293.468506 785.385376 1797.769653 100.877678 85.738571 760.652527 70.310829 1959.025635 186.724335 253.579041 1070.948120 506.116241 143.533386 218.720734 105.466400 241.076752 110.233749 75.414368 479.369019 159.810760 717.243103 855.998169 237.572815 556.604126 87.926468 1303.095337 321.102112 157.911987 847.307312 150.721024 102.637444 745.234070 108.411079 54.301659 154.551361 166.599014 58.986492 134.551437 48.440636 618.061646 136.506744 214.845886 114.497833 203.809479 94.838142 1016.586548 133.220306 2053.039307 2335.741211 174.342560 3885.566895 150.443726 226.186127 203.384506 230.834763 297.351532 107.550125 1056.362183 745.539185 172.680481 409.822296 88.737877 177.363434 175.906418 1881.407104 453.006012 292.430145 133.033417 272.202881 279.042328 293.309204 210.633820 1045.721802 304.130341 626.511902 258.853760 1347.489746 196.464798 203.690872 233.253586 108.196945 104.103325 306.509796 315.424683 917.991089 137.269821 
/model/neck/top_down_blocks.0/blocks/blocks.0/conv2/depthwise_conv/conv/Conv_param_0 302.182587 8.581142 59.351734 142.712952 61.065170 65.631889 166.704697 99.774734 65.886375 106.869629 325.572449 177.638245 173.424240 6.821005 11.786434 65.726151 56.880142 157.127502 110.089539 101.374756 61.946365 293.863495 81.118736 24.917980 96.350372 18.988842 157.441650 74.675385 72.485847 66.727539 112.663467 28.919018 60.462463 50.545181 281.284760 114.974854 70.150047 52.189579 135.814697 17.558275 48.455662 91.336792 90.866226 14.288527 7.725225 223.424484 366.970642 26.818546 170.211960 7.689389 67.332008 114.239456 5.871635 29.973360 58.618813 94.385071 49.092068 131.693817 66.717773 92.480034 33.832088 226.086273 7.755900 12.266340 88.020226 24.811241 172.063568 6.319619 64.137131 213.536682 10.071969 88.436752 147.599045 22.146393 200.686172 340.068085 103.758034 99.603828 606.163025 131.705841 104.833107 24.193970 123.954597 92.213333 264.790283 354.197266 214.258011 7.771327 232.580872 5.968170 4.002795 95.548431 3.593508 91.985504 66.753403 322.335358 32.538166 117.643608 32.225372 12.638843 7.828037 73.164886 24.860004 65.688690 156.286560 88.269394 12.821799 57.042721 31.747351 111.512047 107.039627 21.422642 53.132946 41.532486 4.812409 100.313850 24.815235 53.848618 5.435982 43.794201 96.579674 42.834415 187.459778 146.545258 63.211838 118.949722 7.675865 78.132317 
/model/neck/top_down_blocks.0/blocks/blocks.0/conv2/pointwise_conv/conv/Conv_param_0 361.097565 698.558716 349.822998 309.927917 288.460663 474.746979 450.953522 439.573425 164.383682 363.971863 668.071289 380.168304 597.949890 212.019592 361.489868 765.989441 616.019653 402.163788 333.041168 531.605103 319.225189 484.899078 316.062500 675.789001 429.124634 288.654510 245.702118 381.147736 771.770081 537.951294 229.499176 484.713867 304.819702 352.426971 328.782318 407.381165 358.257721 214.993408 352.031952 499.684906 327.505066 448.284607 542.429138 636.820496 511.991638 276.463013 657.871460 167.197495 781.986389 456.395264 442.954834 582.299194 378.709015 406.840271 315.619110 216.647537 590.756714 534.993408 449.282898 627.432129 699.091064 503.848358 490.530975 520.106384 350.405396 583.131958 620.360535 440.757507 478.587769 457.734192 390.682587 456.065704 417.873932 739.860107 248.477036 660.528625 427.451080 448.359131 581.069580 301.987671 407.340485 355.597351 491.617920 476.404968 441.311401 234.796707 453.026794 587.470398 280.645111 245.343246 297.450317 296.304535 791.199219 438.939453 501.238129 437.323975 709.153259 553.498535 616.846313 723.885620 819.150879 369.196838 316.598511 368.164764 395.999329 349.339966 720.312683 365.642090 243.966095 263.524292 421.383392 409.045563 466.385040 211.934570 624.602295 315.543518 468.204041 313.142883 518.246826 477.375366 653.843506 232.836411 340.881165 690.620239 500.698334 679.819519 869.640442 380.459412 
/model/neck/top_down_blocks.0/final_conv/conv/Conv_param_0 174.441650 197.195221 362.589020 350.406982 248.740707 214.749878 325.249725 441.157501 292.010162 366.129608 449.695923 365.533081 244.528503 373.163239 352.204712 319.688965 376.836456 309.703094 154.821182 309.752533 337.146729 129.212601 212.297623 210.654236 286.819763 179.627991 286.149628 306.947144 390.024841 284.850067 557.322510 215.878418 382.403442 334.975647 392.794281 367.589386 267.928223 251.405441 354.593872 371.499695 401.485962 276.324554 345.210693 295.473022 334.028961 279.403259 313.367767 331.781952 417.696259 475.403595 266.695923 271.379303 261.896515 275.939728 310.239502 323.594696 242.373535 572.837280 381.470551 291.390625 199.521774 163.164597 314.195282 200.135208 225.815369 274.037628 295.998199 467.055695 474.308197 265.279633 452.611786 326.021088 349.156860 276.331421 321.173584 345.393768 320.867798 315.246796 418.189331 374.209534 440.372620 538.876953 300.923248 232.470459 384.151489 604.884949 282.949707 233.017700 320.477020 292.577301 245.181107 323.840485 337.794922 299.306854 286.600342 293.193817 275.045532 330.368103 215.515259 247.449875 414.325348 305.695282 172.783844 289.269012 483.295349 243.173035 268.501312 497.757477 217.730408 324.511780 282.177704 340.636993 228.895935 436.200317 204.817505 256.643890 288.761261 258.105682 360.668335 311.660248 348.031128 435.919830 192.219910 230.531113 235.748566 402.993774 175.650009 225.613892 339.707825 349.044525 242.030212 536.033875 315.060486 333.668365 350.602692 268.819214 310.064789 213.965408 264.439636 330.448975 313.104675 293.915558 411.581879 251.141800 365.389069 261.405731 289.090576 332.424652 270.149414 177.027298 226.331802 213.096603 229.569778 236.816986 261.226898 220.217590 321.034058 444.875488 275.081543 346.225708 289.419617 433.147980 281.688782 169.241974 603.873962 324.814362 303.136047 248.504532 323.791962 272.054993 306.456543 243.916824 438.529968 136.109528 258.762543 342.772156 334.010315 279.329285 197.063187 100.560661 388.842621 267.784393 248.252640 257.026154 145.779266 343.778229 210.979813 390.024139 230.691330 488.214813 175.835999 287.774872 455.534088 327.058655 299.181000 319.507751 362.798920 400.345367 384.837006 291.391418 605.277039 291.404724 374.742035 358.723602 111.007355 167.384293 402.407013 181.331329 268.981598 289.966095 271.690735 316.229828 226.149002 300.627808 285.222504 311.413696 275.886414 225.275467 266.195801 241.922989 307.480347 243.238663 285.556396 293.411865 404.303558 347.206482 221.524475 373.785645 258.589661 218.009659 330.465668 253.728836 433.730042 285.363129 366.267639 238.204163 420.011627 410.488647 147.312683 278.951447 318.710083 253.226486 201.557846 291.141052 194.265137 343.025055 405.424774 386.110657 305.378693 369.109070 271.009857 315.427277 289.076294 305.257538 307.118530 241.707031 
/model/neck/reduce_layers.1/conv/Conv_param_0 457.890350 325.586700 298.464905 267.835175 373.921844 237.311218 360.974884 269.985138 282.733337 368.552765 220.012665 414.109497 251.386887 331.124573 301.285675 466.183350 315.876831 507.470734 489.898834 550.036804 341.204346 391.917816 259.717865 321.983246 354.724335 269.473602 403.214203 399.835480 413.633118 416.060638 419.034210 431.756378 295.511200 287.232697 409.942108 427.943787 445.559021 426.797607 347.625458 445.600891 626.161743 278.711487 333.890686 268.725311 529.430786 326.305389 331.946747 498.778900 310.877319 417.877502 367.020874 404.400665 553.260864 563.323730 268.490082 490.626648 241.157013 369.964294 330.528412 379.703583 350.989563 217.370422 364.423859 499.716736 273.619080 393.232117 275.550507 389.687195 370.841919 436.790466 309.714844 431.196503 404.825989 397.842926 434.763611 520.517273 247.192307 473.655212 318.414917 203.360336 353.908051 441.406219 618.087830 284.527740 177.383408 615.521912 381.551941 261.739471 417.825714 406.771271 531.443359 252.643158 360.383911 255.664215 495.207123 299.139954 609.082825 348.325409 467.868713 555.438904 356.027710 228.943878 348.841339 323.273621 286.396973 473.735779 464.799866 488.665497 315.709106 261.901611 550.432922 259.951416 331.198608 333.542755 339.662567 644.977539 452.391815 275.812958 631.406860 329.424408 433.826874 485.711090 359.020477 441.819336 272.213196 420.397400 491.219910 286.803558 
/model/neck/top_down_blocks.1/short_conv/conv/Conv_param_0 516.879089 292.477295 207.825302 321.830078 356.741913 598.121094 276.044678 273.978210 181.606812 437.268890 674.576477 181.427597 554.727173 519.771301 321.578888 202.405807 324.450226 87.049599 107.729042 297.162750 381.906921 471.573730 459.669098 440.689148 587.994446 329.720276 499.481445 220.052780 461.220428 249.832962 160.450821 345.592285 453.488312 364.069031 617.776917 631.088074 105.003685 624.630005 225.121796 295.574402 136.631836 649.727844 396.686768 155.136642 278.202026 273.515808 275.570038 543.220520 192.339508 389.757782 547.741760 526.622864 184.487671 122.665237 533.244934 427.026611 462.128479 647.034119 554.864014 229.661652 328.062103 540.853333 330.656464 179.044189 
/model/neck/top_down_blocks.1/main_conv/conv/Conv_param_0 385.470337 268.221619 465.166931 353.137665 452.955780 875.310303 260.709320 424.193817 228.406784 92.805977 121.283783 508.530121 331.465485 424.707825 227.249512 327.524048 496.838867 343.826752 217.898438 848.940063 427.157715 375.369049 275.626160 476.806763 345.458771 482.821991 167.745499 596.483032 149.226151 563.178040 230.172760 378.764252 353.794159 184.334763 383.187775 355.465485 251.135651 272.654297 335.452759 512.797668 244.374725 406.460785 997.984497 272.270050 231.033096 757.218201 783.012146 1049.114380 459.099304 314.545410 302.514771 951.590454 173.824158 523.397888 341.924713 357.415833 248.440994 727.377563 237.149414 185.833725 302.082275 470.557587 479.505219 279.428619 
/model/neck/top_down_blocks.1/blocks/blocks.0/conv1/conv/Conv_param_0 59.060368 46.910561 165.940338 51.914135 100.572655 62.952995 38.497181 251.505478 57.847881 788.965149 118.755539 49.631500 33.907867 35.950027 87.247597 50.103180 91.741547 65.942680 1010.539368 81.188896 94.653549 87.967003 41.894115 128.664703 40.391335 69.123848 49.235409 36.014305 40.886353 60.962879 44.945518 1128.941650 30.571419 50.053375 782.302673 210.836273 97.048744 50.555599 65.784767 52.311569 53.125542 31.628372 1702.086304 52.964500 36.301277 51.693790 105.636688 225.365341 190.176315 70.795029 53.087502 65.506691 51.884396 44.130936 90.331009 1610.845825 54.262306 66.661179 41.552284 109.381027 83.695969 65.617393 43.778885 80.830963 
/model/neck/top_down_blocks.1/blocks/blocks.0/conv2/depthwise_conv/conv/Conv_param_0 153.132355 101.146194 86.975304 42.209419 75.731522 68.069252 40.362183 82.708755 111.660645 23.229435 99.869637 415.895325 111.263809 57.978142 151.134293 112.357925 83.484612 213.754654 6.814167 67.554756 142.127319 228.542984 57.907417 112.190399 155.579681 118.117592 122.849350 109.641953 188.676361 136.661499 94.057587 19.972456 67.043579 105.497993 3.719911 18.868958 540.018311 117.081612 77.627678 79.408394 95.020752 128.003235 1.824840 182.239624 244.131577 99.920090 340.068298 41.128223 31.640053 114.930008 48.557110 116.445335 108.535721 106.265823 145.438293 2.033090 151.423615 112.788094 137.224243 77.749550 44.361244 97.166458 155.518616 82.149292 
/model/neck/top_down_blocks.1/blocks/blocks.0/conv2/pointwise_conv/conv/Conv_param_0 127.189842 143.546906 66.932297 207.118698 390.077698 142.049957 248.331680 204.621216 111.655121 269.110687 318.490265 241.629898 68.634209 161.352234 195.057297 353.855865 131.244736 66.935097 147.554291 220.734756 121.816093 129.481766 62.627026 131.298248 291.322083 292.417328 171.725143 196.273514 399.770477 194.945038 52.214863 177.501541 135.551971 84.176712 46.829887 81.056465 118.021950 79.674820 90.091217 46.466568 208.087708 214.549332 161.185150 173.187561 134.274719 159.394623 54.453384 92.798340 150.853882 143.319809 135.936523 135.048737 55.554211 140.394638 316.241211 162.146072 70.762993 221.451630 247.808609 301.496185 87.551453 83.546112 118.766777 84.227608 
/model/neck/top_down_blocks.1/final_conv/conv/Conv_param_0 178.055115 104.131958 321.111450 125.438843 202.546722 220.631485 457.217499 177.580338 202.606140 245.572708 623.072754 174.868790 137.978683 520.381409 202.624390 653.982056 563.266052 302.073975 357.300629 262.942230 161.697906 689.173828 264.547913 257.430634 244.332779 211.477463 482.537964 174.830032 306.633850 510.098633 438.675476 244.112411 408.232910 790.440735 240.396759 527.535583 252.898193 122.224525 160.583160 285.930237 186.666733 378.722717 171.048645 254.007294 247.914917 211.923401 428.417511 175.403458 402.672302 210.089066 186.990356 466.463165 174.956848 182.039780 211.515793 294.921570 319.042694 834.124695 650.401001 551.443481 367.963837 191.559387 199.343002 620.743103 369.584259 187.278778 169.362137 129.717453 219.517471 220.933380 215.879456 259.382111 776.931580 420.634064 165.687271 128.735977 340.803162 486.145996 265.578369 254.974533 253.732285 736.612915 200.780228 114.078072 348.771179 118.872864 352.026031 308.700256 235.322159 448.278809 644.287476 403.252960 430.701324 483.179230 364.466278 225.718216 189.553299 514.083862 329.172485 202.018997 112.541740 211.420364 367.614136 219.561081 129.991104 304.333099 352.447449 650.387756 227.866974 281.469696 339.489105 464.377075 201.258957 207.652710 348.889862 236.965851 157.537384 87.433060 609.006836 162.839752 385.483459 203.989807 189.382980 319.332581 181.592438 124.695152 311.002838 309.329926 
/model/neck/downsamples.0/conv/Conv_param_0 414.227325 387.075714 246.209030 822.441833 262.684296 193.435059 569.735718 462.220367 311.013977 231.826904 363.490356 405.950806 218.644791 376.380219 369.111664 490.424896 941.722778 474.229950 372.124298 615.331238 221.738205 755.327209 499.501770 158.442108 254.974838 296.311890 539.287292 289.203339 435.823578 294.278839 707.478699 233.208679 402.844360 290.671143 319.492523 562.185608 484.617859 290.019440 226.847809 323.280792 280.835571 333.154541 255.327866 189.463593 833.351685 291.053864 214.616440 414.389679 547.257568 718.614807 293.028992 487.152008 240.654053 213.644028 536.162781 616.009827 285.299591 365.574707 329.626404 413.944244 237.887497 352.493195 603.128601 721.085388 323.696686 510.051300 325.821228 650.087952 387.885071 590.991394 558.938538 274.527985 219.417450 323.027008 456.689972 404.789154 292.546112 308.912415 336.955811 409.848450 262.737823 1000.969604 449.255920 303.983612 295.607086 480.315399 302.715057 344.161804 299.994110 305.109344 430.206421 411.963715 408.842621 283.604675 390.854858 365.361115 571.169250 359.121582 321.794067 910.723511 382.529297 590.262512 445.754517 391.232452 210.079514 299.404236 343.449677 527.836182 285.539734 331.577057 314.647278 319.165802 621.780823 413.995392 382.806488 338.588531 301.924316 400.586029 209.079529 323.709534 252.272354 498.072174 316.956787 258.394257 579.000977 267.267303 428.495453 277.128754 
/model/neck/bottom_up_blocks.0/short_conv/conv/Conv_param_0 131.573959 190.625732 355.542480 343.032288 354.690033 274.634521 246.373718 268.079620 262.292114 162.977234 289.097717 404.916260 226.084427 192.084137 230.434311 167.644577 221.698715 129.903275 158.247253 252.097656 395.056641 343.885284 393.003479 148.665802 267.263489 319.313965 570.912781 482.823883 297.026947 165.635071 343.239014 204.087601 598.860107 334.615692 216.597168 356.097076 164.664368 143.413666 161.827774 282.568176 234.354477 179.109573 177.435211 103.738625 234.218719 194.065262 261.640900 243.977737 347.175659 214.956238 380.800690 155.946304 473.910248 228.942154 520.840759 202.317352 315.238251 259.383820 166.751526 240.158966 277.591766 426.405518 234.725082 189.658798 322.641693 238.196548 204.932983 194.043488 379.618164 424.056610 276.934082 217.351822 191.603622 255.160080 657.847046 300.118195 166.174973 218.035538 553.092834 215.235291 244.797775 69.476540 297.801758 414.259460 241.615570 365.342255 400.038574 189.058929 211.743042 403.951538 209.789124 140.679199 155.258072 212.535507 169.593002 233.897797 218.874374 313.677704 281.340942 236.505371 377.839172 204.529358 248.450928 352.539368 261.246613 356.409088 258.352203 307.609772 198.728989 225.524826 191.526535 436.258911 267.510010 275.658203 420.465729 234.247925 271.340881 219.613861 256.205322 132.138107 233.016937 501.178253 318.731537 518.333984 210.417496 148.922241 222.458710 252.973160 
