/model/backbone/stem/stem.0/conv/Conv_param_0 97.575172 137.382019 104.284386 171.307770 77.242287 64.582771 66.285980 126.879723 65.101891 155.990097 228.296188 131.760681 273.412628 92.015068 145.667831 98.091545 
/model/backbone/stem/stem.1/conv/Conv_param_0 18.935034 114.902840 13.074370 27.956507 32.271111 23.058023 15.291401 31.868919 45.627930 79.393990 10.556212 35.578445 48.522987 41.030056 39.146954 14.533458 
/model/backbone/stem/stem.2/conv/Conv_param_0 26.363987 21.401011 20.477678 25.081341 22.741934 55.189293 21.456995 16.912062 11.649771 8.469172 21.469522 12.129766 18.730974 48.509953 27.048880 13.681322 28.803192 30.073828 17.330576 18.204468 8.736179 11.059398 8.153547 12.557167 13.746279 28.053289 59.741043 94.260796 23.202667 8.670881 109.154800 14.240113 
/model/backbone/stage1/stage1.0/conv/Conv_param_0 1161.772217 535.081116 861.836182 1371.615112 945.985229 1139.733887 893.576355 1271.682373 550.983521 717.693542 621.972473 1165.574097 958.085388 1143.490845 1331.520508 1433.630493 1084.680420 1370.158203 1261.963745 784.343933 800.651672 867.014343 881.318787 1152.665283 602.998535 1260.375977 605.454773 798.351746 837.418091 984.624939 1599.861572 1012.310303 745.747437 456.860291 987.562683 1347.289673 840.886902 775.548401 1523.638550 1105.890137 1204.117920 1428.892334 987.760986 838.984253 810.415466 644.669983 1467.324829 751.427795 1227.997925 1276.491699 970.901794 846.306396 1511.190308 803.056396 1109.127319 838.581177 676.689392 690.529541 911.567627 857.374146 999.695801 1711.356201 642.788391 549.708557 
/model/backbone/stage1/stage1.1/short_conv/conv/Conv_param_0 171.845734 408.947052 476.426788 683.208862 841.423523 860.182556 1852.761963 909.047180 796.709229 681.521729 662.509888 848.438110 473.898560 1268.692261 761.882874 276.645172 742.821533 347.958069 1172.863159 482.772705 128.693619 628.078003 193.884033 288.121429 225.904892 608.154846 1028.630005 346.602417 422.240601 240.545624 1965.225098 484.429871 
/model/backbone/stage1/stage1.1/main_conv/conv/Conv_param_0 1155.860596 2158.363525 1844.705444 1359.901489 2081.813232 1337.557739 1014.852844 1166.697388 1370.830933 1028.774780 3084.962402 1310.443848 967.662903 1452.899902 600.771606 1308.819336 2799.509766 992.201904 666.214783 1399.198120 590.326660 2840.655029 1239.716431 1133.252319 792.978882 656.967896 1446.047363 1885.822632 1340.561157 1832.807251 613.454163 558.691223 
/model/backbone/stage1/stage1.1/blocks/blocks.0/conv1/conv/Conv_param_0 58.024693 26.051601 175.423431 85.485420 697.781494 59.950737 987.476624 55.853043 633.037781 145.001404 123.538986 95.278648 3.135356 47.222050 40.079758 219.834244 165.561478 115.187645 91.303818 118.741142 305.999512 12.721725 50.855827 30.907806 7.634123 96.739975 35.550880 37.625854 83.802834 289.655731 74.895203 19.798368 
/model/backbone/stage1/stage1.1/blocks/blocks.0/conv2/depthwise_conv/conv/Conv_param_0 30.236130 63.082787 41.097576 18.476789 2.846527 37.244431 1.679705 25.385595 1.022803 6.833047 4.172724 7.821705 843.713745 7.202730 32.884254 4.488337 7.212738 5.606072 1.755362 17.945553 4.747724 957.606323 36.874004 108.067001 1495.705688 16.638464 64.969337 40.382473 10.963194 6.514311 6.935320 92.899544 
/model/backbone/stage1/stage1.1/blocks/blocks.0/conv2/pointwise_conv/conv/Conv_param_0 328.676758 651.901855 707.646790 538.136353 223.306335 400.714447 458.942749 793.835388 1183.798706 587.342407 407.372955 94.117203 673.027100 228.629425 768.677612 1305.568481 349.189026 851.840881 971.592896 417.492950 1579.268799 734.367554 316.245270 636.830444 919.117188 519.368896 1040.631714 510.146790 488.639221 370.002441 408.696411 651.776489 
/model/backbone/stage1/stage1.1/attention/fc/Conv_param_0 329.917114 1757.544434 110294152.000000 47803.593750 98195368.000000 944436608.000000 3282509056.000000 278.450226 368.482971 3218884352.000000 356.106842 287.293549 336.655914 323.651886 5648.803711 2291.107178 35587502080.000000 277749530624.000000 28740767744.000000 463137184.000000 4071957248.000000 52303424.000000 266.843414 2158.853027 6120.999512 130.306381 183726505984.000000 272535388160.000000 321.451569 28278.843750 329.468811 251.390854 752.742981 365.277496 227.669495 2074.928223 358532939776.000000 230.987808 9575.548828 7987.470703 302.455322 172.078400 220.229721 3555.498535 222.698502 143775.140625 2195.616699 239.042786 331.630493 281.198212 1276.179077 98.332558 280.108643 19182.337891 336.831329 214.813904 241.507355 269.490204 237.540390 157.283249 252.956589 326.115265 1376.605103 484.447662 
/model/backbone/stage1/stage1.1/final_conv/conv/Conv_param_0 62.447025 158.248199 45.972038 136.014023 80.306946 49.886726 77.322021 97.882759 144.660538 90.328468 151.015762 80.258934 79.709396 77.522011 89.149788 207.280899 135.735458 91.867165 84.285339 253.863968 118.780899 163.380188 103.433968 153.717743 108.403084 100.653824 109.322922 162.569473 105.678513 68.618004 84.994781 68.834587 102.615692 62.226185 154.312943 88.854500 93.065056 83.189850 117.671951 99.629242 111.383072 217.943314 107.228630 111.970551 109.525452 68.245384 187.303680 106.309402 115.506966 128.161743 58.405449 124.893272 113.949829 121.224976 144.693436 178.511810 43.693802 124.401436 80.283165 149.922348 69.898628 170.480972 56.669323 39.252171 
/model/backbone/stage2/stage2.0/conv/Conv_param_0 522.672485 484.618988 657.186829 1375.058472 395.265839 1147.854370 605.637268 659.145264 496.181885 1002.222229 1316.637573 629.126770 551.498413 339.812042 676.964417 342.868958 531.196411 449.220428 428.797852 362.098480 743.651794 1340.101685 403.276794 653.088806 1807.805542 301.375458 509.921204 496.569885 348.176392 723.023254 389.178223 652.155029 431.790283 351.415985 408.840179 642.300171 459.660370 138.512878 283.606049 634.889526 577.223022 226.332092 613.840515 1186.863525 559.820129 591.673218 1172.337280 483.822021 319.513031 1555.783936 427.073639 285.553894 725.042236 752.829773 933.729675 523.835815 583.518860 258.602478 577.437927 356.466309 524.168030 452.191254 495.745148 444.586365 383.451355 498.164124 499.105591 406.801392 533.987183 701.066101 414.762512 535.638855 544.388611 318.774384 840.163940 448.572266 623.337524 689.431702 2191.950439 600.138489 701.514038 461.886383 434.100464 523.050049 402.806244 476.872070 513.493042 499.572601 475.961456 1422.761108 507.855988 333.535126 1088.299072 647.970581 647.460144 469.472565 710.084534 428.130341 1201.120972 801.635315 535.258484 291.775421 297.638123 519.470581 1423.012085 419.803833 637.832520 1562.482544 522.956726 1099.671021 1462.829346 819.707336 404.580841 534.587463 501.762451 497.231171 313.075836 534.833069 862.705872 938.010315 458.836517 325.713196 590.394409 573.593018 407.900024 628.211975 518.207092 375.489868 
/model/backbone/stage2/stage2.1/short_conv/conv/Conv_param_0 43.768559 438.108948 164.386154 467.199463 588.187561 370.152405 166.437424 373.583435 385.278381 72.534424 35.803047 131.490936 111.947586 177.773636 306.193237 26.935894 344.566315 135.723038 200.285995 237.645630 60.724171 115.412956 230.759293 81.165733 132.977554 240.507935 265.890808 41.991016 43.900322 77.657478 72.430824 190.012497 133.411896 458.082855 53.290550 672.288391 44.016327 46.573471 92.896324 105.607231 48.577110 381.835541 32.742886 92.809631 84.545639 342.891571 143.077148 528.452209 267.270660 55.090580 338.654053 389.919220 62.846867 76.246628 37.568039 90.858467 184.836578 152.123734 35.551617 57.631470 560.176636 38.352276 202.424835 88.822449 
/model/backbone/stage2/stage2.1/main_conv/conv/Conv_param_0 888.816772 448.160156 276.376617 597.493042 194.459869 817.635681 476.923218 253.913940 285.464874 638.905396 316.073486 924.607605 236.062073 229.141037 666.068298 206.437698 525.850159 231.711990 381.988495 578.496155 397.312378 181.624771 369.815582 421.906311 1149.945923 224.650696 204.844589 167.687393 161.868896 234.686676 389.466156 525.328857 547.936829 557.346313 526.534851 161.815964 620.438904 600.722961 267.518707 227.681519 192.993057 459.611633 1446.377808 378.074249 427.849762 208.280441 158.022934 468.214264 364.304565 478.670166 256.677582 496.725433 327.024048 619.856812 283.991364 1009.920227 638.703064 142.036606 242.965698 345.552765 242.290436 597.126465 287.463226 224.204544 
/model/backbone/stage2/stage2.1/blocks/blocks.0/conv1/conv/Conv_param_0 44.261452 174.936310 1095.829468 126.982483 12.982786 25.594784 625.008057 77.988876 174.235123 43.507778 484.528900 599.067261 409.974487 12.941145 37.222435 1059.195190 31.277029 47.140331 58.628365 43.928513 34.653778 226.021515 23.754530 21.030949 166.488663 69.439583 921.529724 206.598465 16.623344 802.832886 82.101509 56.193752 44.311813 276.478363 1.546473 7.196578 37.606956 25.688042 10.773081 25.609749 35.498627 385.237427 433.241058 222.701935 258.319672 121.076439 9.824390 44.613873 8.213520 1099.246216 259.407349 138.352417 135.316360 48.408390 849.039062 16.620905 66.865639 247.125320 65.861313 117.197029 318.675598 412.989685 272.079987 153.481552 
/model/backbone/stage2/stage2.1/blocks/blocks.0/conv2/depthwise_conv/conv/Conv_param_0 262.030640 25.814333 5.339515 51.859867 249.699249 492.393311 8.999942 86.225601 22.758041 266.391296 89.545753 45.873100 17.980581 541.078613 433.994232 5.607618 1838.511353 211.224396 247.583374 168.471588 309.322296 26.340477 950.508484 462.397003 1071.614502 121.937599 8.114734 20.509205 474.325867 6.234005 224.251953 199.345047 126.570839 26.095110 6462.803223 1703.284058 217.561676 4473.836914 1630.686768 1368.776367 1053.358154 15.149256 18.147892 24.761862 22.951986 86.817383 864.037476 269.413208 1483.871460 4.796939 16.391970 30.051565 25.699633 181.290924 6.463964 1296.777954 42.702106 15.934198 867.969299 38.027245 12.195787 13.403038 15.205594 28.744499 
/model/backbone/stage2/stage2.1/blocks/blocks.0/conv2/pointwise_conv/conv/Conv_param_0 38.287014 7.700894 3.779429 7.337357 21.514582 36.433376 31.920485 15.550903 22.069910 13.757864 14.049890 21.974644 4.419165 39.873680 4.158882 10.253462 25.764669 10.325513 1.852644 11.911746 16.847239 67.739670 10.661161 29.540588 34.856609 28.266842 19.274515 19.640394 26.886711 7.375435 26.729986 21.275503 9.363352 22.832226 16.423965 7.155221 17.940845 13.871703 32.076473 7.775936 41.675152 8.275681 3.517378 8.244843 37.498638 10.292505 10.814515 19.634537 8.897290 10.086699 33.545673 4.048161 7.423168 9.061403 27.093731 20.161163 28.917915 10.841081 30.214890 31.714933 45.652641 15.208908 27.089245 19.149899 
/model/backbone/stage2/stage2.1/blocks/blocks.1/conv1/conv/Conv_param_0 37.582504 52.915657 36.454182 31.796183 89.577972 44.998417 39.837666 155.731979 32.527004 32.501968 117.687325 20.834093 17.454609 73.029747 105.744392 285.850006 81.886909 48.586746 37.027546 37.689739 123.937225 11.295412 24.472063 287.649261 20.558176 41.514156 6.804655 97.594872 33.761463 24.407293 37.737206 63.905731 120.741653 242.110489 27.673717 31.269506 127.762558 218.083679 34.569393 34.479218 27.748314 14.061584 36.774681 41.339390 74.654434 25.201914 41.644104 41.213104 372.325043 50.336456 42.844292 34.514103 32.059296 29.199299 33.594215 184.493286 41.365845 78.360954 129.578384 55.064217 22.779839 3.670941 25.320837 464.971924 
/model/backbone/stage2/stage2.1/blocks/blocks.1/conv2/depthwise_conv/conv/Conv_param_0 41.254608 40.302265 55.620358 49.907574 9.062053 34.402737 17.024734 4.331557 160.864777 24.601868 20.581408 109.606293 260.962463 40.024574 52.352379 2.772073 15.150661 28.448544 34.239311 38.042564 13.698320 942.841431 247.471130 4.137327 271.675690 26.470434 944.140564 7.120871 146.186691 180.858276 26.030052 63.731350 16.012663 7.943077 35.884430 165.003998 60.436340 4.140489 123.680809 46.742050 141.328705 415.571350 24.439793 24.454443 4.079459 81.726730 71.471039 71.844765 5.197009 35.141621 44.476723 24.411789 69.388275 69.765182 122.382172 13.590886 110.164375 29.910316 10.125424 59.511806 132.782883 512.206848 157.551208 3.814966 
/model/backbone/stage2/stage2.1/blocks/blocks.1/conv2/pointwise_conv/conv/Conv_param_0 1525.708618 54.407566 680.736145 741.656311 454.880096 1565.679932 950.045349 624.201538 639.551147 558.659485 896.225098 764.496704 675.135681 790.487244 93.129677 1121.448975 155.240540 829.284058 1046.428467 951.540100 173.332504 256.801147 598.908081 289.089691 629.565491 105.873726 525.851318 259.024139 561.301514 651.894287 832.889221 501.024048 467.542694 1156.015381 1168.194092 535.041199 519.730164 548.226440 457.163300 1045.568970 820.643066 1874.752930 1190.316284 509.637360 482.043823 888.871277 672.981628 431.365387 427.143280 886.614685 490.078094 272.212616 363.612762 885.684692 263.448029 1116.965576 554.139771 438.440643 725.487549 540.867249 324.241638 712.762146 918.599854 525.736206 
/model/backbone/stage2/stage2.1/attention/fc/Conv_param_0 166832701440.000000 550.969116 1568758726377078784.000000 234.337494 3758509.500000 4105086.750000 334.192200 210.975494 205.013763 133954887680.000000 8706337869398016.000000 128469377024.000000 339.606995 148.006088 207.186218 374125824.000000 182.746704 199501196539461632.000000 309804409196380160.000000 40927072256.000000 320.407379 138.617722 296.547272 212.067459 2540198814547968.000000 166.546204 160148488192.000000 100.188667 80.146294 104.592056 256.414917 486.734924 317.729065 8674764113106173952.000000 178.002289 395.660370 329.906738 260.775665 292.900635 279.221954 157418093360971776.000000 116.697235 9305298847263621120.000000 154.400528 40529636.000000 213.349472 348.995056 7793501.500000 441.840179 13944964.000000 175809003520.000000 206.825729 341.940216 4490934627808051200.000000 124.771980 300.649048 273.616058 201.737686 78.599106 352.161041 172.880524 245.581650 159.938171 5997183369366994944.000000 278.113800 302.426361 181.578812 341594485811052544.000000 139710988288.000000 419941333336064.000000 236.343689 3090437.500000 279.191284 307.741486 168.175705 232.938751 243.807816 314.131683 243.727768 238.379135 196.909653 182.313705 141.669083 119.428032 261.386200 216.387543 348.663910 192.938782 314.664062 269.922211 147.110306 173.523880 310.900635 208.385025 262.606567 203.245712 292.789917 247.484848 341.676758 269.402069 13394275328.000000 175.839340 172.803009 291.172394 167.296982 183641145344.000000 181.129715 154.620834 177.672974 334.313904 251.527817 182.906601 285.690460 189.862900 152.977417 244.513153 259.869934 236.132507 269.048798 276.169434 330.639587 185.496857 296.551971 193.055771 238.174530 237.446152 247.467117 197.841202 
/model/backbone/stage2/stage2.1/final_conv/conv/Conv_param_0 66.718994 75.645302 51.585922 56.828259 189.788925 67.670517 85.391457 211.988266 102.658852 76.983772 71.046806 57.264320 54.050102 55.932762 46.808975 76.728256 75.687790 167.200272 95.929390 36.221626 43.768528 109.180153 63.496624 60.905754 119.450249 74.801033 55.989590 95.793251 44.167583 141.526123 52.650101 82.104408 73.273369 78.747826 123.077675 27.043041 107.707489 63.790020 99.533600 44.691952 79.428413 117.371361 106.035934 57.500088 92.740829 66.165955 92.512398 120.394264 97.310562 106.834503 111.275093 73.681709 41.305298 53.418510 65.248741 57.186600 40.958538 101.296867 50.912582 117.813850 130.370834 34.756660 52.407227 224.785263 142.392075 42.917416 150.197174 84.212624 49.044125 85.660751 71.229080 111.293274 69.643234 59.588699 52.471046 99.849609 78.926277 77.131653 60.543602 83.184601 96.731522 46.929619 93.903671 57.786320 71.521828 79.888123 77.842873 116.263100 61.033482 38.078053 33.597595 50.369942 128.499054 59.518394 112.320351 40.233887 44.786942 39.531414 45.476810 87.139473 27.663513 26.685734 105.202492 48.017273 111.426544 70.555916 178.627014 70.292183 25.030552 103.582367 178.643890 60.439209 46.934052 106.012703 77.485382 77.278206 59.083019 57.838692 79.667084 167.191040 51.668846 76.054825 69.743271 39.051678 98.274887 78.332283 62.554188 53.911510 
/model/backbone/stage3/stage3.0/conv/Conv_param_0 351.224701 476.058807 555.566040 397.606567 312.830688 354.146667 507.338593 526.630249 377.226990 1079.016724 564.599365 468.083435 447.176147 396.279480 613.312561 250.358185 572.470337 872.582031 531.509033 466.850830 384.841949 415.442108 581.665344 386.466705 671.303101 646.595520 350.957581 493.541077 476.908325 328.705505 404.525848 529.287292 352.205383 476.574280 229.309860 522.393799 548.285522 411.447754 380.033081 582.550598 275.592041 497.152679 356.463898 573.498596 535.740662 653.189087 591.487244 663.069702 573.786438 695.583008 399.034393 938.309387 613.521790 820.348389 911.809021 269.089996 873.501526 556.317322 274.217346 644.446472 362.702484 422.791412 528.243896 550.221191 277.714111 371.741943 418.911987 564.737366 275.432190 527.791687 359.075684 709.094788 529.382935 364.386597 435.606995 707.649353 396.957214 432.567688 725.908264 476.543213 319.954224 880.733337 839.721680 1167.357422 577.110168 640.784241 533.024963 551.040100 509.180420 595.394592 233.219879 772.051941 541.831665 453.033722 552.883728 336.958984 439.486389 501.988708 337.435486 655.529236 501.137451 686.726685 622.433350 412.160248 773.838013 650.057861 729.143555 426.095062 376.283112 898.161194 429.206543 551.873535 823.596313 371.189423 872.958252 364.054779 424.846741 337.888489 492.834442 572.747620 415.523224 672.006836 669.951477 612.369873 249.104630 484.948517 534.396240 502.787750 510.804626 378.370728 563.861450 316.903046 500.307281 320.802582 627.296570 910.357544 607.733643 508.245605 536.920654 640.037292 410.145599 864.702637 500.140228 383.225739 358.327454 685.766113 569.646423 482.086243 492.904755 435.900391 556.419617 525.861633 465.729248 516.548584 614.276917 337.390442 440.920349 632.843567 789.859436 634.722107 257.821381 456.179413 487.304413 376.771118 432.854828 385.667572 227.672272 440.351929 514.280212 608.668945 1061.417847 593.728699 671.735535 843.431519 582.252686 611.740356 370.136017 607.614868 554.411072 1019.426941 351.972809 1004.062927 283.925385 485.630157 768.375061 793.817810 421.656097 516.409912 535.909790 438.916656 486.144012 1183.543945 464.535065 574.495300 515.588806 453.986603 552.713440 738.305725 680.225769 580.767944 1152.729004 546.072876 251.135895 517.462402 355.379669 773.626160 492.195221 530.403870 378.450836 472.544586 798.846252 976.007751 493.166168 747.791687 472.212830 321.349335 1011.369141 316.854065 389.923798 489.360565 268.556549 419.604797 490.874817 841.616089 671.203613 377.081787 497.856232 367.124939 415.225739 501.907776 342.570404 320.953247 568.789307 469.831024 335.226440 871.428894 562.072144 399.410583 478.076660 647.771545 608.800110 449.776794 347.338562 604.002136 457.904907 588.055847 373.676422 400.112976 462.690704 538.473938 512.228394 488.824066 481.913483 498.795593 545.905945 393.400421 
/model/backbone/stage3/stage3.1/short_conv/conv/Conv_param_0 202.409897 337.396576 152.300797 430.399963 571.583862 30.234095 115.562836 159.686401 519.875916 172.665054 633.035034 228.941803 484.407898 72.663879 510.582977 155.908615 461.832275 183.231613 242.214035 33.814518 220.231735 512.495605 402.865143 417.609772 523.155212 323.978760 154.049652 300.683441 198.213028 156.925812 93.759483 379.898254 97.579353 521.924500 241.453201 316.492035 108.756340 343.530365 218.160217 427.953369 368.224274 486.557739 555.473206 235.782227 411.125031 166.620514 283.290161 178.210098 392.522858 195.402328 203.305908 78.419975 55.460220 92.862984 81.105209 181.321304 65.555992 322.563690 63.172382 422.846344 403.731476 273.031616 259.518066 167.738953 72.250801 476.871429 35.055603 304.597198 159.634827 115.697502 109.019424 509.730804 263.974548 407.119781 124.169792 414.873566 376.734711 132.656662 557.805603 349.481842 261.677887 456.282684 368.808258 282.168884 312.862213 211.881180 342.448975 198.063965 198.637375 135.135742 240.807861 519.583679 434.902649 435.128418 207.120087 257.863007 83.877090 72.616318 397.300476 180.148056 403.582275 326.820618 198.683609 501.910797 379.089020 131.241440 156.350586 240.844498 191.262177 38.103451 95.779671 198.047363 300.954620 608.277039 326.148590 309.681976 37.114143 46.692944 216.481644 243.605072 456.261383 85.371391 284.129883 448.492035 128.015472 177.185593 195.777039 94.808258 
/model/backbone/stage3/stage3.1/main_conv/conv/Conv_param_0 883.377075 684.598450 517.908813 548.863953 494.263672 735.291321 466.423889 340.132233 343.666534 305.213257 341.453888 378.395386 283.023376 462.779144 307.810089 523.182373 419.825500 801.083923 989.542480 254.547089 910.376038 400.295929 627.002808 841.693298 346.599670 238.157532 423.464264 257.027863 531.569031 237.110474 273.387787 369.335419 918.469116 274.846741 400.528564 450.179108 371.955872 459.004974 388.988342 700.180908 222.306122 835.374451 871.452881 824.859131 1014.835205 392.368073 316.839691 1010.844543 325.860840 329.087128 728.793213 850.743835 564.275085 1062.344604 330.779449 290.317871 215.513031 237.645462 329.060516 935.918518 342.058868 279.813171 405.150879 570.573242 762.997986 206.644577 416.757904 386.377106 551.229248 433.001862 918.483643 347.248993 205.381271 395.065674 820.631470 433.254639 936.988098 602.569214 480.815704 192.455780 1191.369141 581.052429 270.454102 257.227661 533.624146 794.233948 197.287720 871.720520 273.525940 433.612518 800.575989 418.817505 931.020264 997.251404 251.784622 359.317657 785.120972 559.238159 1257.854126 947.101318 333.309570 416.966187 251.653748 655.454224 531.573364 307.164490 513.358154 283.783905 324.954285 400.213196 287.322784 245.684418 355.980499 443.142365 680.140808 287.258057 658.104553 495.912506 393.087006 560.937012 869.911133 478.444977 1241.880249 988.019775 640.901978 454.635315 558.666077 676.571960 
/model/backbone/stage3/stage3.1/blocks/blocks.0/conv1/conv/Conv_param_0 72.175507 41.614685 68.987976 1246.993774 56.493534 48.879543 328.702301 28.848671 87.027130 65.077560 45.189819 44.837265 315.683655 54.290123 41.556576 41.755661 501.030762 44.973526 24.282373 63.591877 35.525398 1733.636963 22.320953 495.492676 45.769024 169.159531 65.646736 70.774506 39.252953 225.159149 36.640636 415.781921 40.079189 43.759628 106.777695 423.477386 43.663311 16.532555 44.081409 34.546539 848.316345 40.172249 318.561218 685.534851 48.808277 38.755474 34.309685 50.191368 41.705502 45.244133 54.266457 36.415115 134.983994 319.288971 33.954376 60.104919 23.474876 50.741798 45.743343 60.574993 651.083923 351.611053 56.815475 29.448082 50.668102 52.890041 25.953445 495.831604 39.266975 17.566795 200.646866 73.185783 610.757629 20.211142 392.520996 78.949348 103.104370 14.493222 128.996094 106.838417 87.895477 175.811508 87.479599 30.024767 54.848862 25.118208 61.675198 37.730747 39.538658 612.311646 34.232723 48.915440 118.112396 84.431480 36.842625 38.377880 65.663338 58.551754 117.384796 60.970818 70.059105 326.685425 48.486698 72.342804 14.784113 326.455627 584.220398 27.901957 559.635498 51.409138 49.434010 39.190857 144.924484 102.199257 184.388733 42.683491 611.243042 28.781540 148.722626 193.829727 55.667366 18.057346 40.199562 56.396255 42.964828 215.436249 797.694214 1696.275635 
/model/backbone/stage3/stage3.1/blocks/blocks.0/conv2/depthwise_conv/conv/Conv_param_0 13.845030 41.158913 52.228531 3.715892 55.120373 262.408722 7.497711 102.167671 42.325363 28.228600 95.368439 66.363564 8.743053 69.272087 72.363617 170.450577 10.391196 40.527805 29.421839 66.433449 52.880344 1.183732 77.783058 9.300361 39.942696 3.204996 205.435471 51.165768 80.969536 22.890753 152.819504 11.079230 62.135452 45.275703 49.930233 6.965259 46.897072 464.268463 140.776123 175.186142 10.014351 365.426666 15.914324 4.409108 96.312798 149.243805 88.325607 87.966881 71.773170 87.878326 63.622089 51.973606 35.119701 11.794438 53.578884 64.321243 145.576157 39.411617 61.748425 27.953342 2.026487 7.866380 58.463497 98.489899 63.601635 118.262802 187.073730 3.325890 44.212334 90.288597 2.799328 17.461555 7.331932 133.068771 7.191076 42.921230 12.118872 146.230087 10.060177 16.994579 51.198746 17.089907 9.238523 58.712330 68.333435 80.544609 61.515427 92.027382 68.772224 6.737851 50.995609 45.098534 4.062020 25.002434 70.941612 114.708633 30.962837 55.244370 10.010733 51.796116 14.745564 10.566711 42.893177 43.373211 205.657990 4.568904 6.488175 72.220009 2.495195 72.944321 84.888588 49.676632 29.527822 13.082897 13.186968 40.458359 5.425704 253.688232 2.176098 28.184399 51.146706 462.691650 26.030090 45.610016 75.524193 7.601774 7.079603 3.043548 
/model/backbone/stage3/stage3.1/blocks/blocks.0/conv2/pointwise_conv/conv/Conv_param_0 1207.578613 592.550598 1097.541748 1238.867432 1489.343262 1612.285034 360.165100 1035.367432 344.435944 945.817078 495.101776 658.182678 1856.151855 462.233002 230.265457 1893.407593 636.140076 795.283508 1423.508789 885.015564 309.048096 1625.109009 1481.286743 1333.223755 574.164185 520.463562 303.609924 818.521179 451.447296 950.580261 1163.788696 494.727142 796.597473 1018.351868 1919.134766 2296.453613 654.659668 1447.665894 785.671082 1667.907715 653.484619 699.148926 956.701782 701.173523 1704.094849 1241.047363 1410.747681 559.779480 635.267944 1181.342773 617.129517 919.298584 1120.790283 1014.447388 672.779724 1145.224365 856.776855 599.597839 1476.081665 1442.489380 564.431030 1235.238892 980.754333 1555.318359 1249.733643 978.223938 850.925354 1482.440186 1372.876953 461.558105 875.468018 1310.272583 464.589966 214.666641 402.767090 830.149048 1738.543457 1395.812866 1063.384155 561.749268 1317.218018 1395.925293 1037.905396 1323.500000 481.225006 995.540771 1315.251221 1886.401367 836.646667 1218.067627 1432.889404 1039.972290 1058.339722 500.720734 293.701813 602.137268 1403.285889 1040.009399 259.678802 1100.060669 977.387024 205.559784 1066.565186 561.383545 1497.816772 957.762085 771.295410 850.745300 889.899170 599.146484 263.811005 364.196167 818.289856 1280.537598 1528.571045 357.869781 358.635498 382.281952 492.284882 2162.139648 908.195740 1410.846436 650.050964 1055.429443 1578.012207 434.875549 1723.440796 1128.163330 
/model/backbone/stage3/stage3.1/blocks/blocks.1/conv1/conv/Conv_param_0 158.794601 199.471298 138.815491 77.230423 151.076431 138.400406 45.349449 61.756306 76.402817 80.366272 229.139404 43.629147 43.813404 66.596588 85.622574 130.608215 150.800735 158.094849 87.218513 252.269073 41.891094 58.183079 163.657288 75.502640 85.831009 336.862122 54.472450 87.243416 44.237015 64.724854 95.878616 59.599598 186.489029 58.167694 85.681976 53.553879 37.926231 71.493652 167.151672 74.889580 119.469093 52.910912 69.898811 103.402184 75.313278 65.775009 50.705982 57.110176 84.221397 33.749798 95.309235 78.315666 76.792107 89.367363 132.154694 81.779388 93.320183 55.385078 79.403252 54.071381 136.009262 62.578972 870.046631 55.980431 59.263142 48.176598 91.158630 527.248779 70.353508 89.303154 2082.851807 58.206570 50.208393 23.198181 293.203125 49.871456 78.918320 60.787312 112.064163 82.766823 154.319061 100.880173 64.921844 73.802872 154.943542 77.593246 46.790413 79.960869 62.613876 54.484566 55.179111 64.994804 212.804214 56.704086 63.976189 54.473022 177.919662 231.753357 118.855141 52.435425 83.554657 70.041885 47.063236 66.797928 62.034180 67.615211 1557.405273 56.060478 115.232651 279.675201 69.537613 17.065004 22.532110 33.443233 74.379387 58.119114 88.794785 45.449574 760.267273 85.989304 59.718964 43.846855 129.930130 42.947918 104.465431 79.106583 50.675869 46.668404 
/model/backbone/stage3/stage3.1/blocks/blocks.1/conv2/depthwise_conv/conv/Conv_param_0 75.549896 49.484406 74.541763 97.723076 8.014635 56.551476 74.834236 58.011204 58.118790 59.206657 24.906954 126.518440 60.262028 50.420483 86.594406 54.895374 196.286713 38.085110 62.050674 12.844656 109.174431 32.650116 25.423149 30.553835 87.650795 8.808492 86.208267 132.048782 137.929382 125.472183 441.385132 82.666687 12.174393 99.523026 234.797852 144.617401 104.043724 204.703293 68.428017 72.787834 78.269051 119.628510 186.150818 64.837120 40.011597 51.304790 48.200886 109.496582 83.468613 118.878273 113.337509 45.899445 99.725517 40.322865 118.034500 76.766388 192.508850 102.032661 57.878387 71.892616 92.114845 101.581467 12.500732 73.311272 50.881924 85.276703 33.623447 3.365062 43.804256 153.274323 5.220589 83.122787 63.069679 159.728958 19.571470 116.628288 84.226509 87.191643 102.232483 94.022705 9.870415 29.865908 316.542603 54.557461 34.539146 57.603027 143.090378 24.313734 108.482529 49.229618 119.242363 76.871399 42.211571 97.184082 62.843117 76.246437 18.076065 1.482363 26.163811 80.576012 81.264626 128.890915 34.058498 59.621693 875.347168 31.017271 2.007858 64.376678 58.804585 4.103607 39.116798 148.267868 158.306992 154.397766 46.106304 52.130699 39.848259 88.320816 2.430801 81.640854 193.824997 103.807144 53.447170 95.388741 52.641605 90.577415 254.658447 110.830421 
/model/backbone/stage3/stage3.1/blocks/blocks.1/conv2/pointwise_conv/conv/Conv_param_0 710.183289 718.096313 340.445465 865.246826 1262.513062 1012.771484 643.738831 271.303558 239.762009 484.284698 408.436462 1181.102783 914.368958 389.227753 109.988792 973.436707 646.917236 994.754517 1387.857178 1114.699707 904.241455 667.493286 820.623474 1588.749634 122.533867 1314.220703 349.568146 699.377747 380.379425 421.184540 396.380676 590.370544 1202.540771 334.996704 1309.156860 1285.392944 622.846130 479.751007 837.226318 689.777649 224.522690 488.560242 1577.842285 1028.343628 1242.373291 1162.262939 1052.924194 247.854233 556.027893 1283.395874 883.240295 564.244019 1332.017822 540.231628 895.236267 709.033752 547.622620 500.234100 705.221680 1057.772461 750.398438 2025.870605 1351.346313 962.981567 1497.329346 308.857819 1456.347534 434.922943 1011.736633 393.568420 538.036438 605.127319 643.063049 678.828613 550.776123 1002.793335 1456.388428 1975.801392 760.960876 83.060165 966.387939 1685.584961 164.919876 1406.792358 1009.488831 182.820877 1804.035645 1187.219971 331.623810 1183.671753 428.701324 1570.471802 1173.204468 683.908997 486.919495 280.735535 1770.406616 1449.134766 118.886688 526.801941 370.319824 546.719299 1059.169312 1406.463013 1841.105957 1096.007324 870.687439 1353.280029 230.550644 551.881409 1432.458008 1347.786133 268.212921 1627.407349 1138.508301 471.303986 1635.943359 192.546890 815.071716 1002.959351 530.071411 1480.202148 657.706543 1724.241455 1287.572021 894.861877 885.552124 741.467102 
/model/backbone/stage3/stage3.1/attention/fc/Conv_param_0 329.535339 45671325696.000000 255.968216 351.229156 20903184384.000000 474.310760 478.526917 398.878204 456.617340 265.024933 497.350067 536.434326 275.508118 349.171173 265.397217 110914519040.000000 477.009430 442.136078 409583543228825600.000000 129223368704.000000 391.412567 113106599936.000000 157510631424.000000 119407509504.000000 58833002496.000000 27656.628906 410.168121 289.740479 536.303955 499.909424 463.402557 320.649780 375.046997 558.297363 77440352256.000000 64952.441406 312.721863 403.228546 389.211670 320.704712 529.358765 351.453064 111534612480.000000 522.073669 135482441728.000000 328.403931 691174592.000000 111.108887 567.090271 69384346263355392.000000 128.497177 122484744192.000000 369.196075 318.478882 467.300110 271.713745 460.469666 640.964355 139.430420 130879709184.000000 440.213318 167142930111266816.000000 112747044864.000000 612454976.000000 245.243973 303.358765 154393100288.000000 519.317566 134740918272.000000 336.574127 389.068848 397.567169 334.456543 385.738403 162.096313 514.390625 635442624.000000 36240112.000000 61358186496.000000 435.278381 670614750488428544.000000 138346086400.000000 311.472992 179.390274 320.772766 286.445557 126824382464.000000 226342354137645056.000000 521.473145 152561893376.000000 253.032440 4228894464.000000 106595450880.000000 393.621582 522.296814 399.822083 4013029424894050304.000000 96467296256.000000 187.049515 421.910614 570.563843 327.835968 377.717285 160554237952.000000 374.919739 184.504578 96965468160.000000 95678644224.000000 420.307739 694.458557 367.300629 54173491200.000000 526.015015 106579894272.000000 176516792320.000000 481.201996 159501090816.000000 391.961792 429.434784 82086780928.000000 438.029144 94644396032.000000 368.068359 86668279808.000000 146411159552.000000 498.994934 368.074310 383.032135 276.555023 311.176270 413.514374 305.692657 71555744.000000 36989554688.000000 213.077393 241.297699 59575250944.000000 202.523926 1373607507074744320.000000 159.340973 212.549576 20939868160.000000 279.114807 165.793427 2295743857473617920.000000 123300478976.000000 91214282752.000000 151203348480.000000 2919104512.000000 53217611776.000000 201.866531 154489978880.000000 131520880640.000000 136835866624.000000 343.795685 227.834671 148.259384 153.773132 222.067825 9913.248047 159.623764 7230703616.000000 239.328949 91307204608.000000 193.316391 189.062057 262.976196 151.439575 1955663536612966400.000000 2528122708688896.000000 83104358400.000000 289.198517 133953863680.000000 273.165680 9126558720.000000 141427146752.000000 2027770.375000 215.782379 80885022720.000000 136.276611 163.691162 368.446533 151.738358 53935550464.000000 160.180374 137.745819 1257625216.000000 116957331456.000000 73047661309067264.000000 230.879440 166785204224.000000 302.567505 187.343307 158947442688.000000 11786076160.000000 174685372416.000000 226.762756 203.874908 139.938095 709273991637893120.000000 74350059520.000000 181.000183 224.898987 262.702393 355.715668 171.980194 332.755707 293.323608 109356392448.000000 14351900581298176.000000 326.482819 201.187225 78674231296.000000 391.718140 232.143967 492124.500000 337.097504 264.507599 258.881683 133148917760.000000 138123575296.000000 324.247345 721589.500000 270.517792 147.837479 156.643723 47722577920.000000 73742540800.000000 100.921654 72922849280.000000 234.088898 314.387329 178616860672.000000 190.356308 278.325623 21268752.000000 29718927360.000000 39816466432.000000 168.866287 246.933472 169585115136.000000 46882299904.000000 414.528320 90096402432.000000 6485673472.000000 74738499584.000000 254.606720 225.317978 38413271040.000000 157.669327 250.639557 321.910400 243.996750 157.530701 346.780884 153.817520 
/model/backbone/stage3/stage3.1/final_conv/conv/Conv_param_0 267.988068 178.382980 233.707535 151.144165 195.186081 173.043350 90.879898 130.502365 248.550735 131.674454 154.899887 169.725601 275.542999 170.145630 247.701721 174.654282 84.863098 136.336349 206.239868 136.539032 252.150223 193.922470 173.841019 192.110748 322.597534 166.748657 152.540390 319.801178 221.124878 146.380142 137.703873 171.904190 196.077927 270.267365 118.896713 121.532669 192.351212 201.918060 104.308044 149.501175 171.394791 204.172012 138.786423 146.019363 206.961304 160.729721 133.271515 127.412117 200.073425 89.089340 205.708221 142.670319 305.748413 156.774994 265.957520 145.656998 291.085754 126.702301 201.258392 276.004486 124.247437 138.569977 178.919495 223.013031 219.653183 169.976639 105.677025 393.670288 218.479919 177.049896 116.628952 124.860260 239.969421 118.822014 123.280800 238.678238 170.996780 269.384949 285.687866 326.185455 166.904968 179.339722 210.855209 152.950455 262.541107 162.044693 217.904770 186.888168 54.879414 236.588593 201.293030 164.519867 278.772705 261.772064 110.850037 247.107361 141.159912 174.457138 92.963440 179.333984 218.693710 131.601425 176.505112 148.201721 185.676636 70.981377 206.154068 209.043839 178.029648 119.251076 214.649841 283.935852 208.368042 222.656891 177.274155 168.573792 112.767448 127.158951 282.920563 259.350922 199.317642 202.929214 179.232651 286.067047 84.901566 148.105072 87.869499 106.580086 200.104279 127.311470 170.228043 142.605865 342.313812 141.891907 177.001907 117.505608 134.147873 221.740891 233.100632 445.860870 287.266083 205.838684 126.569107 158.412933 166.493622 194.741867 141.275055 96.886719 165.442566 307.753754 261.135498 172.464584 124.737122 168.680923 203.225189 149.841629 189.408203 158.341995 191.733948 146.167023 191.627228 394.000793 142.900269 354.530426 203.100052 139.259659 170.781082 289.878876 186.704437 144.761246 109.938965 181.048828 243.500732 274.798004 206.257599 377.434540 124.615730 211.988907 239.173569 118.689888 171.580750 99.605362 212.660995 159.908096 222.580719 166.023361 129.868439 190.245789 146.311111 119.459770 123.857758 137.276321 133.757553 179.838669 237.129578 135.462555 93.722481 125.417343 133.642319 334.934509 207.334381 271.204041 193.505814 121.304428 115.683929 160.263672 132.688019 192.530579 111.901382 226.769669 158.660339 343.466583 160.752396 265.843414 149.611938 168.628555 146.451782 112.390579 142.447052 148.851761 243.814285 346.758087 129.065918 285.273865 148.168732 165.721527 149.970337 192.392715 180.711136 129.327621 101.941170 86.163284 134.758789 159.272400 117.490204 151.739655 183.837296 299.365723 147.691208 99.884056 134.707260 206.810028 322.606873 194.978775 258.212036 142.084702 173.420700 163.405334 128.273270 174.342148 278.111969 121.208397 149.294113 118.374527 151.846664 209.039902 
/model/backbone/stage4/stage4.0/conv/Conv_param_0 847.692932 816.251282 856.206421 914.459045 694.467346 630.295105 626.397095 333.708282 577.823853 446.807800 760.035339 707.018616 892.035034 997.920349 883.003052 839.267151 911.707764 446.848267 833.253784 887.296448 766.437622 476.563934 621.450256 950.713684 851.591003 1123.045776 495.937378 917.714050 602.139038 899.935669 939.035950 539.764465 633.785950 667.561523 758.198914 769.577820 364.160339 777.330505 831.927368 696.332825 778.047852 836.887390 504.620941 898.192505 500.932037 833.018738 791.445862 798.919617 998.262817 769.605286 1054.063110 774.342407 737.931580 612.468079 787.200378 544.658020 603.122131 679.898560 513.187622 327.061493 776.497559 635.398376 285.471832 815.045837 1000.425720 671.035583 694.617126 1105.611328 673.176147 546.178711 885.178101 585.646057 656.765564 1009.670288 581.375793 861.371216 791.187988 617.147644 577.565491 794.803406 583.359253 662.262634 730.680847 388.262024 502.170746 679.485657 878.428284 876.085999 624.879639 559.031677 561.101624 792.983643 790.836121 445.373688 389.121094 1020.175171 724.157654 877.459167 906.134521 588.675598 639.770447 718.810059 964.077698 557.822632 809.714172 647.050049 565.169861 449.467010 563.556091 780.185791 643.518799 891.711365 812.387085 816.975220 804.813904 863.092957 434.709198 958.028931 901.063721 660.083557 1349.309937 643.905579 891.067261 819.116943 710.008545 696.953918 912.661926 819.266785 562.665894 455.872131 661.517090 1029.168823 902.444031 737.403503 897.550842 454.564087 622.368408 775.058838 664.980469 1076.804199 869.958801 1143.912354 395.106049 942.513733 955.366760 679.396973 609.297302 1032.523071 595.003418 827.940369 820.853577 507.020477 853.680725 877.642578 385.401520 682.339783 672.263855 675.629578 692.167603 961.646301 530.605713 481.849335 571.880432 632.164368 267.887054 822.998535 668.771484 691.259399 725.348816 314.625488 467.902832 798.712463 690.303955 761.318298 1123.481323 848.414368 704.941345 1230.212524 1151.999146 731.688660 599.766235 741.776306 597.248230 379.793579 769.117188 841.473450 666.018555 688.055786 529.809326 410.962402 452.830444 481.416260 883.832825 1016.700623 560.233459 805.168091 451.739899 688.993408 526.995667 692.305908 735.417908 689.019165 790.972107 815.665894 374.331238 248.938675 937.302490 659.953430 702.856689 720.746094 625.684448 442.447113 666.984497 860.878967 884.465454 628.040588 431.633087 940.421387 648.321045 750.728638 541.762268 997.912415 376.627014 933.398865 905.384338 578.407471 1026.885498 906.674438 899.465942 299.745026 543.935608 999.481140 524.815552 625.394592 906.601013 907.673218 948.038452 778.711304 961.641724 782.495239 408.224548 893.705078 754.448608 603.661987 805.549988 835.982178 1046.078125 894.980652 720.282410 980.824097 738.609558 348.977570 829.049683 858.787292 617.606689 914.929321 434.015686 593.098877 651.912842 641.737488 893.417664 556.144592 773.505798 714.929993 718.274475 714.007141 823.356750 399.757751 745.067017 612.551941 831.165405 742.908325 1047.064697 992.518250 613.442871 633.085449 695.310913 811.773193 889.501343 784.952698 782.975037 948.405640 908.859253 649.080200 610.270264 525.508423 700.493713 681.115906 648.229858 638.910950 610.090698 553.334656 970.218323 780.210388 636.335876 753.342651 727.740417 863.711182 812.505493 680.927002 765.104004 597.228882 829.885193 832.475098 850.715210 379.105774 565.016907 369.844391 734.923584 696.169800 804.601440 1224.700439 652.763611 572.260437 688.234253 1154.207764 513.469360 667.939270 506.283844 652.879639 772.882385 916.748901 926.074097 809.507935 650.695312 695.815674 977.619568 605.926270 698.604980 527.197327 657.352844 820.097656 774.178650 451.553558 715.232849 440.261108 860.302490 353.518982 874.479065 800.215454 459.828064 509.442139 435.998932 577.271301 387.066742 638.429932 902.377136 555.969971 866.649475 873.049744 722.120422 645.940369 711.794128 969.061768 959.402100 968.355591 633.212463 538.215027 369.015594 508.453705 808.596436 596.505066 771.769470 651.002686 421.169312 670.750122 572.684204 691.271484 559.170959 466.314209 623.706177 461.032745 1059.295044 799.879211 440.992310 678.001709 665.357849 592.213867 664.548157 1009.509094 728.985962 844.654419 469.614899 753.210693 765.953003 857.475647 621.114990 573.975342 816.391479 697.909119 464.196594 1004.534058 872.897156 875.360413 986.996460 764.318481 481.089874 1092.084473 777.597717 553.311584 538.674133 748.422791 673.979980 868.682617 898.897034 310.256744 560.078247 893.298584 1019.001160 628.414551 724.063538 424.910858 939.523132 420.313477 826.693298 456.294983 726.797180 889.792847 846.538635 566.444031 804.171204 680.740051 536.902405 499.537903 558.058777 908.908691 775.618713 401.870178 590.378845 864.283508 757.756042 700.537109 1086.224854 1079.057495 911.262207 580.567139 712.188782 585.239563 667.766724 1000.550415 789.158081 958.791809 712.611206 1074.108398 594.881714 687.393005 864.647095 782.955444 749.060181 905.480774 696.582825 686.460205 583.689636 968.490845 866.180237 628.318665 888.709229 926.116150 556.547852 894.611755 923.700684 982.341431 663.109009 611.670288 854.215515 549.359863 676.103516 833.340332 544.249817 942.298584 651.994507 769.376831 881.104736 436.470459 778.415588 973.666565 544.130920 656.627869 874.338806 556.475586 857.895813 852.641602 991.604004 731.895813 834.044922 860.698975 883.668640 799.342834 716.763550 636.737549 439.008850 617.635864 586.234863 692.428650 713.124634 817.649475 615.880859 801.383057 701.630615 576.756042 543.064697 616.557678 1045.551758 549.371338 777.240540 679.253662 857.169312 750.258606 421.947815 581.713867 911.563660 793.962219 
/model/backbone/stage4/stage4.1/conv1/conv/Conv_param_0 368.847778 333.122162 432.928650 259.341339 453.206177 308.465576 366.216888 251.504623 430.355621 164.063751 436.226776 302.349396 329.132294 470.409149 245.813354 502.044617 304.809540 325.415344 530.628906 322.954956 361.142883 336.214294 226.283585 123.744438 328.528625 321.357086 357.511536 386.916321 264.170990 424.966858 357.187073 439.376526 271.170868 262.526642 242.576508 449.738251 367.525543 319.720367 337.364960 181.900604 333.011505 575.103088 313.865692 390.242706 392.706421 153.445328 196.439438 578.133850 446.003510 361.829315 329.877869 428.675140 91.706818 353.546570 296.897949 507.375214 384.251740 228.798523 296.957367 325.263000 369.608765 298.796417 434.116028 361.228455 414.934937 242.976364 297.703369 275.012451 315.918915 457.165680 282.750793 357.483246 258.895844 401.737488 213.241699 483.292236 124.777725 387.200500 399.431091 292.033875 309.004364 452.089935 146.970963 454.983124 275.745209 488.002197 459.953827 511.664551 321.420044 348.873779 172.448380 377.074524 365.188293 445.289062 396.017242 233.939926 336.110718 383.822144 312.052795 437.871338 381.981110 210.567245 317.577606 360.130646 319.494171 196.393585 303.013184 317.908600 298.137848 256.002594 432.876709 600.684448 435.930847 491.867188 369.165588 233.529785 306.107941 143.325470 296.017303 346.825195 360.558075 494.824066 445.900848 232.171921 310.932007 132.787064 337.973969 412.096954 303.243805 433.620636 324.607635 344.920319 358.446869 350.646912 288.627930 485.659943 127.033447 315.004028 292.764618 274.170349 363.486267 359.337524 400.510315 162.865295 290.581848 333.196228 232.502258 274.509918 312.133057 317.213562 362.143402 400.213715 313.364471 282.995422 420.494629 165.989426 229.428894 301.973328 382.783691 372.590302 187.522446 244.528503 435.507477 377.858124 340.091644 323.909576 256.785400 309.162933 424.816864 293.756592 324.247620 437.580963 369.712006 61.694973 317.668457 418.185913 391.873657 324.213776 226.246872 510.827515 503.010559 159.580673 421.198364 315.900391 414.732361 454.634155 418.481537 450.374725 437.667969 418.623566 438.349731 439.078247 365.963715 309.697693 323.125305 369.312531 372.989532 338.204559 431.412048 540.332458 277.510712 367.096283 318.161652 381.422058 361.089081 247.777359 328.040588 457.016602 397.004089 485.980072 411.108002 460.805664 165.173584 386.590179 327.702637 340.624237 298.734253 348.971680 303.267090 274.477539 303.718872 399.862213 391.715240 376.557404 344.113220 420.985901 330.976257 380.914978 335.624634 481.848145 528.241577 397.178284 264.695862 442.487518 371.863861 269.738037 320.911377 429.844788 324.829071 317.497467 312.449310 195.094498 240.841095 429.098328 424.737366 451.284241 356.697815 383.947876 351.623383 430.970825 364.583893 291.717682 417.950745 144.089767 444.205658 244.197754 
/model/backbone/stage4/stage4.1/conv2/conv/Conv_param_0 586.372559 1233.662720 2477.005859 1766.703247 1757.502197 2665.675537 1223.036255 1345.215088 2280.761719 1011.921021 1523.737061 2874.143799 1942.002319 1357.972534 1957.333862 1861.000122 1108.384155 895.072510 1789.478760 1582.090576 960.435242 918.000671 2321.684814 943.274170 797.614197 1215.431885 1369.687378 1365.585938 2891.321533 3464.607422 4499.710449 2782.444092 3728.895752 1735.872070 1275.990967 1671.752808 1451.052124 2771.206787 1476.953125 1958.740356 2172.199463 1539.505981 2003.573242 1880.564575 1485.018311 1995.829956 4209.523438 1283.780151 1875.169312 1302.221802 2575.197510 1187.130615 1850.658691 3488.598145 4741.449707 1071.577271 887.982056 2100.213379 1426.815308 617.351257 1454.221191 2079.594482 971.452026 1161.570190 889.013306 836.596558 5194.844238 1050.971436 1175.372437 3659.570801 986.227539 1394.561768 993.188293 2137.970703 2796.429688 769.418457 961.174316 1685.212524 906.672974 1603.992065 4856.419434 1719.553345 3355.983643 3728.591553 3755.564209 1249.718384 1228.159546 1333.013550 1314.718384 1268.348755 1113.318726 1618.070679 3160.887695 1160.450562 4252.511230 666.627441 1161.566040 1136.422974 1675.311890 1904.894287 1571.343994 1262.317749 1125.249634 1909.298218 1224.171875 3120.442383 1751.193481 4584.580078 1048.057739 1588.116821 1331.424072 1337.386963 1205.690552 1715.840942 1033.099854 1089.198242 2047.593506 1104.389648 2702.676514 1367.023804 1024.033203 1687.763428 885.804871 3108.979736 1602.600830 1182.119141 2921.223389 3650.197266 1950.554688 1219.801880 3202.119385 1664.415405 1521.036865 1186.448242 2073.075195 1800.096802 3774.750244 2890.604004 1431.568848 1007.144531 940.238831 2602.317871 2516.778076 1141.588989 1617.120483 2554.342285 2557.812744 2684.878906 513.225647 1453.174683 700.107849 857.718384 1113.006836 2146.240967 1263.815308 2772.657471 1375.296997 2092.783203 2008.404907 958.751221 1295.899536 1420.641113 2372.136475 2244.151123 1792.669067 2805.089844 3723.820801 948.640442 1280.468262 602.540527 1221.597046 1744.677734 1659.461670 1509.202881 1852.234985 3457.854248 1071.563721 2071.212891 2221.235352 1361.117798 1436.577026 1928.263794 2602.366699 1312.617554 1361.499146 3461.575684 1288.383667 1871.358398 3777.630127 1909.046753 2161.944336 897.732605 3543.876221 1688.068604 1653.376465 1856.978271 1759.094849 1213.408447 1916.281250 1566.162598 4039.127441 1549.902222 1424.816162 795.244629 1503.450806 2763.834229 1757.144165 1097.966431 620.157288 1125.779419 2281.121094 2223.854492 4286.058594 2416.913330 3718.810547 816.892090 1188.946045 1135.801392 1832.720337 1473.193237 4349.880371 3729.974609 2817.002441 1021.009827 754.670410 1713.982422 1757.319702 824.399536 4992.215332 3605.432861 1170.893799 1134.566040 1423.435303 963.496887 1714.882202 1843.304810 1853.739868 1294.953735 774.186157 3952.321045 1332.651855 1178.023682 1383.621582 2900.490234 1503.480103 1618.732056 904.415833 1602.512817 1358.791626 2579.277588 3642.001709 2067.346924 1219.430786 1313.282471 2075.620850 829.128357 1300.894653 946.726196 1453.786255 1880.999512 1390.845581 1130.174927 1255.548218 1317.340088 1746.642944 2322.824219 3857.736328 1396.381226 1734.334351 1178.035767 1518.213501 2853.441162 1916.872192 1395.979492 3979.013428 1720.032227 2106.244873 3106.725098 2184.764648 1428.631592 2034.209839 1387.630127 5305.154785 1061.427368 724.096191 2760.102539 1983.569214 1724.036377 1632.822998 4361.594727 4434.214844 1389.846558 1248.105713 1479.719727 3398.691650 1956.800659 865.235840 4339.130371 1913.538940 1227.841675 794.207275 1130.624512 903.916809 1244.133667 1117.904053 2021.948853 1599.185669 5314.500488 4165.999023 1272.172852 912.667358 1952.187012 1968.334839 1249.613525 1428.346924 2236.922607 1458.439941 1245.594238 1090.826904 2664.455078 1382.904785 1569.953735 1348.517700 1113.722290 1212.033203 1347.348633 745.699402 1557.698730 1204.704102 1908.264404 2643.431885 1661.852661 1784.871338 2697.706299 1295.411499 922.496826 732.940491 1757.656372 741.836548 1820.456665 3258.340088 1061.289307 1042.011841 2477.939209 1415.391968 1380.255981 954.656921 1985.139404 2129.443359 894.924011 1986.109497 1602.311157 1032.798828 2230.583008 1487.051147 1222.798218 2604.172852 3642.585693 1723.738281 1513.686523 1786.255249 3247.446533 1753.965454 856.027466 1530.122437 763.606384 1306.445190 1221.543457 3741.282471 1009.084045 2102.517822 1512.918457 2581.694092 3135.886475 845.728271 2272.809326 1242.620361 2139.753418 2349.254395 1580.314209 1893.371582 1468.264648 2099.509766 1723.395874 585.020935 2091.720947 2028.742798 2507.788574 1636.770020 2566.656494 699.363953 963.706299 1665.072510 1446.931396 990.349121 843.065674 993.200989 1834.435059 1044.016113 1875.146729 1068.958130 2163.012451 618.731079 1679.002197 2275.754639 3045.913574 3338.407471 1867.931885 2975.522461 1533.451660 2010.290527 787.412415 1713.960449 1779.059570 986.341919 844.503418 1544.955444 2834.020020 903.865479 1015.915344 4079.782959 1469.632202 1399.626099 2249.162109 3010.476562 2301.738281 1798.952026 2616.223633 4884.747070 1475.379028 2217.452393 2327.812012 1326.388550 1282.689941 1721.966309 2496.455322 1421.527832 1844.484863 1507.398560 1608.131348 2242.872070 1349.652954 1577.146362 1764.060181 1416.709595 1499.185669 1308.798340 2396.469727 1676.204590 1963.995361 1821.414307 1365.291748 1308.537109 2257.724854 3758.402344 1761.181152 1027.665161 2622.645264 1485.140259 2815.517822 962.132507 4697.429199 1754.736450 1407.538086 1530.780151 883.325195 3487.806152 2020.592529 1812.268188 1984.711060 3132.838623 3472.745361 2078.467041 1232.155762 1874.279907 1488.871704 1177.313721 1832.236694 2041.302856 1075.895264 988.425171 3340.009033 3484.733643 1790.323608 1739.429932 1895.466309 1158.450073 2533.073730 1732.613403 1674.651855 2461.574951 3482.960449 3497.341553 2523.674316 1340.914551 1850.556519 1079.261475 1242.116455 1875.733154 2010.561279 1653.962646 964.417053 2254.686035 1199.450684 2963.079102 2117.487793 2109.235107 1407.851318 1750.165161 730.910828 1558.810791 997.891174 
/model/backbone/stage4/stage4.2/short_conv/conv/Conv_param_0 287.800995 100.066925 303.903687 113.717087 292.739471 258.644165 189.262299 287.457153 164.341202 91.974991 285.127258 147.471176 312.747284 182.262634 270.014130 309.342194 85.450569 265.339935 274.629669 168.905502 238.145645 114.834900 268.254150 286.363953 111.961784 111.141876 89.183113 213.706863 261.493134 231.966904 340.672424 236.188156 245.482620 118.390480 252.122299 264.952576 284.237549 158.834564 225.815994 99.666290 247.145279 265.867859 264.403473 299.328491 340.559021 254.193390 297.378204 143.817245 79.207932 168.290573 182.519577 99.803589 209.515060 230.859619 301.923920 154.140045 290.804657 333.284485 278.076965 361.659760 335.326355 117.280502 131.038055 128.895538 100.488121 302.161804 282.793091 195.992859 260.773743 280.946167 228.480759 116.850777 214.971848 215.802002 140.136810 253.444809 177.812057 152.455948 296.147919 72.699852 268.135712 82.165398 376.493713 158.023956 303.194763 128.418961 244.748047 234.575851 276.573273 109.779221 64.875404 119.102570 91.669342 152.857513 319.670593 182.171204 255.142380 224.219482 238.858261 207.997070 175.538940 324.875702 324.993774 257.323151 169.848999 326.514526 318.277100 294.656189 229.946640 84.571274 263.364716 229.125885 283.333191 337.634460 96.590248 180.825455 231.400925 82.222107 153.358307 81.133095 118.329086 296.441833 120.683289 287.501648 151.732651 131.277435 185.132889 168.864136 336.890717 240.526962 267.641998 318.634766 96.575882 202.105026 217.127625 345.293610 171.670105 326.255615 132.963272 356.291809 287.263763 259.378876 257.942169 303.459412 72.181252 115.902969 152.816528 250.792557 157.857529 153.734634 169.451111 337.948242 140.120544 193.612946 232.099991 231.862244 117.267166 275.716003 241.439438 306.508575 224.136108 200.835220 71.262619 148.355331 251.135330 190.777710 321.028351 257.392212 271.908264 234.244415 222.632294 113.310280 279.612152 78.524689 272.650024 301.294159 323.503448 276.627502 98.281021 182.882355 240.295532 110.807251 209.688324 217.818237 278.661743 62.572727 316.383820 165.491974 230.696472 145.865265 116.292824 228.015366 113.273315 284.223999 150.397552 266.799164 120.574959 291.316559 212.611450 138.485367 278.065643 302.809967 353.760895 270.578278 260.789520 371.006958 209.037582 61.556843 293.132935 372.524506 154.003174 122.462952 155.053391 277.892395 64.170082 237.769974 270.421051 156.670914 232.330215 131.550812 381.726379 269.705597 315.751801 250.296753 109.082710 285.098389 178.353363 227.846756 268.799438 303.192932 274.542633 311.661285 115.114319 331.264740 147.480225 77.721062 253.516815 104.662994 109.436874 358.858978 85.161507 258.621887 98.948448 190.409851 81.544670 289.175629 289.986328 249.498962 256.853180 326.523010 109.606522 231.176300 410.939362 324.554779 239.827560 101.080055 
/model/backbone/stage4/stage4.2/main_conv/conv/Conv_param_0 268.293854 367.291870 232.156204 157.514557 75.205368 92.519829 224.678024 278.109558 244.517075 205.885971 201.527069 123.260971 324.906799 246.417969 163.342545 105.980179 80.368477 118.604294 99.969810 192.999634 158.351776 347.871155 137.415726 215.971466 245.161591 234.076065 127.207611 84.276688 178.476028 76.153954 100.523743 173.795654 154.983871 197.745895 242.440186 96.738396 313.274994 210.222488 363.553955 171.518509 254.421692 146.991806 139.949188 170.230026 268.968658 203.190277 104.616043 230.468674 162.949203 119.914955 123.947983 210.009796 340.655151 133.954041 223.505646 307.064301 154.417740 125.043602 148.080627 97.884819 197.187500 163.139832 133.864273 122.713005 151.833771 142.602097 303.965698 152.155197 266.622131 130.382065 108.137825 223.816895 176.979752 138.805176 123.959969 159.351852 210.688873 168.790955 107.252983 142.399414 124.862503 133.805862 276.708923 193.532303 181.528580 98.935333 143.319031 300.309875 121.815407 181.090195 87.308456 127.155685 296.483887 106.612915 294.375641 207.207581 132.085373 173.389099 211.243073 254.120682 239.935150 120.515671 215.834824 100.996735 122.398636 276.032227 154.869370 134.936920 210.728973 180.365433 95.726532 231.340500 97.146805 185.618179 182.332687 159.235001 205.300827 237.258698 237.801025 226.811951 157.235321 170.700409 176.794968 125.139427 153.009277 222.902054 115.063293 169.019073 105.936546 293.825775 179.389053 149.527832 278.648987 246.189423 187.730545 131.521423 102.244888 165.335663 158.339981 282.559509 141.732010 102.012749 207.677948 201.248962 307.855835 113.412125 139.884781 106.415794 197.983154 120.394363 125.227478 200.750473 219.251770 162.370422 265.772949 186.364380 94.033546 302.401184 230.444870 272.997955 237.921448 107.992737 128.612534 153.729019 258.506958 197.096619 192.973587 167.235123 119.820763 111.047630 182.658600 148.607727 255.826111 160.455063 224.517624 88.126465 205.816452 346.572174 259.287323 177.305115 347.662933 261.196625 203.728699 136.185593 76.697968 130.630844 160.475571 139.766891 337.786774 176.551682 177.189697 202.970642 191.827988 183.847397 166.126938 163.678528 188.904694 307.425323 148.048630 58.697723 192.043854 207.248917 326.883575 160.487289 228.531555 144.803513 178.481476 225.020828 134.224091 152.220352 154.602539 180.206329 153.153046 292.038940 180.179199 197.069687 226.114243 106.724182 188.786972 255.476181 71.644783 112.331169 150.576599 210.472260 228.135254 220.268723 225.085815 160.186111 241.619781 201.626541 178.194153 144.483917 188.399918 198.803818 164.872162 95.367935 180.192734 219.723999 128.793304 285.011383 104.028923 146.419037 235.342773 101.655670 131.927170 139.978790 90.336685 166.739761 253.731277 338.791290 243.916107 151.284454 291.313324 117.102386 267.464783 121.817535 
/model/backbone/stage4/stage4.2/blocks/blocks.0/conv1/conv/Conv_param_0 2424.015869 185.101242 200.304871 170.772827 367.569092 490.797089 254.675247 572.558533 132.585571 519.267700 167.110962 341.534088 3700.750977 224.765030 163.369644 663.371460 200.623444 135.163544 191.345200 170.775757 715.091064 126.111427 205.439072 489.914520 551.900452 615.397888 1490.068237 267.101318 1060.609863 120.320107 220.178665 188.819794 829.290588 366.035095 179.279144 216.679993 200.797226 199.507568 529.861938 139.888184 132.091782 166.304214 195.536682 127.769684 804.890503 204.836136 207.125488 133.065720 149.892395 270.652832 178.043945 151.542938 182.358505 156.349167 95.444435 147.169083 316.636475 330.271637 319.456604 158.202271 60.438843 356.846313 143.037506 211.389725 326.081696 132.326416 273.607239 124.746262 115.794662 389.842926 172.875198 244.107346 426.246521 230.322876 264.050903 148.490372 244.677170 131.460403 154.320053 201.234726 215.219879 371.993744 614.088562 219.530777 171.129440 207.549591 207.387405 93.464676 151.223038 549.606018 171.569275 146.777252 152.435364 264.510193 161.380539 370.197449 220.345612 223.139374 168.674377 99.038017 5093.502441 138.032806 3231.104248 136.254929 92.143005 173.039352 312.045715 169.967514 108.950165 948.026123 367.885162 188.457535 5372.936035 551.987427 134.723389 103.665833 179.138672 97.954048 93.061874 213.677170 267.338043 153.600540 706.742737 399.455566 106.574699 203.938599 410.055542 399.436096 257.051605 167.159515 156.762970 309.789337 843.189087 95.105499 771.942871 168.509064 177.263687 4983.337891 377.386719 190.939758 313.510498 198.051773 120.852730 451.106842 76.618698 695.870544 187.036331 242.778931 178.628235 1162.788574 265.660828 155.964661 187.375656 152.826767 352.094879 131.774170 276.156372 133.674683 82.616585 462.163818 808.521729 256.043427 129.476151 133.345978 2109.764648 114.178978 99.098122 215.499939 208.423172 102.980560 185.106262 199.539108 218.115799 119.986687 121.565079 160.879333 203.627563 105.362373 165.049469 168.564636 209.847672 125.808044 1024.850464 458.248291 89.244865 133.051590 348.947266 303.222748 152.084900 154.850143 461.731628 182.225540 140.913010 241.667007 406.720947 209.749405 184.962234 275.639099 195.685608 143.746109 1522.165771 111.759972 237.581924 56.877312 151.640472 270.344299 217.227036 537.683594 112.650970 441.028534 86.645645 121.905678 791.330322 204.445099 125.209801 920.880249 272.671448 160.155548 458.322418 162.268753 242.673935 275.876617 107.177040 232.898407 250.905334 272.837097 458.712158 309.360992 203.776367 781.506470 204.634674 171.367569 225.545349 109.653328 292.593414 190.067886 265.714722 145.022903 226.237320 182.034225 142.522842 790.222046 115.250015 225.422607 167.854492 237.312057 130.577255 232.284760 132.122192 393.743195 128.952316 309.414581 113.315132 141.769012 1987.987061 179.342041 
/model/backbone/stage4/stage4.2/blocks/blocks.0/conv2/depthwise_conv/conv/Conv_param_0 3.886731 85.846100 148.757202 158.474670 132.149933 34.133492 82.858429 132.732330 403.399261 95.773804 72.525482 166.769119 4.575961 114.523621 277.887939 27.058140 56.845512 219.053085 134.110489 389.063446 61.278721 192.273315 171.762665 108.015778 101.754166 71.374458 43.724609 88.766426 43.865971 341.515228 341.666687 138.305756 30.036636 213.385681 294.277039 204.089905 302.721680 240.008667 65.615768 138.163635 281.571136 50.880219 216.055740 295.519531 40.014488 304.162292 290.830811 71.977142 263.916534 95.957397 93.477867 177.861053 190.965714 117.655014 198.116364 211.363068 105.118225 82.952538 98.797600 45.017471 1179.940552 46.581131 445.873322 251.214264 56.235657 426.662598 76.897476 197.547623 164.672714 69.375160 241.692139 142.855225 30.227425 203.806641 196.146118 568.817017 114.133850 105.105385 276.174072 121.156944 287.017181 78.569191 38.251869 162.300781 277.388306 102.475815 225.901581 437.675476 129.712097 47.043545 93.652153 277.072021 306.367767 239.884048 51.134418 63.909878 168.525986 164.041687 142.023087 220.955856 4.523427 469.393646 5.898471 89.793259 353.625610 185.058334 61.437496 474.141998 410.395569 28.302650 116.305954 78.483894 7.231492 172.843964 402.519745 67.013603 63.751408 135.481308 90.615753 116.311066 95.518532 84.304367 29.154892 65.753441 376.308258 244.199936 101.494980 57.220512 262.739410 81.431725 99.807343 93.776146 39.827862 112.791039 28.289309 309.973297 310.541962 3.389211 77.773026 43.042816 147.097229 117.409447 216.089462 65.059875 193.167755 80.185921 281.964203 259.968994 86.319801 8.061106 230.381561 165.443008 316.606995 14.414194 77.674774 312.012634 90.386742 82.264847 79.526222 93.295547 18.085545 214.097763 179.750061 104.889404 13.531359 98.238091 214.609375 213.526611 125.432495 179.791794 214.129120 193.955215 39.065166 200.680161 192.762085 274.989868 280.418793 252.575729 323.353851 53.672707 210.109421 107.833588 9.718786 76.644470 334.054382 19.455673 129.081909 124.210487 138.716019 89.981186 73.807076 152.784622 381.451813 173.675003 20.312916 573.397217 151.746094 188.050751 400.740784 96.836624 15.377131 181.330261 417.685425 286.783630 305.544373 52.185566 251.029083 76.885201 184.422287 163.878326 144.830658 187.614639 73.630920 210.653305 109.655830 41.715000 121.317520 178.390915 34.249203 140.102051 99.491653 91.039627 116.117867 326.591278 157.295761 305.374573 38.424358 92.427956 256.403625 10.514870 133.320602 90.747681 96.176384 358.585205 219.100037 138.291443 221.890320 452.249084 238.775009 208.043823 129.460541 13.584859 229.007401 151.406189 293.597778 263.214294 368.839661 272.670074 96.508415 87.804321 293.747101 115.988983 142.994659 197.560791 21.791586 309.231262 
/model/backbone/stage4/stage4.2/blocks/blocks.0/conv2/pointwise_conv/conv/Conv_param_0 49.635750 259.089600 953.918396 121.297821 923.439697 745.639648 341.400360 1657.746582 608.361572 273.734222 298.690826 630.400269 750.231812 206.420380 449.039337 769.413574 343.414978 313.043701 641.666565 444.384064 585.205505 103.457092 337.223022 260.231476 848.303345 269.665894 908.067322 420.661987 965.209229 1001.977722 75.214317 724.399231 541.668457 426.232849 395.780670 179.904205 49.744045 255.377045 760.361267 453.069946 73.646729 824.661865 452.702332 411.340363 634.913635 394.481873 441.561371 228.034760 943.098022 200.866440 387.357544 713.495117 228.755341 377.159576 352.132690 634.734375 349.850800 268.007782 688.999817 32.747486 57.074459 172.375259 715.268250 837.579773 428.643829 323.316528 132.065262 167.153503 254.934784 198.396942 723.282410 831.468445 753.605957 354.393066 187.719681 73.438858 316.070770 635.016724 107.489052 544.835449 74.391258 394.383545 438.145477 44.659332 128.610733 531.314026 552.015503 194.191742 195.561691 811.799255 263.392059 118.273193 105.681450 905.132446 686.348877 207.421219 853.032227 127.764252 167.816483 674.526001 988.150635 119.980629 715.046753 76.711220 410.607697 817.435669 83.816437 148.084381 202.192307 681.292908 263.495880 240.523407 136.782776 526.519470 842.274109 607.835022 475.905762 430.837494 593.963623 554.367004 199.057556 243.154663 590.834900 179.947937 47.724594 365.706177 1109.269775 717.728333 833.619507 192.703323 719.431213 267.777924 820.419006 452.530853 878.584839 637.007751 194.174744 781.578369 852.600952 740.929016 724.202454 132.068283 334.337280 753.938538 278.871735 441.653656 129.887405 201.331238 759.112671 551.537109 526.518005 300.018280 697.195618 61.388535 959.961365 71.573112 185.521057 43.298023 748.589844 166.670578 763.459778 914.754639 551.354370 681.799255 84.118408 147.531189 49.517254 405.418030 112.203941 885.181702 83.047195 188.952011 345.058105 63.373775 955.430908 517.533142 241.303711 252.353958 559.171326 320.542419 140.032776 713.082092 135.770203 826.766113 313.507172 849.373413 96.735115 235.624786 512.530396 434.174652 345.952698 153.270538 370.025970 745.941345 471.531586 221.135803 598.202209 733.741577 112.511055 839.790710 76.558952 123.252258 707.780884 154.766144 656.372009 571.155334 459.354889 332.519531 300.252167 278.962311 217.708527 724.909851 352.132751 480.663971 726.999695 248.393433 52.079182 207.940704 848.627625 185.525162 678.035461 77.620575 543.020325 164.482269 440.323456 157.334946 560.222900 167.820602 482.132874 378.811310 871.065735 280.309631 955.584961 351.399323 754.238098 97.832069 722.906921 116.789047 362.497375 312.021881 868.150879 321.242371 539.155579 427.486969 518.062988 376.309662 75.161682 288.280548 709.249817 129.746201 107.195656 57.682701 471.178772 384.412109 576.328735 72.683525 
/model/backbone/stage4/stage4.2/attention/fc/Conv_param_0 1313.478882 218.587860 29887756288.000000 5882234368.000000 18907146240.000000 13293609984.000000 112.389259 303.421967 79695642624.000000 238.300461 204.415588 33306064.000000 1541775.500000 12377.584961 191.348755 349.581573 8747130880.000000 732501760.000000 159.978058 9616607232.000000 249.543961 374.583679 88.644897 258.975769 4083926.500000 285.845551 161.589874 388.187592 394.915802 3745731584.000000 528.859253 3428253184.000000 8934555.000000 5917.664062 172.400284 340.848846 216852.671875 65.875465 103564509184.000000 17805641728.000000 524.802917 93280460800.000000 8994888.000000 150.413712 380.739380 124.834305 4672951296.000000 194.637985 3659908864.000000 165.668167 7917237.500000 314.285583 249.339371 148.226990 158.821915 34255.003906 27617.115234 88636751872.000000 8298702848.000000 6658.435547 1505825.750000 286.899658 27480.564453 1020.155273 49971.902344 252.573822 177.003555 294.124451 168.829208 81.131607 26613526528.000000 2286470.250000 983504.437500 127.070717 158.523575 1370.484741 122933305344.000000 2346.553711 4877837824.000000 3011732.750000 461.004608 284.823395 272.584259 2180.803467 312.806427 439889856.000000 229.235550 112.328979 228.888260 253.021973 224.150848 307.164398 502.825012 48586160.000000 15533.146484 89.449669 3293458944.000000 133.114670 316.485779 88.527390 69.531883 175.418427 9730.030273 321.654785 310.423248 6292013056.000000 180.049210 163.356766 117.946442 750758848.000000 306.493805 190.506912 103.908020 5881553408.000000 137413091328.000000 234.777206 8945783808.000000 7788646912.000000 117.987152 255.265656 7299793.000000 69.688004 238.169220 267.819427 531.348389 87336312832.000000 111.300613 52260462592.000000 711178.062500 167.344162 10853349376.000000 196.748703 242.993912 167.329971 4512337408.000000 274.865326 8608965632.000000 9508.160156 60944456.000000 10338135.000000 201.136093 138.443512 1312.404053 139395280.000000 138.479523 6991.215332 291.104462 172.793442 99398754304.000000 319592160.000000 172.386108 208.546036 62409072.000000 990.966553 25439718.000000 501.143188 80.181381 9862.828125 243.918839 131.446533 11486974.000000 79949272.000000 217.691269 229.420410 3286.408447 163.572678 3328680.000000 104605320.000000 494.064484 4634686.000000 623.937927 171.172165 92.079483 109.742241 1480323328.000000 5227785728.000000 283.471680 42413223936.000000 127165.515625 154027622400.000000 234.113922 725526080.000000 301.872498 5986567680.000000 313.764191 8529205760.000000 278.770233 127.711205 182.080383 149.329086 244.136673 407.068451 4376564158431232.000000 87661977600.000000 141.969727 30683547648.000000 4446133248.000000 60208336896.000000 252.753464 82751905792.000000 1434.304565 319.263885 32849385472.000000 236.955811 57193897984.000000 235.223679 19713214.000000 3098080.500000 106.538834 260.735016 103712890880.000000 19224070.000000 91.317406 14606727.000000 305.601959 215.857452 1369.540283 168.919159 700510.562500 156.505722 942.840637 218.829956 244.532761 162.895935 90.469070 178.861557 205438.312500 246.992752 181472.968750 92.408379 43635.839844 102.126228 92977414144.000000 230.212570 171.241257 490.725922 322.758148 279.575958 169.917770 102.987648 421567.937500 3437.136719 41324896256.000000 87.441475 379.982819 131.968399 145.487076 66.792015 16409.683594 120.747864 235.271683 536.357239 309.793762 264.205109 98.738274 1570.987671 225.648346 313.210938 3957212672.000000 69.015457 169.632141 3679305472.000000 8445.875977 1554887424.000000 154.023819 194.939545 306814.687500 169.718521 335.907562 262.283142 5659749376.000000 69658525696.000000 211.958389 254.502350 4159958.000000 107.108200 1303576192.000000 138.150513 160361744.000000 20165027840.000000 135.119781 106.616310 218.493835 153.679611 843357248.000000 193.484299 734014464.000000 29359597568.000000 4640116224.000000 183.353439 288.752563 7499750.500000 5435827.000000 177.826599 304.082367 282.004028 38700.246094 10302910464.000000 2999.274658 26632955904.000000 232486.234375 337.564423 1651.517578 212.565201 165.180832 158.411530 140.318741 202.101212 1594024064.000000 265.807037 917711488.000000 133.413391 115806773248.000000 92017033216.000000 3345764096.000000 246821.765625 2238934.500000 152.796280 284.455780 189.178650 91.866898 5546404.500000 92380676096.000000 305.167572 265.992218 384593152.000000 108062875648.000000 225.253723 306411.593750 49977114624.000000 180.296417 219.942566 267.023865 346.331970 405802.312500 184.182755 98577184.000000 153.930328 109523173376.000000 83.322662 19089602560.000000 227.975159 306.719818 2135661.000000 11022770176.000000 228.583588 377.091583 237.920059 170.565765 78.779808 37729.105469 300.141083 263.871826 229.544800 59100836.000000 187.690079 94.596230 23892436.000000 5258034.500000 64245588.000000 279.664246 6024446464.000000 32264.728516 1174315648.000000 6761.166504 114.024933 18173661184.000000 332.874695 615968.937500 3798411520.000000 201.736908 30643716.000000 284.758270 303.161987 83710432.000000 222.287643 231.465134 103394115584.000000 181.434616 8811863040.000000 189.859131 141.381851 88737.132812 191.667694 5433598.500000 227.269196 66455535616.000000 240560.937500 98.413452 280.469574 162.185333 53284618240.000000 291059840.000000 249675.765625 135.987839 25517457408.000000 1781263.500000 1075157.875000 98186797056.000000 96002580480.000000 154.550507 131.464981 125.454117 296.037415 264.210876 1564930432.000000 130.685471 4195.653320 350.505280 219.016098 242.397629 62819.914062 142.495239 47458948.000000 99098419200.000000 66922225664.000000 116984816.000000 253699584.000000 176.695358 178.455750 319.140656 134.470352 46296.472656 198.559509 49139507200.000000 7444096512.000000 2459799.000000 93.067612 14810261504.000000 172.290405 1481175168.000000 87086360.000000 232974080.000000 12613761024.000000 258.114502 139.094284 2692902144.000000 130.199448 245.048828 923934528.000000 391225696.000000 324.283661 14869696512.000000 83.177986 352.089630 146.974304 79.718643 373.728790 140.293060 286.116150 184.048447 160.709442 233.196869 52827975680.000000 223.207565 65.260368 31582369792.000000 89270575104.000000 79629942784.000000 3694581.750000 40516325376.000000 62959841280.000000 290.494598 125.643349 15020.228516 15901988.000000 197.836655 144.826950 250.083008 86025440.000000 225.734619 257.640015 4822648320.000000 129.237396 269.560883 166.197220 34421988.000000 255.390808 20501850112.000000 5180880384.000000 125.282112 278438.593750 191.354462 263.061859 13529071616.000000 98533576.000000 346.887299 299.431519 151.198975 26410485760.000000 251.310120 148.089020 314.432068 163.142838 166.350159 1235227776.000000 142.526917 34840268.000000 277.138641 252.613113 169.576660 1423219456.000000 84250951680.000000 3503698688.000000 18998398976.000000 1082631.500000 132.696320 74548658176.000000 111029976.000000 10913041408.000000 371372416.000000 166.154449 
/model/backbone/stage4/stage4.2/final_conv/conv/Conv_param_0 196.174255 197.418625 151.745956 218.503448 161.546249 171.425583 222.986099 181.609238 116.250488 207.622482 205.010529 291.025024 189.383850 168.557846 202.392059 235.455307 207.994308 255.525024 149.421310 147.308014 254.918945 259.493805 233.940521 342.542450 146.601196 172.802734 230.550552 213.727249 219.350021 134.130188 286.285675 74.268959 139.486023 230.498871 271.607483 259.338165 119.818550 314.636536 263.662109 124.706566 186.111053 218.172546 138.234955 191.694138 248.151810 154.123016 126.402855 239.899948 174.498871 139.659531 257.836517 239.786148 213.963226 87.281143 287.578949 252.752686 255.999832 232.751831 188.422943 234.351669 135.951096 225.316696 285.168854 306.467010 321.147736 364.712952 250.903473 304.720795 350.830994 254.994598 286.438477 257.676483 326.429871 228.226135 240.619858 248.460770 185.236847 213.674225 287.991913 266.253235 319.071198 224.715652 216.745605 330.950043 211.289154 175.260361 270.475922 136.594101 246.307877 196.126526 266.919342 252.763519 255.777283 316.507721 277.513153 148.369003 182.887054 246.930344 173.318710 320.000977 190.736618 182.170990 252.703354 259.115448 226.865906 143.087921 293.701599 137.204041 231.667770 278.167786 176.748337 251.290436 266.081696 277.409729 248.723282 244.051834 220.454590 177.562897 241.496582 157.802048 265.596863 157.744766 243.850082 207.235626 231.184433 127.533592 182.822617 161.211823 304.426361 233.074799 198.070084 276.104523 161.279633 204.911591 153.082306 294.584259 172.429840 239.788712 249.086105 247.431396 336.648285 140.472458 234.324051 271.285400 100.793709 255.068939 269.162903 232.912308 224.324509 293.069122 253.651596 198.193832 322.255646 146.372787 186.657974 327.141235 287.303345 160.633224 332.855133 240.619339 255.602646 169.907181 320.850983 225.373917 223.864517 331.731934 200.947403 289.285919 315.286621 193.576355 117.682129 122.889389 265.761017 248.214661 302.862793 114.467499 243.680664 243.375275 202.180557 236.768204 135.888489 271.525726 216.749817 177.957245 418.696777 331.330048 223.590469 261.740173 265.819611 204.528671 156.841400 183.427216 217.474945 324.738586 246.370239 159.617355 180.009506 204.816254 144.225784 162.078476 218.577499 199.615616 229.817337 162.834885 171.153534 100.216385 251.825958 277.377319 199.702499 268.523926 193.727203 399.250366 119.607567 303.566589 139.469315 294.276093 186.338394 169.555679 148.525024 235.275787 265.788940 287.007477 269.079926 201.339096 333.398895 236.075485 191.258102 238.867279 253.402130 139.681183 171.648010 130.178360 284.437653 163.022995 129.630081 254.976501 184.533997 181.877426 140.158066 221.434448 256.556580 211.274139 251.562759 252.302643 167.491074 186.766098 151.179550 189.444199 240.685776 258.435486 138.664581 256.972168 204.430084 135.442886 91.097916 165.060944 251.953735 315.188171 208.640167 157.924530 197.612885 231.734421 238.280853 464.932770 152.834000 145.862427 221.872391 249.035324 329.135071 175.420914 226.029724 175.090500 191.411835 287.680603 193.738281 256.480469 166.816879 255.652939 271.189148 244.819504 289.095551 263.528015 265.667633 204.189957 319.857025 289.964294 264.380768 289.680359 320.278595 87.878914 233.871216 184.368835 220.239990 116.333221 260.795990 190.578125 231.320267 296.410950 231.297943 245.299911 264.873016 218.644272 167.763428 109.732468 276.876953 215.767349 163.788132 160.402725 168.397141 312.900574 182.528473 135.661545 247.019043 347.239288 214.109467 267.220276 280.510010 154.243073 117.901131 263.518494 190.075470 167.589478 271.517365 200.191330 253.025650 292.506165 316.123871 154.312256 240.003281 353.719238 132.106277 190.323059 324.753143 213.816742 169.522736 216.312515 247.349274 148.856552 285.796875 253.823837 141.699783 242.987976 278.402130 269.952087 337.359772 255.735123 145.061493 268.754730 243.555649 200.605255 254.398483 242.335098 204.345947 243.225418 188.015778 320.041595 363.831085 234.871307 249.363159 348.691162 206.074829 166.823318 267.317627 289.508667 149.582581 143.227203 148.166580 223.985519 199.064621 174.717041 303.560028 347.961426 148.416031 237.778778 263.134491 220.963913 213.570404 158.548325 180.179504 213.274261 241.093552 179.075333 153.468246 298.401001 211.151428 264.552979 217.971954 240.206451 150.430771 274.986115 110.363373 72.769257 133.163986 114.922775 207.229156 308.233734 250.595932 193.195053 317.358002 315.735779 218.621841 335.942627 279.237457 319.535156 181.186676 244.671616 229.504440 209.336456 203.777069 118.767296 290.375824 204.960495 221.862778 226.124542 312.266266 288.846802 296.528595 240.236679 329.751068 238.079269 249.800217 178.712234 204.777313 309.869263 156.425339 293.031952 193.299194 195.263535 244.434998 164.989624 246.847839 516.020996 287.616119 199.773590 152.549911 295.346985 162.157089 182.897324 99.341003 260.670593 168.728973 159.254257 226.159485 230.259933 260.898010 172.407333 243.860779 261.739746 340.913452 224.382950 201.972443 274.059082 274.425232 308.173798 213.890640 188.064880 256.356262 148.322357 190.241837 137.858017 301.850128 224.577209 191.083160 158.077133 251.206894 244.990219 189.085571 191.561691 204.145172 161.067184 160.938538 288.619934 133.810410 144.370224 260.636230 223.961792 138.419815 186.833572 255.932037 209.853836 101.142227 208.626968 125.094666 230.918350 186.627838 238.152832 133.536957 288.938690 360.209747 224.685104 197.946808 204.951523 137.430084 287.372345 205.592606 201.818115 230.731598 280.842621 255.272522 274.051147 122.281120 189.628143 283.985229 292.254730 325.134613 214.922806 240.233322 173.036057 174.492538 336.385040 228.383804 156.584961 
/model/neck/reduce_layers.0/conv/Conv_param_0 400.049988 466.646027 518.406677 755.604980 462.874756 734.537537 851.261475 497.928711 740.535767 713.880798 363.173126 900.065613 662.540710 391.574188 428.660950 513.476318 747.502380 514.179077 389.485504 690.025208 685.541870 865.789246 636.061096 851.736938 465.131226 498.580017 659.090576 612.768311 686.995667 877.931702 763.548035 638.155762 697.625488 661.415283 664.820251 629.876160 346.004486 633.625061 617.308716 522.510132 560.469727 699.933533 569.514954 603.307495 692.129883 577.522583 723.999451 735.103516 511.278778 920.351990 530.620789 455.610626 556.425964 642.429138 384.644562 552.012085 803.142151 408.470367 933.305237 523.149231 537.088806 547.095093 644.314941 692.380676 541.373840 814.818420 1034.705322 643.935120 778.122009 583.779968 719.590088 421.924988 343.201691 493.647095 557.610352 520.027649 696.527100 679.061218 714.108337 845.243164 688.220276 690.510681 475.715973 421.977539 476.998688 510.862122 808.206543 471.797089 724.704712 579.066040 779.697693 601.721008 652.010315 565.188171 846.031189 317.988922 509.415100 677.772400 534.208740 618.914246 326.826965 563.953491 650.592773 1089.862671 602.129333 476.483429 610.585388 726.304626 787.725159 329.391876 623.104980 520.049072 368.931244 686.516479 308.475220 624.914246 608.048828 713.154663 883.015015 601.598083 714.474426 502.322052 535.999939 864.294861 550.997925 716.259583 482.111755 497.152618 807.979309 420.235229 596.023071 603.390991 710.078857 504.153625 471.571136 598.859253 626.331238 433.877716 733.417603 255.611923 436.933228 650.481445 564.318054 408.391998 601.384033 523.743469 436.327271 817.207458 522.582764 632.326599 432.616394 562.714539 804.021362 721.343323 694.949341 629.736938 736.084595 696.660034 478.526428 441.287231 558.887207 360.333679 783.258728 644.708740 566.133911 466.323029 432.097626 593.175659 355.791931 537.854004 558.655029 804.574463 586.734680 571.664124 421.592804 471.480347 434.992126 904.626831 627.490356 855.813843 618.295776 413.464874 636.238647 848.858765 505.699493 702.343872 469.695709 642.881531 677.469360 405.985596 689.138306 546.136475 537.469055 537.112732 611.823364 511.279083 533.624573 656.399109 374.295471 609.518188 658.690735 881.374695 830.017517 363.054474 722.140015 686.133850 543.059875 416.461395 796.592773 751.731140 705.409973 571.942444 544.917480 867.001160 710.827271 571.103088 385.869659 613.276306 489.717529 613.871887 688.225830 260.516602 405.368988 658.524841 395.455841 770.133850 798.651428 432.752228 666.256775 565.755798 575.648499 1133.923218 680.085388 626.118042 817.555115 949.606201 1044.310303 638.514282 464.402435 616.362244 740.996033 690.458069 489.397522 522.884766 395.381500 584.887512 767.465759 582.214294 540.225952 556.535156 492.469879 630.065125 460.069733 901.829712 530.545654 593.825317 
/model/neck/top_down_blocks.0/short_conv/conv/Conv_param_0 373.660461 342.321075 415.613220 353.891724 290.926117 400.316772 533.291809 304.850433 299.597260 456.118195 375.509216 413.263245 457.624908 319.173035 536.340515 425.450439 462.921570 465.633209 390.720062 272.663879 408.584503 419.389313 437.945587 421.266510 273.992920 306.184052 239.444443 666.645081 431.171387 284.421478 631.165344 337.867737 188.251053 456.365662 409.263031 468.742371 181.821518 289.804108 435.245392 472.932098 234.271378 292.565613 426.746155 319.038300 149.881744 319.149933 599.472961 532.418701 419.304108 613.172852 499.474640 332.437866 436.321442 365.510651 677.659241 438.999237 707.436523 230.137695 229.127609 420.806610 325.607361 271.372559 490.334778 295.662659 346.979340 368.087830 353.294220 136.317352 430.935486 327.233154 574.974854 309.126953 432.459564 589.455872 372.498901 388.892365 333.801178 264.443604 360.796722 402.504028 435.357056 379.236053 443.042114 346.450439 347.632294 482.256561 551.598022 468.303345 404.372833 372.982452 388.193542 339.626617 147.358459 313.657806 491.531830 629.618652 467.627777 588.007874 340.560577 395.175079 312.466827 386.975006 375.161743 400.507812 287.728302 290.829895 269.899323 494.220337 265.126648 569.459167 330.316986 251.342010 306.026642 270.372589 498.266266 443.145264 274.960358 334.206726 334.516846 363.142059 474.600769 412.032471 454.491455 290.011841 159.586258 429.419464 396.389252 287.522644 
/model/neck/top_down_blocks.0/main_conv/conv/Conv_param_0 391.824310 429.870758 371.575775 415.735077 645.404297 434.152649 352.984802 214.880234 218.858627 375.365814 461.808563 325.505402 333.558655 217.981766 244.328552 470.886261 299.946320 333.533600 504.604156 369.906647 602.845947 265.318146 222.058990 296.260529 307.192780 235.935638 398.232971 233.302414 293.909668 456.789093 316.254547 156.204300 599.192017 384.484619 503.385773 347.180786 452.578827 542.877502 350.927521 525.040527 220.498550 329.112793 196.332596 477.539703 152.796982 334.299133 186.599533 619.688721 460.898804 224.891235 364.208130 537.602173 402.902740 232.297989 269.470093 497.318909 274.601898 307.886719 395.171082 240.590332 449.587646 437.503571 350.306305 209.822922 198.687485 455.080841 238.961899 495.358185 609.528320 543.145081 299.052887 167.977509 247.778030 283.016418 172.089539 317.860413 416.949463 672.952698 400.105042 473.963715 769.830627 304.177887 384.098572 373.892334 287.736023 359.552704 531.852295 305.139679 319.545654 901.624634 344.212311 350.359924 566.387451 1043.234741 459.306213 323.170990 404.464569 346.529999 281.529938 631.292297 661.574463 313.891632 405.830994 381.152283 183.344894 227.884430 272.156952 418.651459 271.393311 229.184662 320.730255 150.438354 419.441345 411.714050 466.209320 666.604858 563.922546 740.520081 482.382782 243.011673 543.581238 289.894012 696.066895 760.644287 378.184662 281.794739 222.392532 335.548065 
/model/neck/top_down_blocks.0/blocks/blocks.0/conv1/conv/Conv_param_0 201.578873 291.452087 42.022331 297.345734 150.685043 257.072235 103.423874 82.045769 377.537354 1463.404053 153.283737 93.819519 291.447845 1405.378418 313.143860 262.365448 851.859558 187.252350 146.683685 124.210594 195.205734 226.413193 111.872490 141.826263 151.631226 153.808762 299.163391 628.249023 916.924927 220.724335 155.988586 159.531998 158.723724 68.728851 514.724548 78.483780 156.738190 77.765930 742.494507 378.078522 252.761520 222.446945 1496.343384 165.232605 149.298279 1709.286499 104.424896 270.450867 96.907104 167.266144 390.117218 1191.479492 1603.164429 231.368988 110.187431 909.091492 342.520599 79.599327 103.485901 157.055710 42.191807 124.876404 75.621132 45.207191 109.041290 304.072021 118.947273 118.043442 115.441147 171.355148 102.936874 85.929764 110.572212 1627.840698 152.723145 86.798996 210.337799 474.632996 166.996246 301.365112 240.443634 200.104858 164.847977 100.686493 139.798035 65.062164 246.673157 118.317909 127.495201 225.524216 1649.122314 183.866821 635.195801 325.058990 85.115105 154.743713 140.581940 233.673859 101.963470 103.586975 158.815491 211.569443 248.733124 542.925476 226.197845 100.897163 545.734070 462.345978 153.942551 717.736145 756.861816 130.504547 173.006805 160.226608 99.465324 156.323135 822.050598 162.215927 258.386444 156.923355 149.487503 200.138748 107.883392 227.911453 207.081451 229.897873 822.689209 153.905975 
/model/neck/top_down_blocks.0/blocks/blocks.0/conv2/depthwise_conv/conv/Conv_param_0 249.741547 52.216736 90.221527 85.992577 93.996872 67.838829 155.340546 97.727333 29.158424 2.299154 76.627037 134.278717 26.130974 13.088563 125.910309 130.419922 11.514028 35.537163 140.235535 197.618423 109.032463 60.601482 186.742691 184.445480 215.577087 364.702240 34.840084 38.306164 26.365423 72.768280 79.264069 85.069626 164.022369 144.189758 49.994713 250.606537 50.585663 228.358658 9.937232 98.174797 128.564026 34.262291 7.583889 298.333771 214.837646 6.823266 145.842316 179.385620 78.295273 144.371231 95.176521 14.396130 12.440988 106.701286 56.105659 13.377514 200.854706 232.840240 50.074036 39.064636 393.156891 347.306824 127.714439 203.045471 145.464691 114.274651 145.583038 67.225800 132.627167 88.597855 120.411247 182.193924 216.999527 5.702048 232.073853 222.954361 40.259686 77.656578 147.168991 137.674149 43.586647 151.698578 140.924698 398.380951 65.364700 642.386292 50.486668 125.919884 87.795258 60.235710 6.510767 245.339630 11.169512 48.256756 43.872799 109.389633 86.677803 153.286865 183.731110 60.306488 83.442009 59.335426 65.063805 22.840412 186.436279 31.579086 16.037439 55.074886 194.644135 23.910818 11.848817 340.435455 152.561600 169.073441 100.141335 105.711533 16.486471 219.318634 18.338877 220.628189 34.552765 72.403870 109.796951 85.507095 120.669212 45.184490 6.977552 78.786812 
/model/neck/top_down_blocks.0/blocks/blocks.0/conv2/pointwise_conv/conv/Conv_param_0 559.780762 309.946014 546.749207 353.203064 797.462097 311.046753 544.728699 363.777191 236.753311 188.919998 309.992035 536.871704 530.583618 359.183777 507.951996 666.628967 487.130676 587.783325 248.670395 571.211792 213.974472 388.318176 510.334930 528.334595 706.939209 289.656982 586.926147 384.615021 328.637665 470.979675 264.761230 398.805481 204.444092 415.058075 459.724792 248.243149 402.429688 293.245270 523.908569 292.050873 445.922180 508.393188 606.511230 516.896057 296.579071 468.948761 269.255707 297.500366 317.383972 416.300690 234.905273 182.569977 515.953247 481.776337 519.495789 571.371704 503.012451 781.165527 500.066223 709.396179 334.332153 358.713898 307.559296 435.028137 262.219269 272.381958 560.255005 356.812378 419.476135 461.197571 462.317902 589.328796 590.673767 496.550385 598.778687 368.403259 231.121994 118.848450 248.657486 728.579773 530.259033 275.877014 431.846985 216.668381 297.142090 341.584625 302.840881 286.568542 438.174438 390.837494 515.245728 430.660034 300.346344 470.923615 531.237854 519.716614 365.410919 231.009674 375.854126 464.918701 525.086853 301.161102 331.345123 333.746216 512.800232 468.435883 294.531311 469.969818 513.255432 398.822662 534.167908 424.866089 368.034149 346.338623 656.051575 276.818604 565.780884 412.792969 501.533508 726.763611 495.976868 641.052063 629.951050 466.052368 642.326416 535.533142 326.227844 461.575958 
/model/neck/top_down_blocks.0/final_conv/conv/Conv_param_0 309.982300 259.612122 443.435089 306.057068 333.159760 367.330780 314.511353 220.062424 377.032379 342.321045 391.624939 203.895416 161.103439 309.315277 440.334900 158.924561 270.009003 255.908966 437.138062 385.109070 351.318420 328.838043 414.163727 569.452759 409.354706 307.572937 312.457458 311.624054 305.972260 369.054962 381.557159 348.880890 470.604675 368.679901 324.133362 385.546448 499.155212 272.433014 358.334595 381.886688 320.918640 476.851379 252.619659 336.940247 328.415558 225.179153 214.019119 262.072327 284.376129 252.373657 311.521057 373.138672 355.003967 232.613586 394.738983 294.221313 418.574127 355.156738 368.889038 401.370087 412.854004 325.067627 264.152313 151.805771 240.310349 250.825592 186.763596 431.193634 437.212524 217.200058 364.809113 204.506409 299.816315 336.905579 257.272217 312.713593 312.486908 271.250214 293.369568 360.362427 327.040558 407.887207 260.013123 402.716431 195.359650 446.504761 293.554962 493.031799 295.170013 498.076660 275.982758 398.866241 254.540100 300.496033 211.389465 515.138245 304.181427 132.689728 190.567642 268.856354 504.221680 398.295410 286.536835 226.962326 369.092804 295.893616 298.133331 309.624023 275.678528 338.690399 384.949707 240.739288 304.537872 447.018799 251.655045 467.824738 339.112976 372.420105 422.810425 246.896439 359.493286 351.362854 336.029083 306.097198 391.229736 431.326599 511.543671 409.578735 203.520004 337.291412 361.661255 549.119019 424.891724 342.936920 520.472717 434.807800 375.336029 327.135345 315.316467 354.268921 305.102325 110.050560 450.156403 200.565598 254.345215 281.673492 188.685074 320.857666 484.953644 287.839630 262.374237 162.589798 266.618408 241.637299 212.350632 166.484436 276.995239 329.061218 369.384735 278.929871 325.212219 360.855316 380.155853 315.641815 409.128052 257.605347 239.440750 324.188171 282.460144 452.640594 314.964020 284.134735 236.152069 308.405792 314.837524 259.532196 367.180084 338.402557 364.387085 555.282104 268.813263 270.802094 403.117676 208.236740 283.237457 291.203125 607.128967 197.753784 499.725739 467.747620 336.719299 311.726807 508.040558 383.720306 424.389496 235.211731 269.077271 423.930145 173.589249 387.571045 385.978088 246.227005 344.072571 379.718628 335.252655 317.426056 320.374451 177.794708 65.469574 281.631409 268.394196 306.670013 403.026825 452.267853 230.963547 270.702515 367.920441 173.185471 407.069092 394.361328 243.537918 251.686264 301.893951 180.431900 375.478424 355.145721 336.598663 350.294403 235.494400 440.186401 505.733093 389.876099 313.773560 188.844284 404.863525 436.930817 383.211945 347.384644 242.970001 586.033203 499.439545 200.429123 383.418701 195.748489 250.913513 363.953033 237.560364 217.696228 354.145264 292.162384 298.982788 345.463562 168.545303 288.371826 392.218964 290.756165 
/model/neck/reduce_layers.1/conv/Conv_param_0 321.154449 399.189270 657.736511 465.489990 344.317841 526.884155 585.371765 315.405609 373.573914 342.434662 293.568604 320.313477 249.693512 238.623871 328.041687 344.281586 586.684448 446.263306 550.737854 554.813477 373.880493 357.203613 278.366028 411.751801 347.116699 454.977386 278.679626 299.177521 305.519379 244.463669 502.562958 360.596497 401.363464 502.336182 283.174316 374.516449 305.645447 576.352722 374.123688 321.545074 350.649628 513.415466 489.819885 475.366852 399.718414 369.549683 362.625854 355.445984 497.949829 432.264526 469.623840 560.992188 342.914703 638.852051 214.411469 553.883301 409.610657 366.709137 472.140350 476.217072 618.954651 395.100555 377.183655 371.622620 349.767792 465.667664 374.502716 393.731964 305.429749 411.566254 343.809082 433.230438 419.830383 361.562500 403.809174 611.475647 312.132782 233.541901 335.708801 258.635315 481.943542 676.650574 231.542999 427.908234 496.091248 333.191132 493.631134 417.611542 336.884644 195.502304 330.149902 277.517883 313.029083 236.740189 409.248108 644.655090 194.545639 535.493286 383.284943 343.552216 294.981781 470.395172 659.940979 367.132477 295.054047 337.664551 448.887390 218.591339 501.839203 372.901642 250.266479 255.451004 314.424469 526.022644 287.786652 264.677887 466.628845 265.962402 321.973969 572.849976 254.606461 196.829025 340.132507 426.833557 403.070190 291.323792 414.473969 393.092438 
/model/neck/top_down_blocks.1/short_conv/conv/Conv_param_0 231.261658 382.388245 192.741699 489.095398 168.020309 322.962646 295.107819 139.720428 430.504089 163.868835 502.061523 219.479111 252.704422 207.200836 337.394897 96.782776 482.603271 338.793976 455.243073 516.013123 364.965790 90.132576 259.106476 274.155762 283.987366 589.556702 305.320343 217.099228 214.732544 281.063843 413.402161 434.851624 447.611511 99.770409 160.992432 307.980225 495.403900 273.089844 207.566269 338.315704 246.965988 456.094360 250.448059 363.793549 490.933807 423.324738 343.377716 548.867493 263.072723 249.198486 207.518997 448.093628 163.262070 491.493744 550.530396 414.592194 294.060822 345.495300 315.548187 565.672729 390.430634 286.212219 114.639992 311.592133 
/model/neck/top_down_blocks.1/main_conv/conv/Conv_param_0 358.707306 176.188950 369.174133 823.089233 351.372894 302.938538 265.904602 180.228088 881.521484 213.170212 326.805573 617.009033 252.126434 303.230530 297.160339 513.442932 386.699768 153.081802 264.351288 934.657166 443.310242 276.190155 348.512695 228.682480 170.678802 215.989349 284.638519 522.791199 311.203400 332.943481 186.665955 334.178284 290.122070 425.665039 829.828918 303.538696 262.469208 256.070801 295.639679 1018.822937 470.363129 139.380753 417.734802 446.517334 419.880585 857.661743 340.116241 955.636230 290.145386 337.207062 263.108215 287.476410 209.889633 609.132385 290.801086 684.229614 293.896362 300.371216 511.733063 351.491913 311.940369 581.951355 359.012085 252.551880 
/model/neck/top_down_blocks.1/blocks/blocks.0/conv1/conv/Conv_param_0 2093.119141 134.877274 48.171677 351.160767 39.575142 64.061241 85.352997 47.910099 32.816452 33.626652 46.737755 66.509689 68.788841 292.011444 73.586319 291.078217 54.815525 35.179451 52.328022 49.107315 76.052338 29.639997 86.773682 47.329365 73.160202 53.932148 50.661266 31.113794 49.977245 65.714630 1087.022827 45.425751 70.174805 21.702013 65.513153 199.117599 63.542465 41.981640 64.996277 41.417778 54.837566 82.767967 42.769337 40.846020 26.853874 52.987099 120.842972 84.179169 57.349735 52.007732 41.150471 60.309746 65.334396 35.536777 49.884151 78.240143 190.074188 53.719692 441.502258 38.097542 33.916138 52.904682 33.433144 68.665955 
/model/neck/top_down_blocks.1/blocks/blocks.0/conv2/depthwise_conv/conv/Conv_param_0 1.516223 227.343658 79.202179 12.287301 32.867321 51.950863 80.968704 68.797493 70.872452 101.852409 153.580933 24.404694 118.668457 65.760773 28.158787 37.744572 23.675888 156.820999 336.868591 103.868866 73.545837 79.658981 36.132488 55.239803 87.383652 80.946640 93.925819 253.008286 76.082909 62.545506 3.907926 73.659782 111.923401 166.020569 55.186703 66.244331 73.877655 67.670578 175.196930 104.336601 61.752632 160.662689 86.678589 77.684669 59.180061 64.579849 79.880989 35.819038 61.963646 121.026131 78.165512 63.923241 15.578289 81.755081 139.196793 107.878563 50.349819 84.187096 28.754517 48.985706 135.239944 30.606466 68.588554 147.001007 
/model/neck/top_down_blocks.1/blocks/blocks.0/conv2/pointwise_conv/conv/Conv_param_0 408.010101 272.952667 167.273087 302.472809 308.833069 247.533981 145.243271 265.679901 252.775330 553.995850 329.520844 325.870758 137.131119 188.634842 295.958801 195.384064 467.854950 285.691315 419.535248 265.013306 365.453766 271.935791 139.078461 330.932770 192.906708 586.054626 282.868683 296.198792 333.732727 328.504028 266.911591 297.618042 302.841339 242.460571 138.564026 311.202576 273.602081 215.654175 238.120651 276.975922 162.382401 407.476685 220.259705 507.948761 199.530029 181.630829 279.693756 337.902954 274.531067 302.539398 208.979187 274.478607 538.894592 549.175964 228.035782 263.070282 340.167938 292.088409 344.960602 240.165756 356.964874 146.204666 182.861115 234.493240 
/model/neck/top_down_blocks.1/final_conv/conv/Conv_param_0 223.062439 335.117096 605.093872 239.358795 239.675674 363.395630 163.527573 392.359192 321.175842 496.736420 226.081619 236.131531 524.294006 380.193298 207.314697 529.730164 686.561279 153.304443 230.163849 241.001816 513.973877 211.221146 277.787781 216.675598 180.294891 732.684387 178.065918 139.236923 310.476074 236.951828 574.775574 202.344040 258.648682 139.672089 191.771194 199.755203 204.351242 265.171326 427.837189 252.842422 235.112427 285.465820 394.696350 199.923431 526.147522 166.182892 288.092926 150.247910 392.372955 294.468689 199.497833 176.804596 139.479218 194.379059 267.762695 239.539352 287.418121 189.367340 142.116852 508.563721 153.851669 649.645935 381.507141 156.075546 161.365143 262.944977 450.114716 295.996887 163.716965 406.399780 718.301025 716.996460 254.386200 185.720291 207.566437 404.160248 167.799973 825.831421 172.443573 143.566833 363.141449 348.411072 176.486755 472.090210 621.084717 644.231628 478.267365 324.864899 176.471100 535.716797 419.415009 194.743149 177.874222 310.603638 712.939514 673.417847 671.748901 233.600891 241.103500 155.604050 279.662201 158.443817 244.826080 243.654388 749.002686 200.608429 244.931610 258.582367 408.763214 398.964355 335.981140 356.859039 170.026306 278.294891 377.632446 215.505081 776.190857 598.648132 209.029114 213.189011 263.141144 198.454605 296.984772 528.478943 262.156097 250.398117 458.832794 372.261444 
/model/neck/downsamples.0/conv/Conv_param_0 497.301788 734.581848 787.828308 280.298340 307.256531 337.687683 278.984924 329.979340 459.366089 489.097809 405.434692 458.590942 389.489716 291.137878 516.631042 390.993896 260.776276 336.392822 559.303467 347.654419 286.481628 646.482056 332.524231 322.900635 691.416992 799.205139 368.196564 367.829834 212.086639 398.996582 322.237305 324.242035 297.213593 261.244659 641.287537 316.785095 505.883392 324.363190 289.191223 187.647293 236.198380 319.018066 333.819000 288.859650 248.948334 459.028076 371.151489 272.189453 359.648071 646.687073 310.506165 450.730103 295.245789 388.168640 486.566528 391.739319 367.085785 558.179626 233.975616 636.343018 303.083191 205.801743 289.201141 313.093323 362.879425 393.502319 391.127197 487.301361 761.831787 338.162506 354.826172 255.082901 191.094955 643.579468 511.161469 240.150299 293.136932 316.447357 352.746521 523.604797 372.159729 470.109558 651.467346 316.500885 371.078918 378.846863 271.460693 773.253174 261.426758 348.706848 872.310120 382.449463 269.252136 290.587952 343.546600 287.997711 879.142639 384.053009 262.310577 308.712433 389.282043 354.641174 489.059143 483.911133 834.897583 267.712189 339.719147 321.888672 311.385559 274.692108 677.053955 631.186035 431.660492 346.100067 209.898621 497.481354 582.776917 519.182068 312.288483 287.337677 311.626373 1101.489014 882.237610 376.913422 616.983582 470.358398 369.046417 536.240051 
